/**
  ******************************************************************************
  * @file    network_data_params.c
  * @author  AST Embedded Analytics Research Platform
  * @date    Tue Apr 16 15:55:37 2024
  * @brief   AI Tool Automatic Code Generator for Embedded NN computing
  ******************************************************************************
  * Copyright (c) 2024 STMicroelectronics.
  * All rights reserved.
  *
  * This software is licensed under terms that can be found in the LICENSE file
  * in the root directory of this software component.
  * If no LICENSE file comes with this software, it is provided AS-IS.
  ******************************************************************************
  */

#include "network_data_params.h"


/**  Activations Section  ****************************************************/
ai_handle g_network_activations_table[1 + 2] = {
  AI_HANDLE_PTR(AI_MAGIC_MARKER),
  AI_HANDLE_PTR(NULL),
  AI_HANDLE_PTR(AI_MAGIC_MARKER),
};




/**  Weights Section  ********************************************************/
AI_ALIGNED(32)
const ai_u64 s_network_weights_array_u64[48197] = {
  0xae0aa99ececeb3e2U, 0xf7ebe798abe9f6a0U, 0x2e35fbbff4241913U, 0x38eab1a103b61ed7U,
  0x20f525d8cc16ec47U, 0x7f50711bd6d43803U, 0x1ed3fad5e5475206U, 0x5523fc3c51e52ac5U,
  0x4f8d85145150455U, 0xd2c28135b84ac4fbU, 0xa5e103eb9d712eU, 0x94ee8260c4f3c1d3U,
  0x8fca154dbb5357ecU, 0x2cccc6e2059b9de5U, 0xa751b60f38fddc34U, 0x26b9d11a9af5e8fcU,
  0x274a856aa3e970fdU, 0x6191cfb509362386U, 0xe81321a2cf0005bbU, 0xb6aaf331b33f11bfU,
  0xc14160ed29098b2eU, 0x6af24b5c3d45613U, 0xc861446adf113693U, 0xadd0b3c3c50e118U,
  0x1c2a4252688e0b17U, 0xa38bf2db202e23b8U, 0xcd64df05084b99eaU, 0x250ac6febfcdcb53U,
  0x5279634b6f4a5381U, 0x4a295a7642526a5dU, 0x2f39685044583a5fU, 0x6f552b384c3a3764U,
  0x704562733b437032U, 0x2b387f64716d4c70U, 0x4f674c6f634f376aU, 0x504a606545724d3fU,
  0x2c3f6c61387c5d3eU, 0xf77c212574626c7dU, 0xda31f62c48113751U, 0xf1748f516ed0109U,
  0x1213f444e124e334U, 0x4025fc3b7e503aa5U, 0xf6bfd715b3baaff2U, 0x9911301f523b3018U,
  0x94ee10daaac4c7a0U, 0xa1b7201f2bf71b50U, 0x1100c9be88cd81b0U, 0x4f3e26f0584236f7U,
  0xd0ead09b0bedbd2U, 0xcf7efdd0f31dc7cU, 0x7f6f59b7d6e9b0aaU, 0xf5df00d1bf09d300U,
  0x5362861f622f131U, 0xc00fcc16b820ea2aU, 0xfa1d5e45f1f92f2cU, 0x3f4c0f62de6e004U,
  0x4e6800001becU, 0x2071ffffc17eU, 0x5fafffffa9fcU, 0x2e2410effffff76cU,
  0x497d102a00f51369U, 0xf9ed0a51e62bf816U, 0xdd11ddf1ed26271aU, 0xf53ce21a1cee337fU,
  0x10fbffcc0af0e1U, 0xe9f9e13cdc09ebf8U, 0x1330e51eee331556U, 0xfa220b12e925f72aU,
  0x5370051eddfe9dcU, 0x183e0e26223e1017U, 0xdc29380b3501ec36U, 0xe4bbe9dc27f238ebU,
  0xd68131a0dde6ff93U, 0xd4d4c99609a61df9U, 0x26b7019704932ba0U, 0xcfca2b9522ecfdc3U,
  0xf7c9158d148a2dc0U, 0xe792129fd5c72e91U, 0xd3c4e3d9cf9505c1U, 0x198a1ff521cf3084U,
  0xf2ceefb5ecd3f19bU, 0xf89af9aa1ad9c3e8U, 0xdaf2c3e0e498e99aU, 0xb01eee32fdd7f2a8U,
  0x214e2191b28d641U, 0xfd01121c28e0f6feU, 0xb1241f3f1bd653e3U, 0xbefb08e4f706067fU,
  0x1f09ea341c19f823U, 0x9e47042cfb192fe7U, 0xb9f2c7d3163a215bU, 0xff250cfffef51deeU,
  0xdd0c0e6f0a212fdcU, 0xd41214e6ea7ef819U, 0x1c2600283bfae927U, 0x28f11100ff1c31eeU,
  0x63503f0070f00cdU, 0x9f93026e50707eeU, 0x25dfdfc7f105f1d8U, 0x1c380dde09031de2U,
  0xddf42f6b162edd48U, 0x13b701f6e803d0c9U, 0x3b232efff715e605U, 0xe7eb1b63f02af740U,
  0x2cdaddbffe04c2f4U, 0x486e1d0f09eaf034U, 0xf804487fd9fafd3dU, 0xffe5e300dbf7b5c8U,
  0x442270e08ed0910U, 0xbdb0c4ae6ffdefeU, 0x33f80436e94ff0e5U, 0xe36f1fb10062e37U,
  0x1f02d5ccf09080fU, 0x45f80120ff14ba07U, 0x131b120f204a4b4bU, 0xf4331645e50de77fU,
  0x3fcf1cc8f534bdeeU, 0x2e1cf709131b231bU, 0xe64043250d08fb3dU, 0x351f0f3402370302U,
  0x2313f60c1bedff2eU, 0x22d0082c1d15f5dcU, 0x2626fbffda0ef30bU, 0x515b190020142854U,
  0x210f032fd91a20f5U, 0x153a151fb731f5e8U, 0x3461d71d19181b7fU, 0x17e3cc1db5d7e122U,
  0x2700135be2cfd003U, 0x33222a47e45d3233U, 0xf939fa0bd8e30e60U, 0xbb2e1739000a0ce4U,
  0xe740eedd2511fe7fU, 0x24ff20ea2fc7e11eU, 0xdd03217120e347efU, 0xca2cde29f8030d43U,
  0x3eee2260ef6f4f4U, 0xd11a066bfd2a3efbU, 0xf150c0f1fe5c497eU, 0xd919c51a26e726f0U,
  0xff36243724d90fd4U, 0xe154da0be1513846U, 0x24edf028de062413U, 0x1919e2071c264bd8U,
  0xf3572bde13ec0268U, 0x2401ed0a38e10de2U, 0xf72c14312afe42fdU, 0xb48e1f3e112547fU,
  0xf8b5e03df9b3f2b4U, 0x110f2440e93fe903U, 0x3615c0eb0f293a3cU, 0x1d0ac3d7dbe5f51bU,
  0x231192a09f20bedU, 0x1537d414171f0c38U, 0x241cf0e0a011a2bU, 0x3617130febf6e6daU,
  0x3e6d140518fb3a52U, 0xe2040014da121217U, 0x433fd32d9e2ec15U, 0x1567de1cfa44257fU,
  0x1dffbb0ecfdee9dfU, 0xc11e84ddc0521ecU, 0x284503371464454dU, 0xecd7db2fd3250238U,
  0x2d1a0a0fce01dbe6U, 0x3d0d0b1c1c4322fdU, 0x952ff1b1a020756U, 0xe30a013bf729f1f9U,
  0xd8093bb6e0ba1607U, 0x12cd144e3ae5dfccU, 0xe322e9322f0d29efU, 0xe4f8d9d2000b07dbU,
  0xfe9d82ab4d6e738U, 0x23511fddc2aebc6U, 0xc9fadcd613101828U, 0x1f26fe30d023f920U,
  0xe208ffe3def2e9d4U, 0xc6d604fcf8e21554U, 0xde5e3ef22dee027fU, 0x12e7f0033df83e03U,
  0x14253b20eae206ccU, 0xf6e6012f0d0ef9dbU, 0x43ccf4fee732efefU, 0x3d7e3e1400e42af8U,
  0xed1c3d65e3eef113U, 0x4729ede9f324e11bU, 0x307fe12923e7164bU, 0x2220295ecaf9e5feU,
  0xecfaf0e3b305c009U, 0xf200f2fc26061b59U, 0x31ee42df1ee123cU, 0xe619de34c9f8d901U,
  0xd1e2ff00f317f06bU, 0xbe034541805f018U, 0xc9260e433f432913U, 0xf4001cbbdf15415eU,
  0x123310612a06ed3bU, 0xfb33d8382f7fcb1fU, 0x3011faffe1dc575bU, 0xfa4a224633f9d70aU,
  0xf23d74b314fe2dfU, 0xeb3ee5dc2c45536dU, 0x101f1d57e323180aU, 0xf3d0e1e94556dd28U,
  0xe2e043b503d51013U, 0xdd1822a334cf09feU, 0xcd1812c93cd50bd2U, 0xe80008bff1c2d85fU,
  0x1be9e7ea319effbaU, 0x9408dc26ecc04eadU, 0xa31ccadd1a010d76U, 0xe716c5240bde20c4U,
  0xd74f017fe1fa16d8U, 0xeb0cafed0c401c4fU, 0x827d6f024e10b11U, 0x33d6fafb0ecf18d6U,
  0x22381a2f01323322U, 0xcd0ff14adde12daU, 0x1baf10e1d0d4cce0U, 0x2848111cf7441404U,
  0x15280526cc270273U, 0xaa40502a4dbc9bcU, 0x1bca34f4e91d16e7U, 0xdd7c5e120405fd7fU,
  0xfbe2f5a403140f02U, 0x1a432dff7abcee9U, 0x191a0b2c2812f21eU, 0xe01b02112745d129U,
  0x456eafb0dfc132dU, 0xf6cdd952c6dc11b5U, 0x10edf269ba15d2e6U, 0x3934f81903511708U,
  0xf1f6fa20bd02e433U, 0x26e2fa08e413b9cdU, 0x3fe23be4036703a0U, 0x553432b023ae97fU,
  0x38b3ebc51710dbeeU, 0xf6b744e11aeb01a5U, 0xfe5a50d847ff0325U, 0x30e9120138f21413U,
  0x1913360d14181f30U, 0xf80232301a21fdffU, 0x323708ca0d042c14U, 0x2a7f05270ccc3479U,
  0x3f80c160c11fed7U, 0xc32ae614090f0800U, 0xe648f62c081a3969U, 0xf4f7fe22f2eb06e4U,
  0xbd2b0244ee2f16f0U, 0xdb56c325fc380249U, 0xe40cdb0eb6e7f8f9U, 0x1fad126f7e8U,
  0xd1fffffc0eU, 0xfffffff50000005eU, 0x1aa00000208U, 0x1f1fffffe81U,
  0x2c7ffffffb4U, 0xffffffd7fffffeafU, 0xffffff1000000139U, 0x9fcf0f10000014aU,
  0xffecfefb00070c07U, 0xa1311110103eaecU, 0xf9f7041b10220a01U, 0x4f1f50b0c1f0306U,
  0xee0c0b13ffe3f20eU, 0x4031a15131301f1U, 0xd19fafffcf9fefaU, 0xa04f517241afcf8U,
  0xf6ebe113fcfc03f2U, 0x707031506080a28U, 0xb19fd070703100bU, 0x10030d2d2102fa08U,
  0xafeedf2e605f501U, 0x91f230c060f250cU, 0xbeacfe50ff903f3U, 0x1a05e4f8ff030619U,
  0xfb0a1a0e05f31305U, 0x3119f7fe0007ff07U, 0xf9050b05080b0b16U, 0xe3f3070bebe5e9e3U,
  0x30e061202fbfbf8U, 0x1f16dec6f61607fbU, 0x309fc0103010404U, 0x5f1fbf500ff0402U,
  0x90b161007100f17U, 0x60c0d0709110d09U, 0xc0d02040a040c04U, 0x10a03051105fcf9U,
  0x814090308000b01U, 0xfb010a010008100cU, 0xd1407070a1306f9U, 0xf3ec010d0803fb07U,
  0xfbfc0b1109f7fe04U, 0xf4fcf8fc0a101014U, 0x120504060a01fdecU, 0xf9fd050500040a0eU,
  0xd0f07fdfc010cfcU, 0xefcf9ec01070b12U, 0x140f0e0b01f8f704U, 0xfffe0afef5ff0609U,
  0xa100800f5f4f1fdU, 0x3070a0e05fbfd09U, 0xfe090107f8f8ff06U, 0xfe06130c0f0d1101U,
  0xe0d070f0a08fefcU, 0x7fd03070f050308U, 0x50713000705070bU, 0x8040b0b0e090a06U,
  0x9f7f7ff10fff806U, 0x7fb08ecf5f2080bU, 0x1e1d01f5fc0200U, 0xf60d0c151df707efU,
  0xcedebf71af80a05U, 0x301f806eefa0902U, 0xfb2021cde6e307faU, 0x120e040de70ce9f2U,
  0x7f40b140fc1d5efU, 0xc9ec05160309ec02U, 0xfb1d1ffb06010be7U, 0xfd0bd00015340608U,
  0x7080d3b25f1eef6U, 0xd4f30402ee292931U, 0x28280300132b11e7U, 0xe5d7d00816150d37U,
  0xc09f8ff07010625U, 0xf813efe1e9281e06U, 0x2ceadef8fbf20806U, 0x90cf7f7f4deee1aU,
  0xe60111e1e2f7f4fbU, 0x19170d06f8f2f9e7U, 0x16f2e70818e0ea00U, 0xfb08010e0e06fe00U,
  0x130e00e5f0eefbf4U, 0x210b02f40413193aU, 0x12307010c0efc11U, 0xdcf40106f5d5f408U,
  0xf3dee50806f820fbU, 0x17f8f0ecfb1a08deU, 0x7e3eae8f6fe07faU, 0xdfe010105e80926U,
  0xf22d16dde6ea01fcU, 0x141612ffff101be7U, 0xde0fa1a21dde6f1U, 0x4ff220c0aff2421U,
  0x2e370be1fe00f9e3U, 0x5e5f81b2c0d0afcU, 0xfcf82e2a01d10cffU, 0xf8060003ff15110dU,
  0xffee07f01b1dfcd1U, 0xf1dbe71c0207f410U, 0xecff03f3fcf21010U, 0x8f7f2d9e41a1ee8U,
  0x14e8f6f205fb0603U, 0xafff904fbbfda14U, 0xdf0b031a0401fc1fU, 0xfcfefe0006110c06U,
  0x103f804060a0407U, 0xf1f7fdeeff010207U, 0x3f2f808fc05fbf0U, 0xf9f3fb051a100200U,
  0xff091405f30c020cU, 0xf208faeffbfef60fU, 0xf5fb04081cfcf2ecU, 0xf4cb032f05f7fce3U,
  0xedeff3000701f8f8U, 0xfffdfcdef72e0de3U, 0x1ae3e3edfd090807U, 0x4ff06170dee0624U,
  0x910f9e4fef71e13U, 0x31060402352619feU, 0x10d4fdedeff00813U, 0x31d1d14f9fb2a35U,
  0x3123eaa9f60004f2U, 0xc050212000402fbU, 0x5f0140be8d0dc08U, 0xe93417e9e8080103U,
  0x50bfa0a07efe0dbU, 0xe0ccec1d08e9f8f4U, 0xf704070ffdf9f802U, 0x71913f0e9120c16U,
  0x7161306160e04faU, 0x6f602150911eafeU, 0xf0afbfc0409fbU, 0xe140efc0af3ef15U,
  0xe90e0101f5fb1316U, 0xf9fbf4080af80df8U, 0x12f5f7e3ee08fce9U, 0xff7f6f0f6f10700U,
  0xbf8edf9fae41428U, 0xb3401e6eeebea03U, 0x6fe01fcf11205e7U, 0xbe404280ad9d5f2U,
  0x40c2204ff10141cU, 0x41410ee5f902ebeaU, 0xfbe1f3231b01fc02U, 0xf8fd272e06c50e02U,
  0xd070af702130401U, 0xedf0f8f7300aebbcU, 0xfdefff140a07dff3U, 0xf401f2f9f5ef180cU,
  0xf8eeeeedf32d08e6U, 0x3f3e0ecf8ff0100U, 0x3fb0106edd6ec18U, 0xe1fefa02060efc10U,
  0xeaea0200061313f1U, 0xfcfefaf8fcecf3f1U, 0xd0ff707f8f7f8f9U, 0x1e141bf1f7100717U,
  0xec101e050006fc02U, 0xf91414fb22f30300U, 0x1eead9df15fb0605U, 0xd08fc09f7f800f3U,
  0x21f26dad3df0909U, 0x6140406f3f902ecU, 0x11070f0b01d7beecU, 0xb3f817240308e8ffU,
  0xfa292307f3fef9f5U, 0xf1fdce081b2e10feU, 0xb00fa392beae9f5U, 0xd2e80d08f726212eU,
  0x38280b03033116eaU, 0xe6dbd4031f0ffd32U, 0xfe0601fb0e010319U, 0xfa0ae8eeef1a24f9U,
  0x29e3dcf5fbf60b03U, 0x50df1f7e8d2e20bU, 0xe20212d8df02fcf9U, 0x1215090604f1f8ebU,
  0x13f7daf809dbeb05U, 0xf203fe0a09fe0313U, 0xd13ebebf9e8faf3U, 0x13ff0915fd0a15ffU,
  0xf60a1a110bf9161dU, 0xe81a1812fc0cfa00U, 0xf500f6060ef3fadbU, 0xf7fedfe00b12f7e5U,
  0x201020ae0e80814U, 0xce81218fd112b20U, 0xf0fbd9e7f6fd0b0bU, 0x18070f052a18fe06U,
  0xeff9dffee9e600ffU, 0x1f1f130b0d181c13U, 0x26f6f4e8deefe312U, 0xf717fc0d0e090215U,
  0xf808eef1f1e8f601U, 0x201d2a260cfff6ffU, 0xe6f5020909ecc9f6U, 0x19061a1a19fef2edU,
  0xee000613f8e70208U, 0xeaf1020e18fccfeeU, 0xef06ee07110907ecU, 0x7040806f8f904f9U,
  0xeef90c08120008U, 0xfefa010c0403feeeU, 0xfdf8eff3f1f0f5f4U, 0xf5f9f4ea0c06f5f3U,
  0x2f4f7fc010b04fbU, 0x1fd0926170afbfaU, 0x8fa2203fe15ff08U, 0xed04040321feef0cU,
  0xe4f10c030cf5fbffU, 0xebe70c2810ece7dfU, 0xe8fcf20507fdfcf9U, 0xf006f6e915350cf6U,
  0x9e1ddebf90611feU, 0x5fe07230df21b36U, 0x305fd01f1fd170aU, 0x200c0b06222e1602U,
  0x11c7fdfce4f0fa1dU, 0x132d1804fb063c55U, 0x2d15dfb60000f9f3U, 0x14fbe308f500fd0aU,
  0xf6f02706f5de0609U, 0x82009e8f913f8f3U, 0xf81700fc08fae7ebU, 0xe8e2fb29fdf5e3f9U,
  0xe805031903fefaffU, 0x1317f7e5f8160501U, 0x202ff02f7090b06U, 0xf9fb06090e070005U,
  0x170b04281febfbf3U, 0xd1cf0e4f7fc0516U, 0x2a1c19272e17100bU, 0xff0bee07c8fc161cU,
  0xf4e9090fe9e4ef22U, 0xdcdd18e10206fe1aU, 0xf907111528211afcU, 0x905a4d619fdf8f5U,
  0x408d20f222ce71dU, 0xe9efdae5e1e7efeaU, 0xf2eef80e142808e7U, 0x2ce6f7dd1939060aU,
  0xeefbd4d0f3080618U, 0xf81ec70e09ebf118U, 0xf01c02d9d1f7fd10U, 0x205d805e20fcaddU,
  0x18fe1e25f6c9c9cbU, 0xde0c111cf536e91aU, 0x10f6222215dbf2e7U, 0xf3d8e1fddaf6c803U,
  0x80209f3faf806e1U, 0xf8eff403e2fbe1U, 0x2dcdce2e4eadff0U, 0xf8040c06efefedf4U,
  0x141e3127ffebecdfU, 0x220cea2420120d0aU, 0xfdf30c060f1f0ffeU, 0x2f906e6e1091b13U,
  0x91212f5e6f2eb02U, 0xf1f207fc12eef3f7U, 0x6f412140ef9f2f8U, 0xe9f2f5050bfff3feU,
  0xef1710e5f22906d4U, 0x29eeedea10ff050fU, 0xa06100d06e3f514U, 0xeff4ebe502fb250cU,
  0x200d03f5333b14d8U, 0xffc01e1af7e1fa1dU, 0xf90d0a07fe001c25U, 0x1d05edd70f1214fbU,
  0xd16f201ecf7f6f4U, 0xf6eb120103f80022U, 0xff2405eef5ff00edU, 0xfef5fffe07fbf3fbU,
  0xf4e5d81314f9dfecU, 0xf9f8f802fd020e0aU, 0x50e08f3e2faf800U, 0xf6f3f7eef101f4U,
  0x303f90400f5faf6U, 0x23181b0d1d181b07U, 0x3f0ff1b08151609U, 0x13e10e0bfc020cf6U,
  0xf8f5fadc06271c0bU, 0x1a1601e809090707U, 0x3fdf203ffe8f90eU, 0xfb191a06fff9151cU,
  0x13d1f5f90bfcU, 0x604fa231b150e0dU, 0x211302d6190f0400U, 0x8051e09060c230aU,
  0x141c1500f4ecfc17U, 0x50c1d1026f8fe15U, 0xfd150ffff7f5e119U, 0xfc312430220d10f6U,
  0x2eb0d130114f50aU, 0x513212e2032260cU, 0x20ff50f07ea13U, 0xf4eaffeb0b0618f6U,
  0xc150bfe07ed0704U, 0xf60800fef7f9f6e7U, 0xf4fbff180e0b0cf6U, 0xfcf6ff09ffff0801U,
  0xf9eeeaecf704f1fcU, 0x203f80e0209fff9U, 0x3fc25e5e9e90908U, 0xfe0118ffff08f6f4U,
  0xe900e8e01bfb00efU, 0xdf5f3ee0b021200U, 0xf080307e5ff0f00U, 0x91918d6dee0fd00U,
  0x1113000aef0efef0U, 0x1504f6f0ddcfc4f4U, 0xc3fc1e190806fc0bU, 0x102c1ce5e4e0ede1U,
  0xe0ded6282524fe06U, 0x801083118f8e7eeU, 0xcfed040802202419U, 0x12fe02010d0defd5U,
  0xe5e6d91b1c1a1b31U, 0xf3f0ebfd030b090fU, 0xf1faf3fde71211dcU, 0x2d8d9fdf2f70c0aU,
  0x90c09ecdcd2e80fU, 0xe50104dcf1fc0811U, 0x1f0a030b13f60ff7U, 0xf3f4f3f1f8e9f101U,
  0xf7fdf80505fe1309U, 0x1000e8eef8f8fef6U, 0xf405f8ebf1f100eaU, 0xfee1fbfd01f4e9fcU,
  0xfa1305fa02eafa08U, 0x710fa0803f9080aU, 0x25f2ed0efa0a01f5U, 0xd0002e4f20808fcU,
  0x110d08edf6e1d300U, 0xe52714f6fef10803U, 0xf00d0affee04edcfU, 0x12e5fb2925de00f4U,
  0xe2e50b081004fe1dU, 0x151307e5161c07e8U, 0xe3f0ff031f0a1004U, 0x4f8194822f4f8e3U,
  0xf0f6f3e204241d0eU, 0x1117f5f8202704b0U, 0xeec7dbecfb070024U, 0x11508eff9f72113U,
  0x1506ecd4e00f110eU, 0xdf30208060005ffU, 0x708fdefe9e4f21aU, 0xf619fe16ebedeb07U,
  0x31505f2f01605e3U, 0x1e16fde8fc00f81bU, 0xf7e9fff7fefa1212U, 0xf1fcf006fefbf8f6U,
  0xfff0fc0307eafaf8U, 0x1060e1107070709U, 0xf4fefefe0409fb05U, 0xedf010051df8fcf9U,
  0xe7d2d8ff030cf8e3U, 0xf1fcfb0b17f9e8U, 0xe8e6e8cae31d140dU, 0x12ddf8f5ea031301U,
  0xaf2e91513e8102cU, 0x171006d7e9eb050cU, 0x201008f50319220eU, 0x2ee9d4def0f7eaf2U,
  0xfb201c1d09f7244dU, 0x1e2fe8aed8e8e3e0U, 0x9fa1e1f120802U, 0xcff16f9e5c4cee3U,
  0xee170effff110f09U, 0x171b080e0e05e7e8U, 0xe9e8fd0efcfe11f9U, 0xedf8f20a0af7f3ecU,
  0x21509ec0f20060bU, 0xf9fa010a100a04f2U, 0xfe0d0515140feaedU, 0x4f50215fa10030fU,
  0xfe0f09030103190cU, 0xf5040605eff20a0bU, 0xf6f6f9fc090ed6ceU, 0xfcfde9fb111101e8U,
  0xe9eaeefaed01ff02U, 0xec07fee800211ff3U, 0xf5e5c5dbf1070909U, 0x13fc0e0b0f0ceaebU,
  0xe9e5e908e0f60b12U, 0x1c1e0703101f07ecU, 0x14ffe7e0c5d8fa14U, 0xaff0c0b0203fa1dU,
  0x10df5d7cee40a06U, 0x1d203111f8f2f8fcU, 0xf4fef80f01ebe609U, 0xf261e07ededfa00U,
  0xf50a0503eaedfcfdU, 0xeaf90e110afcd5e8U, 0xf5f3f81207fff4e9U, 0xd161b01f7eff1f9U,
  0xf4ece9fbf8fbfce7U, 0xf5f600020401fdf0U, 0xf8fffefef7f0f8f2U, 0x2fd0304f801f902U,
  0xff05fefdf9fe0102U, 0xfaf8fbfafa040200U, 0x3f8ff06fb03fa04U, 0xfe01020701fd05f9U,
  0x106fafb0302fa00U, 0x20306fefdfbf9faU, 0xfcfe00030202f9fdU, 0x305fdfc020401ffU,
  0xfd07fcf900010101U, 0xfeff00fc02fff9fcU, 0xfb02fe0605fcf902U, 0xfe06020101030406U,
  0x3fb0004fffffafbU, 0xff0503fa0502fdfeU, 0x603fcfbfa050105U, 0x4fefdfbfe05fc06U,
  0xfffd0504060909fcU, 0xfdfcfd0503070406U, 0xfd06f9fd010702faU, 0xfcff00040806fd07U,
  0xfefefefe0305fafcU, 0xfa07030503fc0301U, 0x2060506fffa0102U, 0x2fc00020507ff03U,
  0x40804020708ff05U, 0x4fffafe04030604U, 0xfe06fafe0606ff03U, 0xfefdfbf8f5fefbfdU,
  0xf700faf8fbff0203U, 0xfbfff9fdfbf9fffdU, 0xfcf9fbfdfbf9fa00U, 0x4f8fe02fe0402fdU,
  0xfffaf90002fc03faU, 0xfb00fd04fa03ffffU, 0xfaf8fff6fbf90001U, 0xfbfe04fbfff8f9f5U,
  0xfcfbf5fffbfffe03U, 0x2fe01fcf9fdfa04U, 0x3fcf7fa01fe01f8U, 0xf60200fdf802f5U,
  0xfefefd00f9f8fdU, 0x1f8fbfafcfa0101U, 0x301f5ffff02f9U, 0xfff8fbf4f8ff0101U,
  0xfefcfe00fdf8fdU, 0xfff8f7fdf6f5fd00U, 0xfdfcfe00fffdf5ffU, 0xf601fdfdfdfb0001U,
  0xfefffd03faf5faf6U, 0xf80404f7f9fefe06U, 0xfcf900ff01fbf8fdU, 0x3f60301fafcf901U,
  0x103fafc02fefdU, 0xfe03f6040504fafbU, 0x3f7020701f8fafdU, 0x306fdfc03020102U,
  0xfbfffffb030406feU, 0xafefbff02f9fcf8U, 0xf9fc0205ff01fcfcU, 0x2010cfafd00fdf8U,
  0xfd00f9f9f8fd0002U, 0x502fc0304fdf803U, 0xf90202fb000003feU, 0xfa0703fefa01f802U,
  0xffff050404fdfcfeU, 0xfff80506070203f8U, 0xfffe04f90106f8fcU, 0xfffe0400fb02fe01U,
  0x604fff8fcfafcfaU, 0xff03f70000fc01fcU, 0x1fcfeff03fc05faU, 0xfff8f703fbf9fafdU,
  0xfeff00fa0206fafbU, 0xff03fb0306fafa02U, 0x10204fdf7fbf307U, 0xef07010500fb0502U,
  0xfa04fdf8010001f0U, 0xfd0205fafdfef5fcU, 0xf5f10101f3fb060aU, 0xf90200fffdfcfcfeU,
  0x5fbf803fc0002f7U, 0xfe05f70001f5ff07U, 0x600f9fbfbfef603U, 0x50304fcfc0202fbU,
  0x1fb0003fc07ff06U, 0x2fefeff02fcf7ffU, 0x302fffafe0507fbU, 0xfbf9fa00fdfe0903U,
  0xf200fafef7fcf8fcU, 0xfa0704ff0403fdfbU, 0x503f3f9fd01f603U, 0xfd02fefaf9f1f5fbU,
  0xfcfa03f8f803fd08U, 0xfafd0506000506f3U, 0xf5fdfdfefaf5fdf9U, 0xf8fafd00fefefdf9U,
  0xfef2f6fbf3f9f2f1U, 0xfd0302fa0bf605ffU, 0x3f8fdff0303fdfcU, 0xff0703ff06fc05f8U,
  0x2ff03ff020a0704U, 0xfe07fffb03010407U, 0x200030b080207feU, 0xfd00fe0300050af9U,
  0xf9ff020003fe0800U, 0xfefa0204fc010003U, 0xfa09fffdfafdfcfeU, 0x20b00f80402fafcU,
  0x5fd000406fa05fbU, 0xfa02f906fbf8ff08U, 0x6fcfa0401060804U, 0x2faf9ff0007f7fdU,
  0xfc00fffb040100U, 0x8000301fffbfb04U, 0xff0101040a0507U, 0xfdfbfbfc01ff02f8U,
  0xfff900ffff060706U, 0x204f7fd03fb0503U, 0x3fcf3fdfd06fbfeU, 0x5010206fa01fa07U,
  0xfbf5f3fb03fbfe01U, 0x4fcfc08fff3fc00U, 0xff04fb0304fcfe00U, 0xfe0202fe0405fff9U,
  0x602fbfa00fff8fcU, 0x5060004f9ff05ffU, 0xf9fd07fd0504ff02U, 0x6060006fdfd0206U,
  0xfdfdfc0204fef904U, 0xfdfbfe090301fbffU, 0x305ff07010003fcU, 0xfeff0200fe02fcU,
  0x203fa03fffefaf8U, 0x1ff00030205fe01U, 0x1fbfd03fefdfc02U, 0xfefcfe0105050604U,
  0x6fefbfe0601fbf9U, 0xfefefb03fcff0008U, 0xfcff020707fefb04U, 0x6fa06faf9020202U,
  0xf9020701fd02fefcU, 0x101fafd04fbfffeU, 0xfffb050700ff08fcU, 0x8ff08ff02000007U,
  0x50104fdfd050807U, 0x404fa020007fbfcU, 0xfb04ff0103f9fdU, 0xf7fa00f90101fa03U,
  0xf7fbf8fafbf9fefbU, 0x2fcf8f9f9fafffdU, 0x1040007fc0203f9U, 0xfc04fbf9020a08ffU,
  0xfaf6fd0905fefbfdU, 0xff000103ff01ff03U, 0xf9fefdfc02f80afeU, 0x6f8fbfb05fa03fcU,
  0xf603f5fd00fbfa03U, 0xfafd0aff02f80601U, 0xfff8070001fa00faU, 0x705fcf8fafaf6feU,
  0xfdfa0204fcf4fb02U, 0xfd0203fb01fcf9f6U, 0xfa02010904fa0101U, 0xfd0502ff0807fdfdU,
  0xfff604ff07fffdfbU, 0x2010304fafe06ffU, 0x4fcfbfdf80102U, 0xfc06fdfcfd0402U,
  0xfd00020505010afbU, 0xfbf9fe00000503f9U, 0x604fb0201fafb03U, 0x40302fbfbfb0601U,
  0x6fcf9fffffe05f9U, 0xfdff03f9fc03fe03U, 0x303fe07fdfdfff2U, 0xfcfdf700fefdf303U,
  0xf3fefafcfdff0009U, 0xfe0107fff9fdfe01U, 0x404fe0604f6fc04U, 0xfffefe05fff9fbffU,
  0x1fb010403f9f4fdU, 0xfc01f9fcfffcff02U, 0xfd0304ff0301f6f3U, 0xfffe0403f9fbfafeU,
  0xfbfafe03fffbfb02U, 0xf7fdfb07fffdfc03U, 0xf8fa01fdfbf40402U, 0x709f9050004fff8U,
  0xf5f1f505ff01f6fcU, 0x3fafd02fb06f9fdU, 0xffff02fcff01f903U, 0xf5fcfefbf9f1fcffU,
  0xfe01fef7fe02ff00U, 0xfffff7f6f2fbfbf6U, 0xf6f6f1f6f4f6fbf6U, 0x202fdfcfaf0f5f1U,
  0xfa010201fbf7f9faU, 0x4fffd0502fd01fcU, 0x2fe050003ff0205U, 0x3fd02fa05fffbf8U,
  0xfcfe06020604fdfbU, 0xfcfbfaf9fe04fdf8U, 0xfafbf7ff01ffffffU, 0xf90302fefa0502fdU,
  0x8fbf9f5f70401fbU, 0x20602fb04fe01faU, 0x7fd0209ff00fb05U, 0xfafefafafdfa0404U,
  0x8fb03fbf9fefdf7U, 0xfff8fefb0507fbfaU, 0x60000050303feU, 0x803fe0906fafdfbU,
  0x1fc0608010a0201U, 0x2010301fd08fd01U, 0xfbfa06fbfa0706fcU, 0xff03fefeff0501feU,
  0x5050702f80605faU, 0xfe00fe020009fc04U, 0xfffcfe05fa04fffaU, 0xfcf9fd07ff030307U,
  0xfbfdfd0203010605U, 0xfbfefef90400fcfbU, 0x4fe0607fa020400U, 0xfd06010604ff0300U,
  0xfefdfc01fd060202U, 0x601fff5f6fcfcfdU, 0x6fc0502fe0304fbU, 0x103fb0204fbfcf8U,
  0x705f9ffff01fa07U, 0xfcfe0204fbfd0000U, 0xf7ff0700020202fdU, 0xfd0105060502fef9U,
  0xf7fbf5010607fefaU, 0x5fe0601fffd06fdU, 0xfb02f90404fe0601U, 0x6fd02f9f1fcfffdU,
  0xfa05fbff0200f9fcU, 0xfdfafb0606fbf206U, 0xf902fe0305fdfef9U, 0xfcf9fcff06fd03faU,
  0xfdfa07fef9fc05ffU, 0x5fefd04fffc03f8U, 0xfe04f9fc0405fdf9U, 0xf6f8f7fdfaf9feffU,
  0x3f9f9f8f6f3f4U, 0xfcfe01fbf802fcfcU, 0xfef9fb00f9000601U, 0xff05fd0207fefcfbU,
  0x504fefbfd040100U, 0xfdff0202fe00fc02U, 0xfa010507fa0806faU, 0x5fff903fbfb04fdU,
  0xf8f9f8fbfb03fc04U, 0x7fefdfcff02fdffU, 0xfbfffefc0104fdfaU, 0x50305ff02fafa05U,
  0xfb06fc050106fffcU, 0x4ff060200fafcfcU, 0xfc070001fd01faf9U, 0xfffb00fe0303fcfdU,
  0x10707fefffd0500U, 0x40001fd03fd0405U, 0x1080106fb0002feU, 0xfe03f903fefffd04U,
  0xfb0306060008ffU, 0x7fd0106fb00faffU, 0x1faff010302fdfbU, 0xfbfafd010606f905U,
  0xfa06fd02fafe0204U, 0x1fb0209fdfbf7faU, 0x20504fafcf9fd07U, 0xff03020002f9fff8U,
  0xfcfbfe010100ffU, 0xf70005f900ff0100U, 0x5fef8fa04020102U, 0xfdfefc02f6f9fcf8U,
  0x400fdfc0002fb01U, 0x2fcfcf502fefdfcU, 0xfffc0400fd03fbU, 0xfcfa00fffefdfcf8U,
  0xfafe02fdfa05fa01U, 0xff010102fcfdfb00U, 0x1fefffe03f8fb00U, 0xfffafc070005f800U,
  0x1fff5fefc05f8U, 0xf80202f7fbf90405U, 0x401fd02ff00ff00U, 0xf703f801fffcfafaU,
  0xfdfdfafbfdfbf801U, 0xfefe040004fbfffbU, 0xfdfdf9fefc03U, 0x2fdfc01f8fc03feU,
  0xfefcf9f8f7ff00faU, 0xfcfb05080200fffbU, 0xfefd09ff01fd04feU, 0x201f8f8fa0407fdU,
  0x702fe03fff9f702U, 0x2fe02fcff0702fdU, 0x9ff0600fd0400fcU, 0xf8fa05040101fe00U,
  0xfaff06f7fcfbfb07U, 0xf4fafdfdfd0109faU, 0x4fb04fd04fa00ffU, 0xfd01f7fffdfdfc02U,
  0xf7f800fcf8fa05fcU, 0x602f9f60006fcfeU, 0x4f600fef8000004U, 0x3fff9f80303fc09U,
  0xff04fcf708f70105U, 0x30304fc00fc0404U, 0x4f60302fdfa0404U, 0xfffdf8fcfa03f7f9U,
  0xf9f5faf90a04fbfbU, 0xf7ff00f70602faU, 0xfa03fbfbfa0600fdU, 0x10104faf70004f8U,
  0xfc0200fdfdfa02fbU, 0xf7fd01ff02f901U, 0x2fc050606fafb01U, 0xfbfdfa06060403U,
  0xfd02f8fc03fafb05U, 0x502fef8fc0505f9U, 0xfcfb05fb03fefc02U, 0x5020203f9fdfb02U,
  0x1fffb0300fbfafeU, 0x5fbfc0403fa0004U, 0xfbfd05fbf800fafcU, 0x305fe02fe04fffcU,
  0x4fefcf90502fdfbU, 0x1fc01fbf80002fdU, 0xfcfc06fdfd0305U, 0xf9fe0500fbf8f8feU,
  0x5fa000402020204U, 0x1030305fe0105faU, 0xfafc020205fdf9U, 0x4fefff8f802fdffU,
  0x4fb01fefa050002U, 0xf900fd0102030402U, 0xfafa010304fd04fdU, 0xfd00fafb000402fbU,
  0xf7f8fefdfa0100faU, 0x1fdfcfd01fff8faU, 0xfcfdfb01f8fffefaU, 0xff02fd0201fe01fcU,
  0xfd030604fe040104U, 0x2f801020702fefcU, 0x8ff08fe08070607U, 0xfefdffff010205fdU,
  0x4fdfdfff3000600U, 0x5f901fcf901fb03U, 0xfd02f90201fef002U, 0x40206fdfaf70605U,
  0xf8050908f901fb06U, 0xfef90704fffdfffdU, 0x2fd01fe02fd0504U, 0x4ff040109fcfd01U,
  0xfef401ff07f6fbf8U, 0x30701fe07f7f900U, 0xf9fdfbf8ff0007fdU, 0xfaf601fdfafc0302U,
  0x3f8faf903fef5feU, 0xf702f9fe0106f901U, 0x4fefafafcfaf703U, 0x4f5fefafd04fe01U,
  0x5fc0100ff0406U, 0x406fe040106ff01U, 0xfe0207fffa05fffbU, 0x50207fd00fefd03U,
  0x5fe07fe06fc0104U, 0xfbfd0705fd000006U, 0xfc020200faf9fcfdU, 0xfefdfafbfeff0107U,
  0xfdfdf900fa00fdfbU, 0x1ff0305fc000302U, 0xfa0209fff8f8fe00U, 0xfa00fdfbfbf8f904U,
  0xfdfcfefa06fc00fdU, 0x1fffcfb02ff00ffU, 0xfc05fefcfbff05fbU, 0xf9fa01fcfd06fafaU,
  0x2fb05fd06fafeU, 0x7fdfe020307f904U, 0xfdfa04fef9050107U, 0x5fcfffc0601fa00U,
  0x30505f9fffff9feU, 0x400ff0100fefffbU, 0xfbff00faf9fdfbU, 0xfd000600fc040204U,
  0x207fcfafb01fc04U, 0xfeff020704fd0506U, 0x10001f9fdfafa00U, 0xf800fcfdfdfc00ffU,
  0x101f7faf9fefbfcU, 0xf9fd0301050401faU, 0xfafffb02fdf700f7U, 0xfff80001fd0000feU,
  0xfbf7fe04faf80400U, 0xfa03010202010201U, 0xfcf7fb02020200U, 0xfffdfe01f8000500U,
  0x801fafffdfdfbU, 0xfdfefffffb02fcfeU, 0xfffefcf705ff01U, 0x1010303f7f8fdfcU,
  0xfffcfef902f8f8feU, 0x5f9010101fc05ffU, 0xfafd0805fcfbfcf8U, 0xfc08fcfdf9fe0304U,
  0xf703fbf9f9fafbfeU, 0xfffb0304fdff02f7U, 0xfc03fa01f8fdfc03U, 0xfc04010501020100U,
  0xf8fb03fcfdf802ffU, 0xfffdfffbf7faf9U, 0xfcf801fffbfafff9U, 0xf8fbf70200f80401U,
  0xfc0501fafa03fc04U, 0xfa0102fafa000107U, 0xf800fffd01fffdf7U, 0x2f803fa070100fbU,
  0xf702fbfdff04fcU, 0xfd01f800040401feU, 0x30000040001fe02U, 0xfaf8fc00f704f901U,
  0xfc00fdf80305ff01U, 0xf8fafbfffdfcfb04U, 0x500020403f7fafaU, 0xf9020000fa05fefeU,
  0xfbfb03f9f8fa0605U, 0xfe0303fdfd03fd00U, 0xf7f7fdfdfe03ff03U, 0x30405fdff03f8feU,
  0x201f9fffafcf8f7U, 0x30103fd06ff0104U, 0xfafcf70200fd03ffU, 0xf9fefd02fb06fcU,
  0x4fbfdf9fdfaf8faU, 0x102fdfefa01fc04U, 0xfcfffafdfaf703fcU, 0xff04fafb03f7fcfdU,
  0xfb04fd01fffefbfcU, 0x102fcf709faU, 0x10102fd01ff06fbU, 0x1fe040109fb02fcU,
  0x200f7fa020002f9U, 0x2fd02050008fafaU, 0x6010206fb03fe04U, 0x4f905f801fdfe03U,
  0xfe0206f7fe00f8fcU, 0x1f806fffcfffe01U, 0x4040105fd02f908U, 0x1fff705fb0303faU,
  0xfb01fbfb00faf8feU, 0x1000101fcf8f703U, 0x306fafb0903fb04U, 0x4ff02fcfaf8fefeU,
  0xfe030503f9fef9faU, 0x504f9fafffb0005U, 0x3fefcf702fbff04U, 0xfd03fcfc04020703U,
  0xf80603f9fcffU, 0x201fdfbf7fcf9fdU, 0xff02f8f7fd0202fcU, 0x2f70104fa01fb01U,
  0xff08ff09f7fe0004U, 0xfd02fb0203fdfeU, 0xfbfd0407fefe06fcU, 0xfefc00ffff05fd03U,
  0xff06fd000002f903U, 0xfa0503f905000100U, 0x7fbfb0406fa0606U, 0xfb0106040502fe05U,
  0x2ffff0505ff01fbU, 0x2050101060400feU, 0x2f901fdff07fdf9U, 0x4040103040400fdU,
  0x404050405f9fb01U, 0x504fe040202fcfcU, 0x201fcff03030201U, 0x202fd02fcfefafaU,
  0xfafd02fdfaff0003U, 0xfb06fe0002040602U, 0xfcfa0501f9fffaf9U, 0xfe040600fa0400feU,
  0xfafefb0607fdfeffU, 0x2fe0004060203faU, 0xfcfa00fafcfe0406U, 0xfdfc0604fbfefffaU,
  0x5fa04fcfcfffc04U, 0xfefc03fdfcfa06fcU, 0x10304fd02000004U, 0x7000200ff0100fdU,
  0x7fffcffff07fd07U, 0x50004ff040607f9U, 0x7fb000404040504U, 0x1fc0503fff90607U,
  0x10603fa02050207U, 0x5fc06fb06030102U, 0x20605fc0403f9fdU, 0xfc0406fafefefc01U,
  0x6f9030503fd02fcU, 0x6fefa07fafd06fdU, 0x601fdfdfafb0105U, 0x2fafc0405fafcfeU,
  0xfa01fb0400fb01faU, 0xfdfbfe0301040402U, 0xfb0704fcfb000603U, 0x1ff0601fbff0002U,
  0x400fe0700020606U, 0xfb01fdfc0304f901U, 0x2fbf9000301fe01U, 0xfefefbfb02fefeU,
  0x1070500fd010201U, 0xfcf9fffefa0503f9U, 0x5fef902fdfffefbU, 0xf805000000fbfaf8U,
  0x1fff8010104fbfeU, 0x3fef7fafefbfcfcU, 0xfaf70004fbfcfa00U, 0xfa05fc0003f901ffU,
  0x40302fefdf7ffU, 0xfdf9fefbfafc0003U, 0xff0201fefe0102f9U, 0xfdf8fcfb0404fdffU,
  0x2fd04f804fafa04U, 0xfe02f8ff02fcf7f8U, 0xf9f8f9fafbfd04fbU, 0x101fe0003fb03feU,
  0xf7fa01020302f802U, 0xfcf802fc00fc00feU, 0xf9ff0002f700f900U, 0x2f70000000403faU,
  0xfbfdfefb01faf9fcU, 0xf7f9f9faf8f701f8U, 0xf902f900fdf700f8U, 0xfe000004fefa01f7U,
  0xfa010004fcfdfef7U, 0x2fbfdf80201fc01U, 0x8fef8ff01fe01ffU, 0xfffc0905020308feU,
  0xfc040109fa0302fdU, 0x906020006fe0204U, 0xfdfe0700fc0704fdU, 0xfa04030805070101U,
  0xfc0607fd04ff0208U, 0xfbfefc0406020409U, 0xfc00080106fcfc02U, 0x4000404fb030209U,
  0x3fb0905fffc0502U, 0x406fcfc0000ff02U, 0x40201010700fe08U, 0x200fd01fffef803U,
  0xfbfef7f905040606U, 0x206fe03fd070009U, 0x808010200fa0109U, 0x802fb09fffcfe04U,
  0x5020308fbfb06f9U, 0x8f7fd02fe030001U, 0xfb0102fa05f80103U, 0xfaf802fcfffbf901U,
  0x3fcf9fafaf904feU, 0x1faf8fcfc02f7feU, 0xfb01040001020004U, 0x30500fd0101f901U,
  0x50206fffc040001U, 0x401fd05fafaf9f9U, 0x304ff0406fa0305U, 0xfefe07fd05fc0301U,
  0xfcfafffdfe0002faU, 0xfc0402fcfe0003faU, 0x606fc0704fbfdfaU, 0xfe00ff0301030604U,
  0x3fb020407fffcf9U, 0x2fc04020102fbfeU, 0xfc01fbfe03fafbfcU, 0x500fffd05fffe03U,
  0x4020507fa070301U, 0xf9fb0301fbfffc02U, 0x5030705fe050503U, 0xfcfdfe0600fb02fbU,
  0xfd0501fffefaf9f9U, 0x703fffafcfdfc06U, 0x406ff06fcf904ffU, 0x1fe07ff0404fa03U,
  0xfdfbfb06fd0006fdU, 0xfafe0004fafe02faU, 0x403fa04faff02U, 0x2fff7f70005fd05U,
  0x30000f901f7f8fdU, 0xfefd010701faff02U, 0xfcfbf807fc0200f9U, 0xf802fcfe0607fc03U,
  0x7fcfefd01ff00fcU, 0xf9fdff0101fdfafaU, 0x80505fff8fafdfdU, 0xfbf8020503fe0709U,
  0x401060000fbfe02U, 0x2fdf9fa0206ff08U, 0xff08fdfffc0604U, 0x308fb03ff020300U,
  0x605fc0302fd0801U, 0x2fbfc0103f803fdU, 0xf7fb0307f7030301U, 0xff01040404fcfafcU,
  0xfbf800050903fc06U, 0xf9fc08fdfd05fcffU, 0xff01fdfe0403fe05U, 0xfafb01fd03fcfe03U,
  0xf9fc0100f8f801fdU, 0xfb0203fe03f801fbU, 0xf90004fb02fcf7ffU, 0x2f7fd0206fcfcfaU,
  0xfcfe0001fafffffeU, 0x2fc02fc05060000U, 0xfafff903fefffd05U, 0x5fefdfafd030701U,
  0xfc0602fa030202fcU, 0xfa05ff05fbfdfa00U, 0xfbfff900fdfafcU, 0xfffaf9fe06fd06ffU,
  0x6ff0302fcfc03fdU, 0x40406010305fdfcU, 0x5030102fc020001U, 0x40206f903fbfa07U,
  0x6fb04fb02fb0003U, 0x304fd07fb03fefaU, 0x202fb0302fcff00U, 0x4ff0102fafb06ffU,
  0x3ff01fc03f90106U, 0x3030600fd060001U, 0xf9fe0003fd030604U, 0xfafa0002fcffff06U,
  0xfafb07fcfc020206U, 0x4fe00050405fcfcU, 0xfc070603fe0305fdU, 0xfcfbff0300fe0207U,
  0x20301fbfd000302U, 0xf7fe01fd04f8fef9U, 0xf701fa04fd03fc01U, 0xfdf700fc02fcff04U,
  0xfbf9f7fafdff0100U, 0x9fcfffbf904fcfbU, 0xfafe000802040003U, 0xfd0505fffb030101U,
  0xfefd020306080302U, 0x6070606fbfffeU, 0xfbf9000103040403U, 0x10205fd02020805U,
  0xfbfff80101f8ff03U, 0xfdfefa010107fdf7U, 0x3fb0202fa0400fcU, 0xfffff9fcfafdfb00U,
  0xfefe09faf8faf7faU, 0x1f70100f9fd0801U, 0x904fe060301f8U, 0xfdff03fa01f7fefbU,
  0x7fd0704fe0402U, 0x3fc02f904fcfff9U, 0xfc0006fd0400fbfeU, 0xfdfe04f8fdfd01ffU,
  0xfc04fffe020302ffU, 0xfffaf902f9f903fbU, 0xf7fb0004fc060204U, 0x3f8040103f9f9feU,
  0xf9fffdfdfcfefbfdU, 0xfff9f803010403fcU, 0xf9fafc01fefaf8f8U, 0xfdfffdfaf7fef900U,
  0xfdfcfb02fdfafb03U, 0xff02fc04fbfc04ffU, 0xfcf701010000feffU, 0x301f8fff9fd0401U,
  0xf801fc02fcfff8feU, 0xf7fa02f702f8fa04U, 0x30303faf80000f7U, 0x302fcfbf7fc01feU,
  0xf8fffbfa03f70000U, 0xfafd05070000fff9U, 0xfef902fc0200fdfdU, 0xf900fb02fdfff7faU,
  0x7fc050400fa00U, 0xf70201ff02fffcU, 0xfdfd03fef803fa02U, 0x4fcf90002fb04f9U,
  0xfcf8f9fffe01fa04U, 0x1fe040201ffffU, 0xff03fb0000f9fa01U, 0xfe0301fcfcff0202U,
  0xfc02fcfcfe060502U, 0xfa02fe01fafef901U, 0xfbfc0303fe050000U, 0x3f8fb02fafefefaU,
  0x4f7fc01fe02ff06U, 0xfcf804fbfdfaf9faU, 0x4fe01fbfdfb0202U, 0xfef9fc00faff0000U,
  0xf7fd04f8f906ffffU, 0xf8fffc00fffe0002U, 0xfcf8fa030204fa05U, 0xfefcfd000000ff01U,
  0xfa04ff05fa04f8U, 0x30501f70404feffU, 0x50101fcfaf8U, 0xfc02fcfefcfb06f8U,
  0x2f9fefb04fdfbU, 0xfbfd00fdfdffff03U, 0x5fdf901fb02fc07U, 0xfb00040000fa06ffU,
  0xfafdf902f7fc03fbU, 0xfd0602fc00040509U, 0xff0301fefa0104fbU, 0xfffcfa0401fafafdU,
  0x102f9fffefff9faU, 0xfffc00fa00f700feU, 0x402fa0102fffdffU, 0xfdfb0004000404f8U,
  0x4fb00f80403fbfcU, 0xfafcfbfffafb01f7U, 0xfe0104fefffdfdU, 0x100fafc04fbf8f7U,
  0xfd01f7fefef8ff03U, 0xfef9f7f7f804fb00U, 0x3fff803fbfbfff7U, 0xf9000004f90301f7U,
  0x1fe00fa03f8fdf9U, 0x1faf90005fef8fcU, 0xfafffafdfcfff8f8U, 0xf904fafb0000f9fcU,
  0x2fcfef8ff02f8fdU, 0xfcfe03f801fdfa04U, 0xfafcf900f9ff0301U, 0xf80200fc02fb04fdU,
  0x3f704fff7010104U, 0x2030402fbfe02U, 0xfc0006fcfcf704fcU, 0xfb0001000600fa01U,
  0xfe01050402060100U, 0xfdfdff0107f90100U, 0xfd0305070103U, 0xfe0606ff01fb0402U,
  0xfb00fc05fc0604ffU, 0xfefc01fcfa060106U, 0xff06f903fa070303U, 0xfb00fa0500fa0303U,
  0x202fd070701fc07U, 0x30004fffcfefdffU, 0xfe06fbfa0402fdf9U, 0x6fa0700fd0503fcU,
  0xfffbfc0302050505U, 0xfcfcff04050302ffU, 0xfafdfd0103040401U, 0x7010205fbf905fcU,
  0xfa0002fc03060500U, 0x303fffdfd00fffbU, 0x2010003010507fdU, 0x3ff02fff90104ffU,
  0x2fd01fbfcfc05U, 0x107fdfffe020100U, 0x704fcfdfbfb0700U, 0x301fdf8040203faU,
  0x2fdfef8fbfafaf7U, 0xf902fd02fafd00U, 0x30102fb01fefc04U, 0xff03fdfffd00f8f7U,
  0xfefa01fdfef9fb04U, 0xf7f9fff802fefff8U, 0xfa0300f8f8f7U, 0xf9fef90000fcfffeU,
  0xfafa0003f803f802U, 0xfaff02f90301fcfbU, 0xfdf8fbf90404f903U, 0x300fff902fcfff8U,
  0xf7fafc03f9fafa01U, 0x30300f7fbf9fff7U, 0xfffb00fbf9fbfdfcU, 0xf9fd04fef8f9fe03U,
  0xfefefd0303fbfeU, 0xfafdf704fafdfdfbU, 0x2fefd00ff00f7f9U, 0x3ffff04f8f8f8fbU,
  0xfbfdfaf700fa01fbU, 0xfdf8fc0204f8f8ffU, 0xff03f9fdfd010404U, 0xfd010000fb0102f9U,
  0xfa01f5fefcfafefcU, 0xff01fe08f90202U, 0xfef704fc050000fcU, 0xf90005fa00ff0103U,
  0xfefd01fefcfe0301U, 0x2f6ff02fdfffcf9U, 0x4fff9f80501ff00U, 0xfe00faf803fffcf8U,
  0xf9fe0107fbf7fb07U, 0xfb03fcffff00faf9U, 0xf703fe04fefc0104U, 0x101f9010103f9feU,
  0xf9f904f8020300feU, 0xfbfb0102ff0405fdU, 0x2fcf7f70302f8fdU, 0x203fcfefa0401f9U,
  0xfffff9f8f7fcf900U, 0xf901fafdff02fef8U, 0x1fd0902f9fcfaf8U, 0xfd06070003fafb04U,
  0xfffd02fe0505f7U, 0xfe04fefc0804f901U, 0xfcf7fbf9f7fffffbU, 0x2fffff7fb04fe01U,
  0xfe05070809fefcfaU, 0x3fe00fdf9000606U, 0xfbfbfd0008070005U, 0xfbfd050303040202U,
  0xfbffff03f90004fbU, 0x400030003f905fbU, 0x405ff06fbfe0500U, 0xfffdfb00ff02fffeU,
  0x1fefff903fd00feU, 0x2fafc0306fefa00U, 0x6fffafb0500fa06U, 0xf900fe0700fefa03U,
  0xfe03010303f80302U, 0xfcfdf90306fbfcfcU, 0xfd050306fefbfeffU, 0x1fa05faf9fa0005U,
  0x4fbff04fbfe0203U, 0xfcf8fc00fef80404U, 0xfa01fb0201fbfe02U, 0xfd05fdf9f7fcfcfdU,
  0xfe00fdfffb05fb03U, 0xf9fe06fafdf9fff9U, 0xf801fefbfc0702fbU, 0x10000fb020004f8U,
  0x303f80401f70200U, 0x3f6fafdf7fe00fcU, 0xfcfa08070203f7f9U, 0xfdfefbfcfdfc0002U,
  0x405fcfe03fc0702U, 0x4f60601f7f706fdU, 0x2fbf8fc00f9f9f6U, 0x1fb060001fe02fcU,
  0xfefafefa010407fdU, 0x402fefa03fa01f9U, 0x4faf7f803fbfb02U, 0xfd070203fc00fb02U,
  0x804fc02fd01fa02U, 0xfa03f600fef7f602U, 0xfcf8030603fefbfcU, 0x4fbf6fefdfdfdf8U,
  0x5010200fffa0504U, 0x3f9fbfbfefa02f8U, 0xfbfd030106fcfafcU, 0xfa06fffefdf9f9ffU,
  0x703ff0101f7fe02U, 0xf9fa04fbfe01f6U, 0xf7f800fdfdfaf7f9U, 0x10002fd030204faU,
  0xf8fefa0403f703fbU, 0x1fdfdfe0101ff07U, 0x1fafb05fdfe0504U, 0xff01fbfd05f90100U,
  0x6fffcfa0206faU, 0x4fd02fffcf9ff03U, 0x6fffcfb010100fbU, 0x304fa06fdf9fe00U,
  0xfe0305fdfcfb0606U, 0x20302fdfe06fefbU, 0x6fc04fdfd000306U, 0x3fbf904fc0103U,
  0x200fe04fbfcfefbU, 0xfcfa0501fafcfafbU, 0xfafa020200fc00fdU, 0x2fcff000306fbffU,
  0xfe0200fd0201fbfdU, 0xff05070003fafe02U, 0x403fd00fffaf901U, 0x6fbfe00fd03fdfeU,
  0xff03fdfd04feff02U, 0x4fb03fa02faff02U, 0x1000005ff02fafdU, 0xff0003fb0000fdfbU,
  0xfd00fa0406070701U, 0x30007fd0208fcffU, 0x3fd03fffff9fd01U, 0x2fcfefcff02fdfdU,
  0xfcff06fc05030602U, 0xfdfe0603fd050503U, 0x1070505ff01fafaU, 0x20604fb0105fcffU,
  0x5fffa020107ff01U, 0xfc00f90306faff00U, 0x6fafbfb04020401U, 0xfbfdfd06fdfcfe01U,
  0x505fd0501060403U, 0xfd00060403fdfffbU, 0x10405fe05fffb00U, 0xfafefe03050407fdU,
  0x2000003f90704U, 0x6fe0705fa040306U, 0xfe05fe06fa00fcffU, 0x207ff00fffd0004U,
  0xfcff0506fff900f9U, 0xfc00fdfb0200fbffU, 0xfafe0405070306fdU, 0xfd05010603fc0104U,
  0x100ff030703fefcU, 0x7fcfc0400fa05faU, 0xf8fcfdf6fefa0104U, 0x10300fc0002fbf6U,
  0x303fbfffb04f704U, 0xfcfaf7fdfdf9fb02U, 0xf90300fdfe0203faU, 0xfffaf9f7f7fef7feU,
  0xf801f801fbfaf7f8U, 0x3fbf703030803feU, 0xfe02040803fb0200U, 0x2f80504f7fcfc05U,
  0xfdfb00fdf9070504U, 0xfcf9f7fcfc03fcf9U, 0xfafeff00fefaf807U, 0xf906ff03f7fdfc00U,
  0xfefa05fe0501fe04U, 0xf8fff907f803fef7U, 0xfa040105000401fdU, 0x10303fb0401fe03U,
  0x70203ff0202f8f7U, 0xfbff0300fd01fefeU, 0x306fe0302f9fdffU, 0x2fffefcfcfafcf9U,
  0xf703fffdf7fcfef7U, 0xf9f9fe0103fcfdfeU, 0xf8fd06f602fcf8f8U, 0xfe07fc01fbf8fdf9U,
  0xfffef7fdf8fffc06U, 0x4fdf9faf9fef702U, 0xf705fd06fbfcf803U, 0xf8f7f7030302fd03U,
  0xfbfd02fa06f9fa03U, 0x303f7010001fc03U, 0xf7f90704fef905U, 0x3fe06f807fbfdfbU,
  0x7fffaf9f9070203U, 0xf9fcfd00f502f9faU, 0x6fa0703000201f6U, 0xf9f5fafeff0702fcU,
  0xf7f8fe0403f900f8U, 0x40203f901fb00ffU, 0xfaf7fcfbfffcf802U, 0x2fb04fe020401fcU,
  0x2fdfdfcfbf9fefcU, 0xfe06fc06f7f9fdffU, 0x1fc04fe06020703U, 0x207f6fc0106fd03U,
  0xfef8040403fe04f5U, 0x3000303fdf6ffffU, 0xfafa00fa01f9fa01U, 0xfafffa0205fc0502U,
  0xff0601fb03000105U, 0xfcfcfdfb010703faU, 0x500fa000204fcfdU, 0x202fb02fcfe05faU,
  0xf900f9ff060506fcU, 0xfd0201fcfafbfffcU, 0xfb05fdfbff0605fbU, 0xfdfcfcfdfb0304U,
  0x4fd0001fc03faU, 0x50501ff0506fdfbU, 0xfd02fc01fc02fd07U, 0xfefc0600ff020507U,
  0x3050603fa02fbfaU, 0x1fafefffafc0207U, 0xfd0603fafffd01f9U, 0xfe0003fe0603ff05U,
  0xfd06fd00fdfcfd02U, 0xfe0507fd02fc0006U, 0xfafd070005ff0203U, 0xfefdfffc0106fd00U,
  0xfcfa010604010006U, 0xfeff05f9fbfe05ffU, 0xfafffcfd010303fdU, 0x604010406fffa06U,
  0x701070005ff02fcU, 0x800fe01fcfe0202U, 0xfd0607fe02030501U, 0x202020102fefb05U,
  0xf9fb09fcfc04ff07U, 0xfdfbfdfbf804ff03U, 0xfefb000804fe0809U, 0x7fc02f9fe0202f7U,
  0x70308fd03080000U, 0xfc04fdfdfbfc0803U, 0x2ff03fa0208fc01U, 0x3060803fdfff704U,
  0xfaf9fef80401fbfcU, 0xfd01f7f7090605fcU, 0xff03fefcf8fbfd04U, 0xfb08fefcf90301fdU,
  0x4fe02fb0404fafcU, 0xfe0000fe020504U, 0x2fbff07fcfc04fcU, 0x2ff0803fe0304ffU,
  0x1fefc03fd06fd06U, 0x30708010500fff7U, 0xfbfa03fef8010807U, 0xfd02fbf9ff02f7f9U,
  0xfcfefef900020705U, 0x1ff03fefdfeU, 0x7060007fa0000fdU, 0xfd01fd030405fe02U,
  0x3fafe03fafffd00U, 0x5fbff06fbfb03fdU, 0xfd00ffff00fcff04U, 0x20307fafd060304U,
  0xfd0204fcfbff0605U, 0xfc01fdf904030706U, 0xfa00030600fefafcU, 0x1f90201fe06fb03U,
  0xfdff01040105fe02U, 0xfcfb050100f90401U, 0xfefbfafc060302fcU, 0xfbff04f9fbfd0404U,
  0x4fe04010203fc01U, 0xfafd06fa01ff06faU, 0xfcfafafb030402ffU, 0xf904fc030006fa02U,
  0x7fd05000103fb01U, 0x100fbfff9fb01faU, 0xfbfcfcfdff0205ffU, 0x3fa05fd03fffeffU,
  0xfbfbfb02fcfdfffeU, 0xfd01ff0004fe03f7U, 0x1fe030402fc00faU, 0x4030304f700ff04U,
  0x3fc03f8f901fcfdU, 0xf902fcfe04fc0301U, 0x400fc02fcf9fafbU, 0x4ff02f90008ff03U,
  0xfcfb00fff7f701fcU, 0xfe01fd08030302ffU, 0x3fffdfefb00fa02U, 0xf7f700ff0303fbfeU,
  0x2ff010607fb05fcU, 0xf8f7fdf9f8f90402U, 0xf800fffc000508fbU, 0x2fa0004f700fafaU,
  0xf7fff802fef8f7ffU, 0xfc0009f70300fd04U, 0x101fdf8fc0201feU, 0xf8fafe00fd010302U,
  0xfc020306f7030402U, 0x1fd02fcfb06fd03U, 0x2fbfbfb02fdfef9U, 0xfffa00f7f8fe02faU,
  0xfa0402faf903fa03U, 0x6ff0101fd02fe08U, 0x4fefb05fb04fcfaU, 0xfefa070404fe0607U,
  0x3fbfbfcfd01fafeU, 0x406fa00f902faf8U, 0xf906ff00fafe01U, 0x3fbfa01f9fa02fbU,
  0xfffbfcfffc02fd00U, 0x103ff02fcfefffeU, 0xfa07fa03fffbfbU, 0x402fc050502fd03U,
  0x5040002fafd0005U, 0x2fefbff0005ff02U, 0x6fd04f903fb00U, 0xfdf9fafffafc0304U,
  0xfc01fb02f7fcfbfeU, 0xfbfefbfc0404fe00U, 0xfbfdfeff05ff01fcU, 0xfcfd050001ffff03U,
  0xfbfe0406060203U, 0x7fefafd0202feffU, 0x4fb0201000202fdU, 0x1ffff010603ff05U,
  0xfafafe0305050401U, 0x6fa0102ff03fa04U, 0xf900fe0307fb01faU, 0x307f9fffbfbfeU,
  0xfaff0205fdfff803U, 0xfc02020400f9feffU, 0x3fafbf8f906f8faU, 0x4f703fd0402fafaU,
  0x3fcfff602ff0403U, 0xfb0200fd020505fdU, 0xfd07fffef800faf8U, 0x400fdfa04020206U,
  0x2f8fd04fef9f9fbU, 0x502fa000402fffeU, 0x3fbfd0102fe0100U, 0xf6f804fe00f7fa00U,
  0xfbf900f9fafff9fbU, 0xf702fbf7fffff9U, 0x10504f802fdfd00U, 0xfe00fe0104fff8fdU,
  0x6ff0404fcf705feU, 0x6fbfb04f903fefcU, 0xfff8f9fb02f90200U, 0xfa0200f9f8fff8feU,
  0xfd02f8fbfafff9faU, 0x2faf80200f9f801U, 0x1fffffbfaff0102U, 0xf7fe01fbf7fe0300U,
  0xfff8fefefefafbf6U, 0xfdf803f7fef8fa03U, 0x400f7f70101f9fdU, 0x1faf9faf9fbfb01U,
  0xfa0400fefff70202U, 0x3fff901f5fcf8U, 0xf8fbff02fa06fbU, 0xfafffcf7fc02ff02U,
  0x3fb0201f7f9fe06U, 0xff04f9f705fafe01U, 0xf6fbfd02f7f6faffU, 0xf6fe0502fdf5fffdU,
  0xfafafa03fc01fffaU, 0xf7fbfcfdfefffc00U, 0xfafaff03faf902fdU, 0xfdf6fc00fd0202f8U,
  0xf9fdf5f6fa02fef8U, 0xf6f600f7fff9fc00U, 0xf8fafffdf8f6f801U, 0x306f6ff03fb0202U,
  0xfdfaf6f702fb02f9U, 0x5f9fefcf6f700fcU, 0xfc0204faf6fe0202U, 0x40405fd03fc0404U,
  0x3fbfbfcfff9fdffU, 0xfefa07fafe0105ffU, 0x50005fa01000403U, 0xfb00fffc00f903feU,
  0xfdfbfb06ff000001U, 0xfc04fd010601ff04U, 0x303ff0103f9fcU, 0xfcfb0500feff00fbU,
  0xfb02f9030503fd06U, 0x403000306fc0307U, 0xfcfafa00fafb00U, 0xfefdfef903f901ffU,
  0x1ff0106fd06fd07U, 0xfa0401000607fe04U, 0xfffe020601fc0402U, 0x10303f9f9000605U,
  0xfd00fffdfa030405U, 0x6fffbfbfefa05ffU, 0xfafa00fd04fffc07U, 0x6fe04fa02010703U,
  0x3ff02fbff02fa07U, 0x1fa07fcfa05fb04U, 0x2fd05fafdfbfa04U, 0xf7fd030004fefd00U,
  0x6fff8fdf8f8fbf8U, 0x102fbf7fbf900f7U, 0xfff9f602020204fdU, 0xfdfc00f7fefa03f9U,
  0xf507fc0106f9fefdU, 0x104f9fff6fa02fcU, 0x3fcfb05fd03f800U, 0xfe06030400f80204U,
  0xf901fcf8fcfbfff6U, 0xfcf604fc030603fcU, 0xfafc02fcfdfafefeU, 0xfd01f7f802fbf8ffU,
  0xfcfef90002f6f9U, 0x300fdfe0404ff02U, 0xff0200fcf8fe01fdU, 0x3fcfafcf8fcfafeU,
  0xfd0501fa00fcf900U, 0x2f805fefffcffffU, 0xff000203ff00fc06U, 0x10900fc00fcfbfcU,
  0xfd01f7f6f700f7f8U, 0xfc0004fef8fa03fbU, 0x4fd040400faff06U, 0x2fa04030102ff01U,
  0x5ff01fb00fef9fbU, 0xfefaf8fd0404faffU, 0xf703fbf90401fbfdU, 0xfd01fefffc01fbf8U,
  0xf7f8fe03f8020002U, 0xfcfefefa01f8f8faU, 0xfffbfc00fcfefafcU, 0xfbfd040100010400U,
  0xfffaf902f703f9U, 0x2f9fbff01fefdfdU, 0xf8f700f8ffff02f9U, 0x40302f8fafcf8ffU,
  0xfc02f9fcfaf7f8faU, 0x200fbfffcfff9feU, 0xfafbf8f80301fa00U, 0xf7fafeff0002fe00U,
  0xfffdf8fafb01fbfaU, 0x1ff0400f802fcfdU, 0xff02fdfcfcfffd01U, 0x204fffcfafd02ffU,
  0xf7f8fe0004000303U, 0xf9fcf8f70304fdf8U, 0x104f901020203faU, 0xfe03fdf9fdfbf905U,
  0xfafdfbf4f80100f6U, 0xfa02fcf60203fef5U, 0xf8f9f7f4fdfcf5f4U, 0xf6fbfff8f503f8f5U,
  0x1faf5000404f7faU, 0xfafafffcfc00fe01U, 0xfcfd02f8f8f9fdf9U, 0x1f800000403f7feU,
  0xffff05f6f7f9fbU, 0xfdf9fbfffffe02fcU, 0xfd03fdf8fc03f700U, 0xfefffffefffffcU,
  0xf3fcf4fcfdfcf6fcU, 0xff04f4f8f3fbfff8U, 0xf3f503f9f6f600f6U, 0x1f9fdf8f9fc00fbU,
  0xfa00fff6f5fa00U, 0x2ff01fff3fafaf9U, 0xfbf4fbf9fdfefeU, 0x4fefb0303fdff02U,
  0xfbfff901fbf9f8f9U, 0xff02fd04fafc00fdU, 0xfefefb05f8f800f3U, 0xfcf5fb0303fdf3f8U,
  0x1fc0204f9fdfc05U, 0xfefe0104fc02fd03U, 0xfd000401f9f9f8faU, 0xfbfa010400fefc05U,
  0xfffaf8fbfe02fcfcU, 0x4000303fefdfe04U, 0xf902fb01fbfcfefbU, 0xf70404fcfb02f704U,
  0xfdfdfcfbfdfeff01U, 0xff0201fcfff9f7faU, 0x4f8fbfaff01fffbU, 0xfdf902fe02fdffU,
  0x4fa01fbf8faf7f8U, 0xfe04fbfcfefaf7feU, 0x3f8fdfaf9f801f7U, 0xfa060103f8fb02f9U,
  0xfd0104010004f8f8U, 0xf8f9f7fc00ff04f7U, 0xfbfcf9fc00ff02fcU, 0xfffefcfbf9fdfffaU,
  0xfcfcfdfb03fdfd01U, 0xfe01fcf8fdfcf8faU, 0xf901fefcfb00f704U, 0x1fa0004030103U,
  0xfafdff03f90303feU, 0x6fb01070302f903U, 0xff04fef5fcfc0304U, 0x2fef5f6fdfefbfcU,
  0xf6f8f6fd00f7fefbU, 0xfefb02f8f7fdf801U, 0xfdfafefef60100faU, 0xfaf8ffff0301feffU,
  0xfff6f7f7fef9f902U, 0xf7f9f4f8f70100fcU, 0xf9f6f9fbf901faU, 0xf8000101fc03f7fcU,
  0xfef80202f7fb00f7U, 0xff03f9fcfe01fd00U, 0x103fdfdf5fdf7fbU, 0xf8faf6fbfffd00faU,
  0xfefbfcf905fc02faU, 0x3f7f6f8f600faffU, 0xfef600f6ff0005fdU, 0xf901f5fef902fbfbU,
  0xfffb0103f802f6faU, 0xfcf6f8ff01fff8f6U, 0x3f9f6f50101fcf7U, 0x1fdfbfdf601f802U,
  0xfdf7fdfdf7f502fdU, 0xfffdfa00fdfb03feU, 0xfdf90302f9f8f9fcU, 0xfafbfb0405f7fdU,
  0xf6ff03fd0400fc04U, 0x202f904050006fbU, 0xfbfb0306fffdfbfcU, 0x2fbfb0705fdfd05U,
  0x2050606fbfefdfdU, 0x40403fbfc0205f9U, 0xfcfd0304fdfdfafdU, 0x10005fe05000407U,
  0x1fafdfc030603fdU, 0xfc06fff5fef90407U, 0x70303030106fbfeU, 0x2fc0504fef5fbf5U,
  0xfef9fb0106ff02U, 0xfc06f8fbfb040205U, 0xfbfefd04fcfcfdfdU, 0x5fefc03fa03fcffU,
  0x104f905f9fefd02U, 0xfdfffe0307fe0204U, 0xfffc06ff00fe0006U, 0x2050000fb01ff00U,
  0x2fb06ffff02fe06U, 0xff0603fcfdfc01feU, 0x1f7fa0404fefffdU, 0xfcf902ff010301feU,
  0xfcff05f9f8fd0202U, 0xfbf703fd0102f702U, 0xf8f9fafffafcfe04U, 0xfcfd04fff8fcfdfdU,
  0xfbfbf9fff9fafd02U, 0xfcf905fdf9f9faU, 0xfafefff703fe0400U, 0x105fefc0202fd01U,
  0x3f7f900f9f90002U, 0x404f705fbf702fcU, 0x2fffa0300fd0002U, 0x2fffef800fa00f8U,
  0xfe00fa0301f9fe04U, 0xfc0105fef903fdU, 0xfbfff9fafef9fa01U, 0xfe04000203fcfdfdU,
  0x4fafcf9fcfffc04U, 0xf802fefcff0104ffU, 0xfbfa01fb0301fef7U, 0x1f9fcff000102f9U,
  0xfefcfb03f9000100U, 0xfdfafafdf8f800f7U, 0xf7fa0400fd0303f7U, 0x3f900f9fdf80102U,
  0xf7fff8fb020200feU, 0x3f903f8fafdf902U, 0x102fbfd0004f800U, 0xf902f7f8f903f7feU,
  0x3fe09f70103fe04U, 0xfff802fffff801ffU, 0x3fdfd04f8020000U, 0x3f9fa0202fbfbf9U,
  0xf801060406fafe02U, 0xfe06f8f90100f902U, 0xfa0401fefffb0400U, 0xfcff0402f600fdU,
  0x104f7f8fbff0404U, 0xfaf8f7fefafbf9fbU, 0xfef6fc0302f90003U, 0xf804fff903fd04f8U,
  0xf9f8fc0502f9fe00U, 0xfefaf8f7fc00f807U, 0x2fcfd0104faffU, 0xfafcfcff01fe0401U,
  0xfdf8fffafeff02f7U, 0xf902f9fe0003f8feU, 0xfff9f800030304U, 0xfafe07fefa01fd07U,
  0xfc01f5020106feU, 0xfafff6f6faf501fcU, 0xfc01fdf7fc0002f5U, 0xf7f8fdf5f602fafeU,
  0xfa00fef8f6fafdffU, 0xfffe00ff01fdf8f4U, 0xfa03fd02fffafcfeU, 0xfdf7fcf70102f6ffU,
  0xf700f7f8fa02f6faU, 0x2f4fcfafc00fdf9U, 0xff00f8f7fef90102U, 0xfbfb0100f5f7fdffU,
  0xf8fbf8fffaf9f9f6U, 0xff0102fe0101f5f6U, 0xfafef8f903f601feU, 0xfd01fdf5010002fcU,
  0xfe00f9fefcf8f702U, 0xf8fbfff80002f6feU, 0xfcfdf5fef7faf7faU, 0xf902f8f802feffffU,
  0xf7f900fafbfbf9f7U, 0xfbff00f9f600U, 0x3fff501fe01faf6U, 0xfaf700f8f7fafcf9U,
  0xfc0101ff00fbfd03U, 0x201fe02ff00f801U, 0x1fcfffff7f8f902U, 0xfdfbfc04ff0404f7U,
  0xfaf80300fe02fafdU, 0xfdfdfc02f9fdf9fbU, 0xf7f90001f9fff802U, 0xfa00fcfd040309fcU,
  0xfb0301f7fd00fcfcU, 0xf8fbfcfcfffc03fcU, 0x40203fe0105fe01U, 0xf800f90002f8fbf8U,
  0xffff0301fe00f701U, 0x4ff03ff04f7fe01U, 0xfc010301fffafdU, 0xfcfb02fbf901fcf8U,
  0x2fefb02fbfa01fbU, 0xfbfefafd00010001U, 0x1fef8fbf9010308U, 0x2fbf90402fcfaf9U,
  0xfc02feff0100ffU, 0xfbfbfef9fb040300U, 0x40000faf7faf9fdU, 0xfafc010200f7f9fcU,
  0x7fafa0004fbfe03U, 0x60001fefb06fbfdU, 0xfc0104020403fa06U, 0x5fffc05fd06fcfcU,
  0x50606fbf9fefe03U, 0x10206fbf9050500U, 0x200020000060400U, 0xf901f90100fffe01U,
  0xfa02fdfa000402faU, 0xf904fafa0107fa00U, 0x7fb0203fbfafcfaU, 0x2fb06040003feU,
  0xfafb040200f906fdU, 0x10504fa05000500U, 0x5fa020100fd02fbU, 0x7fafa06fa06fdffU,
  0x3fdfd0404fe0402U, 0xfd010005fb07f9U, 0x502fffafefcfd03U, 0x5fc040106010006U,
  0xfbfdfbfb02fe0604U, 0x1fe020507fefb06U, 0x10605fa00f901fcU, 0x6fa0304fe07fe05U,
  0xf9fef70405fa0007U, 0xfc02fd03faf90503U, 0xfa04fafcfaf80100U, 0xfafdfbfcff0100fdU,
  0x102fffe03fd00f9U, 0xf700fbfdfdffff00U, 0xf80303fbfffff700U, 0xfbfe04020200f7faU,
  0xfcfefcfa02f70002U, 0xfafd03f70202f9feU, 0xf9f70303f7fbfcfaU, 0xf7fa04fef801f8feU,
  0x2f8f70103fefffbU, 0xfa0002fefc020202U, 0xf9000104f8fd02U, 0xfcf901f7fc0101f8U,
  0x2f9faf7f8fdfe02U, 0xfa000400f90000fdU, 0xfbfaf7fcfb03f904U, 0xf9fe04f901fe00fcU,
  0x1fa04fbf8fb0204U, 0x4faf7f9f901fd04U, 0xfb010001f7020100U, 0xf8fefffe03f7fc02U,
  0x301fafefefff802U, 0xf9fd0004fef8fc02U, 0x502fd01fcfcfd01U, 0xfdf8fe02f9f8fa01U,
  0xf90000fefe0300fbU, 0xfffdfefafc03fd04U, 0x5fbf9fefbf801U, 0xf904fb01fc0400f8U,
  0xf8fd0202feff0000U, 0x1fa0004fdfffdf9U, 0xfd0501fffc02fd02U, 0xf802f9fbfa030203U,
  0x202fd040304fefeU, 0x400f7fefafff8faU, 0xfdfc0007fcfdfcfcU, 0x1fc0005f9fe0304U,
  0x1ff02fc03010403U, 0xfd06fdfffdfc0801U, 0xfefafd030000fbfcU, 0xfdfdfffefff905ffU,
  0xfcfafcfbfd04f703U, 0x2fbfe0304f903f7U, 0xfe01fc0300fefb02U, 0xfbff000402fffaf7U,
  0x104faf8010002f8U, 0xfd06fefd03fffe07U, 0xfdfb04f9feff02fbU, 0x10000fef90706ffU,
  0xf905fd0002f6f5f7U, 0xfbfff60001fdfdf3U, 0xfc01fcff07fdf500U, 0xfbfff8f6fafbfaf9U,
  0x5fb0101fff502f9U, 0x1ff03f7fdf4fa01U, 0xf30101020000f604U, 0xfbf4fbf9faf400fdU,
  0x2fffff701fb02f4U, 0xf8fbf8f80600f302U, 0xff0001f805fbfefdU, 0xfcf9f9f9fff9fafeU,
  0xf8fbfa00fafafa00U, 0xf6fbf7fa01fbfefcU, 0xfff5fbfef901fd01U, 0xfd02fa04fa00f5fcU,
  0xf9fff9fd03fafdf9U, 0xfb0205fefff7f8fcU, 0xfdfefafef6fe04fcU, 0x1f4fcfcfcfe0204U,
  0xf8f900fcfef7fdfeU, 0xfef8f800fefbf800U, 0xfbfa00fe0203f7faU, 0x3fcfdfdfef902f9U,
  0xfef7fe03f705fa02U, 0xfbf7f7fffa03f9ffU, 0xf701f7fcf9fffbffU, 0x5f7ff03f7faf9f7U,
  0xf703fd000301fcffU, 0x4fcfbfbff00faffU, 0xfafd040203f802f8U, 0xfdfcfcfc03fd0400U,
  0xfb000304f7f801fcU, 0x1fafffdfc0303f8U, 0xf802fef7fefdff04U, 0xfefefa00fa01fd02U,
  0xfefe02ff0403f701U, 0x402fdf701f8fefeU, 0xfaf7f70104ff04fcU, 0xfafb0204f703fef9U,
  0xfef7000100fdfffaU, 0xfefe0204fbf7fffaU, 0xff03020103f9f7fbU, 0x4010100f901U,
  0xfefafdf9fefb0003U, 0xfafdf70204fe03U, 0x200fdfd03ff02U, 0xf7f7fb000000fefaU,
  0xf9fdf701f5f9fdf8U, 0xfff9fc03070202U, 0x200fd02fafb0303U, 0x5fdfe0000f703ffU,
  0x2fefe05fdfdff01U, 0x2fdfa05fffafb05U, 0xfe07030101ff0101U, 0x2fdfdfc0306fafaU,
  0xfbfefefcfdfe0702U, 0x2fb03ff07010403U, 0x201ff03f9f7fafeU, 0xfcfb03fcff01feffU,
  0xfcfefefbfcfdfdf7U, 0xfaf80203fa01ffffU, 0x2fd0304fc02U, 0xfbfbfa0606020401U,
  0xfd010206fa02fffeU, 0xfe07fcfdfbff00ffU, 0xfefb05fafe00fffcU, 0xfb020300040401feU,
  0xf9070104fffdf9fbU, 0x2fc070206ff0206U, 0xfe03fd02fa020002U, 0xfc000402fefbf903U,
  0x102f703fef8fffaU, 0x3040304f9f80504U, 0xfdfef800fef9U, 0xf8fb03fdfefc00ffU,
  0xf7f8ff0100fdfc03U, 0x30300fbfdfef8fdU, 0xfd02f9fdfd0001f8U, 0xfefc0201fff9fa03U,
  0xf7fe04f7fcfffffbU, 0xf804faf703000103U, 0xfefa02f80202f8feU, 0xfcf7fdfd020204f8U,
  0x204f8f9f9fcf7faU, 0x200fdf9feff0201U, 0xf7fc0301f700f7faU, 0xfdf700fd03fbfafaU,
  0xfef8fb01faf900fcU, 0xf7f701fcfcfe0300U, 0xf7fd0004f8fffa04U, 0xfbfffff9fc01fdf9U,
  0x401f9fafafef9f9U, 0x402f901fd0401f9U, 0xfbf701fcf9fbf902U, 0x2fa02fb0103fdf7U,
  0x2fa04fc03fdfdffU, 0xf902f8fffef7f902U, 0xfa0002fafbf7fbfeU, 0xfafa01fd02fd04fdU,
  0x4fcfbfc04fe02fcU, 0x302fbfbfafcf7ffU, 0xfef8f701ff04f901U, 0xfdfdfc0403fafefaU,
  0xf9fc0002f7f8f902U, 0xf7fef804f9fdff03U, 0x30403fb000101fdU, 0xfd0202f90001f702U,
  0xfcf9fbfffbfa02f7U, 0xfc04fcf7f700faU, 0xfb0404fafdfbfef9U, 0xf900fcfffffdfafeU,
  0x1f80301fef7f8f8U, 0x3fa020003f70102U, 0xf8fafcf9f704f9fcU, 0xff030104fefcf7ffU,
  0xff03f901fd01f8U, 0xfeff0302fdfefafbU, 0xfd00fe02fb03fd02U, 0xf8fa0103fbfcfcfeU,
  0xfefa00fc02060505U, 0xfc0700fcfffb0204U, 0x1fa05f9fdfc02f9U, 0xfffffa0702fdfef9U,
  0xf9f7f802fc000002U, 0x3fa01fbf80002ffU, 0x205ff0303fa00f9U, 0x602f7fcf9fdfbfdU,
  0xfcf80501fbfe0100U, 0xfff8f80404f703fcU, 0x204fefcfbfd0300U, 0x4fefffa00fe0304U,
  0xf7fb07fa00fbfafeU, 0x405f905fbfe01faU, 0xfaf90007fc03f9fcU, 0xfe02fc0303fb06feU,
  0xfa000202f905f901U, 0x2fa000001fef900U, 0xf900fa00fefef8ffU, 0xfc02fa03fcfdfdfbU,
  0xfc05fa0104fd04fbU, 0x306fa0305f9fdfdU, 0x1fffa04fb030503U, 0xfb0706fa05050306U,
  0x401fafffcf9f9ffU, 0x30104fc04030103U, 0xfc01fcf8f800fdfcU, 0x304faf802fe0207U,
  0xfdfd0406f903fe03U, 0x4000502fdf9ff04U, 0x40204fef901fe03U, 0x3f9f80100fd01U,
  0x1f7f704fdfb00feU, 0xfeff00fefa05U, 0xff04f90504fc01f8U, 0xfb01f8f800ff0501U,
  0xfa0100fa0104fcffU, 0xf8020301fffff8ffU, 0xf7f90103ff04f9feU, 0xf8fa00f8fff9fd05U,
  0xfbfb0303fef806fdU, 0x5f901fa03f8fcf8U, 0xfaf8fc0101fbfafaU, 0xf804fcfdf90004fcU,
  0xfcfbfdfdfbfcfefaU, 0x1f8f7f80000fcfeU, 0xf903fe0401f803U, 0xf702f9f7f8f80002U,
  0xf8fb000203fffcU, 0x60305fdfe00fbfbU, 0x106040005030005U, 0xfe01fefafafbfc03U,
  0xfafffbfb04fd02ffU, 0xfcfdfd03feff05U, 0xfefa00fcfcfffd04U, 0x3fa070005ff0304U,
  0x404050406f9fdfcU, 0x401fe040502fafbU, 0x3060700ff0501faU, 0xfa0400050104fafbU,
  0x2fafd020500fa00U, 0xfdff0203f900fb01U, 0x4fa03fef9ff0100U, 0xfafa02fbfa07fcU,
  0xf903fffffbfc07ffU, 0x4fb07fc06fffafdU, 0x502fdfafdfa0304U, 0xfa03f9faff01fa04U,
  0x2ff07000003fc04U, 0xfffc02000607feffU, 0x4fdfe020404f9ffU, 0xfd03fffdfc0405feU,
  0xfafafa05ff0205faU, 0x20704fe010402feU, 0xfc02fffb0404fc02U, 0xfafaff0407fefcfdU,
  0x40102000303fd02U, 0x604f9fcfbfd0605U, 0xf90506fe0101fafcU, 0x1fc0503fdfc0504U,
  0x4fefd0705040501U, 0xfb05030302fdfbffU, 0xfe05fcfb00ff01f9U, 0xfafdfa0404fdfe03U,
  0x102fd0203020300U, 0x3fffb020702fffaU, 0x1fc03fe01fe0207U, 0xfa07fcfd03fefafaU,
  0x10301040505fcfbU, 0x1ff03fbfafa0006U, 0x1fa01fafb06fdU, 0xfc00ff06fb020404U,
  0x206f90701fe0304U, 0xfefe0606fc02ff06U, 0xfafeff0204fc0104U, 0x400060104fe04U,
  0xfd0100fd01fcfeffU, 0x607fcfc010601fbU, 0xfdf7010104f704fbU, 0x2fff9f7fefdf803U,
  0xfa0305faf7fefbf8U, 0x1fffbfef9000100U, 0x3fefef8fffcfb02U, 0xfffb00ff03f802fbU,
  0xfbf801fdf804fc02U, 0xfc0104fe04f7fd04U, 0xf7fc000501fbf901U, 0xf705fcfbfefbfe04U,
  0xfa03fb01f9f80001U, 0xfaf7fdfafbf9fc04U, 0xfbfbfcfcfffefcfbU, 0xfd00fafa03030004U,
  0xfefaff04fb0202fdU, 0xfcff0403f8f9fcfaU, 0xf8f903f905fd03faU, 0xfafdfcffff03fc00U,
  0xf8fe01fb0003f9feU, 0xf705fc00f8fe03faU, 0xfbfefffff7fc02f9U, 0xf801fd04ff0400fcU,
  0xfefd04ff03fef8feU, 0xf7fbf8f8fff7f8fdU, 0xff04f7f7fd03fff8U, 0x6fe00fef8fb0101U,
  0xfdff01f9fdfb02fcU, 0xf700040101040502U, 0x6ff010301000001U, 0xfefdfdfdfafe02faU,
  0xfcfefe0102fffa00U, 0xf8fcfffb00f9fcf8U, 0x2fe020506fb00ffU, 0x502fe01faf7fc05U,
  0xfa0104fbfb030105U, 0x502fffd04fffd04U, 0x40503fcfef9f9U, 0x200fafa00f8fbfbU,
  0x4fef9fefc03fefcU, 0x3fcfcf802fb0206U, 0xf8050401fc050402U, 0xfb0003fc03f70401U,
  0xfc0300fff80101f8U, 0xfc00fb0606030700U, 0x40102fd0104fafbU, 0xf9f9f804ff03fcfaU,
  0xfbfef7f7f8fc01fbU, 0xfdfa04fdfcf7fd04U, 0xfa0301010003fbfaU, 0x3fffb0606feff02U,
  0xfc01fa0503fcfe04U, 0x5fe0205050304U, 0xf901ff0305f90101U, 0xfb0402fa07ff0401U,
  0xfdfb010101fbff00U, 0xfa04fa0404fcfffeU, 0x3fb0202fa06fafdU, 0x20106fcfdf901faU,
  0xfafefcfafb01fdfcU, 0xfdfc00fbf9000505U, 0xff06ff03fd040703U, 0xfafefffbfbfb00feU,
  0xfeff02fcfbfa07fbU, 0x20700fefc0504U, 0xff06fbf9fbfdfa02U, 0x3fc04fcff030004U,
  0xfc0406fdfa01fcfaU, 0x501ff07fefb0305U, 0xfafb05fffb04fcffU, 0xfbfd0700fc0704feU,
  0xfe03fffdf901fdfaU, 0x10701faff01fcU, 0x6fdfeff0304fafbU, 0x3f8fefbf9fb0101U,
  0xf8f800fdff0401fdU, 0x4fbfefcfc0400f7U, 0xf8fafdfe00fd07U, 0x201ff07fafc0303U,
  0x1fa020202fefefbU, 0xfdfb0402fc03ff00U, 0xfa03fe0100010601U, 0xfdfcfa0201010704U,
  0xfcfdfa03000203f8U, 0xfc050602fe0000U, 0x300f9fbfdfdfbfcU, 0xfdfbfbf7fbfafd01U,
  0x5ff03010102fbfaU, 0xf90005fefe0005faU, 0xf8f702ff06f701U, 0x100fffaff03f704U,
  0x1fbfd0104fa02fcU, 0x5030103030302fbU, 0xfafcf9fbfefefffcU, 0x1f804fffa0404feU,
  0xfefa03fffbfefefcU, 0x303fcf7f8010200U, 0xf70400fbfc05f7f9U, 0xf804fdf7fdff04ffU,
  0x5070405010606fcU, 0xfb00fe02040302feU, 0x5fa07fafa0204feU, 0x3fa06f9fa02fafbU,
  0x50506030405fc06U, 0x6fcfb01fcfafbfbU, 0xfcfffbfcfffcfb05U, 0x703050704fdfe01U,
  0xfb050304fa0105fdU, 0x6fbfafcfdfe02fcU, 0x3f9fefb02fb06ffU, 0x4fb03fbfc050603U,
  0x3fd07040500fc01U, 0xfcfe050500020007U, 0x405fffdfe04fcfbU, 0xfdfe03f901fbfd03U,
  0x2050102fc02fd04U, 0xfc0004ff03f902fbU, 0x603fdf9fafcfa00U, 0xfefe05fbfb0005fbU,
  0xfb07fff9fc03fb04U, 0x50406fcff020402U, 0xfdfb0202fd050000U, 0xfafffb0101fb0106U,
  0x1f70404020506ffU, 0xfc0001fcf8ff02f8U, 0xfcfafef703010403U, 0xf80100fcf7fdfb02U,
  0xfdfbfc00fafe00faU, 0xfef701f801fd0204U, 0xf8fcfef701fdfefbU, 0x10302f9fcf7f802U,
  0xfef8040103000404U, 0x2fcfc010002f8fdU, 0x3fdf90102030202U, 0xfbfcfff8fefdf9ffU,
  0xfcf901ff03ff02faU, 0xfc01fb0002f7fafaU, 0xfd04fbf9fb01ff01U, 0xfc000300f9faf902U,
  0xfafffa03feff0400U, 0x2fe03f8fb04feU, 0xfafa03ff02fefefcU, 0xfbfdfbfbfdf9fb00U,
  0xf9fafafcfbfd0303U, 0xfb03fbfdf90101fcU, 0xfbfb0302fff80201U, 0x303fefffcf7f805U,
  0x1f8fcfdfdf90103U, 0x600fa020304fb04U, 0x1ff02fbfcfcfbfaU, 0xff0402fe040300feU,
  0xf7fe010002fcff01U, 0x301fa01fafcfbU, 0xf701fe0201f7fef9U, 0x305ff0103f9fdfbU,
  0x2f9f801fc040102U, 0xfafe04fe05fb0400U, 0xfb02f8fe01fc01fbU, 0xf8fefc02f7030104U,
  0xf90304fcfcfcf8fbU, 0x1fafcfa03fe0301U, 0xfcfe03f80301fcffU, 0x50206f9fc040104U,
  0x4fdf9fff903fa02U, 0x2fafefbfffc0502U, 0xfcfc01fbfd0200f9U, 0x3fdfffffe030100U,
  0xfd00f7fd03f905fcU, 0x1fffdf9f804fff8U, 0xfefefffff9fffa03U, 0xfbfbfffc03fcf7feU,
  0x305fb04ff0106U, 0xfc0400fbff030002U, 0x6060103f8020001U, 0x5fe04ff0007fafeU,
  0xfa060502fb0303fdU, 0xf903fffefbfb01fcU, 0x7010506f9fa02ffU, 0x4fe0007fdfffdffU,
  0x504fa01070203fcU, 0xfbfff8050503fbfdU, 0x30203f906fafdf9U, 0x105fdf804060202U,
  0x2fafcf9fb040702U, 0x3fa0206fdfbfb06U, 0x603fe0600ff00fdU, 0x30104fdfa0100ffU,
  0xfe0603f801f801fbU, 0x4fb0102f90002fbU, 0xfdfbfefefffcfbfaU, 0x3ff02f90402fbfbU,
  0x6fefc02fa00fe04U, 0x403fafcfbff00feU, 0xfbfff9fefb0302fcU, 0x5ff050105060204U,
  0xfc0104fe0402ff01U, 0x7020000fb05fcf9U, 0xfff90104fe0301ffU, 0xfd04fffaf70100f9U,
  0xfe00ff03f8fdfcffU, 0xf8f900050004fcfcU, 0x2f90302f70403ffU, 0x500f702040200fdU,
  0xfbfefe01fcf7fa04U, 0xfefafafafdfa01fdU, 0xfffdf703faf8fffdU, 0xfefbfe04fe02ffU,
  0xfaf90204fbfff700U, 0x1fefafaf7fd03fdU, 0xfe000300f9ff04U, 0xfcfe0402f903f7feU,
  0x1ff00fbfaf80003U, 0xfe03f9f702030000U, 0x4f905fc010403f9U, 0xf8faf701fbf701faU,
  0xfbfdfff8f802feffU, 0x4fd01f804fb01ffU, 0xfe04fe03fcf8faf9U, 0x100fcfcfbfbf802U,
  0x1fcfdf802fafffaU, 0xf8fcfffa040401f7U, 0xf8fafa05f9f9f700U, 0xfd040400fa040102U,
  0x20600fc05fffafbU, 0xfa0304020203fe03U, 0xfcfd0301fcfe00feU, 0xfb05fc01fefe0407U,
  0x404fbfffe0100faU, 0x102fd0304010304U, 0x305fdfc01fefb02U, 0x40605050405fc01U,
  0xf90206fff906fffaU, 0x6fffb03fdfe00fdU, 0x3040003fefd04U, 0x4faf906fc02fcfcU,
  0x2fb06ff04020606U, 0x4fafa03fb0305feU, 0x201000606030301U, 0xfc000201fa04fffaU,
  0xfc0102060500fcfdU, 0xfe0504fd05fcfafaU, 0xf902010302fcfaU, 0xfb04fcfd060406ffU,
  0xfaf903fcfb020004U, 0xfbfff9fa03ff0505U, 0x105000004fbfafaU, 0x5faf8010005fa04U,
  0xfc0204f70203fff7U, 0xfffcf70403fd00f7U, 0xfa04fd04010401faU, 0xf904fafbfaf70303U,
  0xfdfa03040101fbfeU, 0xfc0303f9fefcf801U, 0x3fdfdfcff03fd02U, 0xfdfefaf900fbff02U,
  0xfbfdf8fdf7fcfef9U, 0x2fe00f8fb000403U, 0xfdf902fefc01faf9U, 0xf8f8f7f8fefcf7fcU,
  0xfa00ff05fffd03fbU, 0xf7fd01f90101f8f9U, 0xfcfefc04f804f8f9U, 0xf9f7f8f802f90003U,
  0xf8f8000305fd0100U, 0x1fe04fff70002fdU, 0x3fafefdfd00fffcU, 0xfafdf7f704fffe04U,
  0x1f9fdfcfa0201fcU, 0xf9fdfdf8f704f902U, 0xfa0403fbf904fafbU, 0x40101fe02f8fcU,
  0x2fe00fbf8fcfe00U, 0xf80400fd0400faf7U, 0x5fcf905fdf9fbffU, 0xf9fcf8f9fcfefaU,
  0xfbfe05fffb02fefeU, 0xfdfefb04f90004fdU, 0xfe0001faf8ff02ffU, 0xf90300f9fd00fcffU,
  0x4fef704fef900fcU, 0xf8fe0501010401f7U, 0xf9fdfafb030302ffU, 0xfef7000104fffdffU,
  0xfe03f7fdfcfafd01U, 0xfafe0600fcfeffffU, 0xfa0000fcfcfbfaU, 0x60602fa03faff04U,
  0x2010103ff03fe02U, 0xfd04fb060100fcfaU, 0x2fb010200050201U, 0x2fd0102fef904f8U,
  0xfcfe00fef9fbfcfbU, 0x5fafd00fe05ff03U, 0xfdfbfdfd02f9f9faU, 0x4fafc0600fc05f9U,
  0xf90300fdfe05fc01U, 0xfcfdfafb00fe01feU, 0xfb03fbfd0203f703U, 0xfafd01040000fdfbU,
  0x2fefefdfefbfaU, 0xfa0101f90400fef9U, 0xfff8fcf7ff00fb01U, 0xfcfcfb0403fffd01U,
  0xfffcfcf8f900f8fdU, 0xfbf903fef8fafb04U, 0x402fdfcf705fafeU, 0xf9fe010301f80100U,
  0xfb00040401040304U, 0x5f8f8fb030300f9U, 0xfc0304fc03fbfb00U, 0xf7fb01fafdfaf9fbU,
  0xf8f9fbfa04fc0105U, 0xfff80403fafefb01U, 0x3fc03fd0400f9ffU, 0xfcf9fefefbfefefbU,
  0xfc010401f8fe01ffU, 0xfd04f901f80505fbU, 0xf9fdfffd030203ffU, 0x20504fefef8f9U,
  0xf8fa04fd0301ff01U, 0xfff805f9f8fd00U, 0x2fdf8ff00fefe01U, 0xfbfcfdfa01fe01ffU,
  0x5f702fa01060204U, 0x1fefe04faf9fff7U, 0x4fcfc0506fff901U, 0xfefefd05fefaf8U,
  0xff04f8fe05fe03f8U, 0xfefe04fc0101fcf8U, 0xfcfc0000fe0102feU, 0xff01fafe04f904f9U,
  0xf9faff0303fafffbU, 0xfe01fc0502faf9fcU, 0xfcfdf701fbfefafaU, 0xfd01f90405f8f9f8U,
  0xf704f9feff03f901U, 0x201feff05030503U, 0x2f8fafa04fdfefcU, 0xf9f7010306ffff07U,
  0x4fdff02020203fbU, 0xfcf9fc00fafc0402U, 0x601020301fd04fcU, 0xf9fe00f9020304fbU,
  0x1f900ff040101f9U, 0xf9fc0406fe05fc05U, 0xfffdfc0302fe0602U, 0xfd01000602fc0304U,
  0xfdfffb07fff90007U, 0x20300fd0302fcU, 0x3fefb0004fbfcffU, 0xfffe01fa05f90304U,
  0x7fbfd05fdfc0305U, 0x106fe000402fd06U, 0x30606fb05fffeffU, 0x1000500ff03fffcU,
  0x4fbfefa07fbfbfcU, 0x4050705fe03fa01U, 0xfc0303fafcfe0405U, 0x104fafd04040501U,
  0x100060205f90503U, 0x303050404ff06feU, 0x4fc03fafc070007U, 0x2fe01fe030704feU,
  0x20205feff070601U, 0xfc0104fb01030404U, 0x202f90501030104U, 0x40506fcfefafb05U,
  0xfb070405ff03fffcU, 0xfc01040405ff00feU, 0x6fe06f90604fefaU, 0xfcff06ff06fd0104U,
  0xfa01fdfd04fb01fcU, 0x5fc06fa00fffbfeU, 0xfcfc06fd05fcfc03U, 0xfa05f904fd0301U,
  0xfa04fa06030206f9U, 0xfcfafefa0404f9ffU, 0x30103fefcfafcfcU, 0x5fe05f905fdfef9U,
  0xfef90405fd02fcU, 0xfefd00fdfa00fcfdU, 0x5ff040303020004U, 0x200fd02fff9fbU,
  0x4fbfe06fafc03faU, 0x50204fbfdfd0401U, 0x3fa0305fcfefcfcU, 0xf90505060005fc02U,
  0x1ff05fffbfdfffaU, 0xfcfcfefc01fcfdf9U, 0xff0005fa03040102U, 0xfe0203fbf90102fbU,
  0xfe000206fafefefaU, 0xfe04fcf90503fd05U, 0xf8fb01fbf8f9faffU, 0x3fdff04fdfe04U,
  0xfdfe04fb01f9fffcU, 0x403fd0400fc04feU, 0xf9f90404f9fdf9faU, 0xfbfb06f904fcfd02U,
  0xf902ff03fa0402ffU, 0x404faf9fafffa07U, 0x4f8fc0203f800U, 0xf803f8fd04f7fdfbU,
  0x6fefcfcf8fd02ffU, 0x2fbf902030505feU, 0xfbfffeff03fbfaf8U, 0xfafcfaf9fa01f903U,
  0xfffffdf90300fafcU, 0x2fafffcf9fbfef7U, 0x20100fa05fafe00U, 0x2fdfc0604faf8faU,
  0x303ff0002fafeU, 0xf90300fc020303f7U, 0xf70302ff02ff03feU, 0x3f9fafd00f9fd03U,
  0xf701fcf800fff702U, 0xfd0406f9fefdfff8U, 0xfdf80202f800fdf9U, 0xfbfe04fefa00fa02U,
  0x40105fe02fafeU, 0x101f9fd010205fdU, 0x6fbf9060603fd01U, 0xfafafa0402030504U,
  0x103fafcfb050602U, 0xfc00fe05fcfafdfcU, 0xfbf90003f9fdfbU, 0xfcfa0503fefbfff8U,
  0xfe05fffeff010004U, 0xfa04fefffb02fa04U, 0x40105fd0305fafdU, 0x1f9fcff000506fcU,
  0x605020000fefe00U, 0xfffbfbf8ff00ff01U, 0xff06fa0202fd0300U, 0x70000fc060605U,
  0x7fbfcfc03fc06f9U, 0x6fefc06fcfdfa04U, 0x303fdfc0703f803U, 0x6020001fcfefaU,
  0xfffd040405fa06U, 0xfdfb0400ff00fdfbU, 0xfffbfe0002fffffaU, 0x1040504fff9fb02U,
  0xfafafe0603ffff00U, 0x1ff0600fffdfe05U, 0x50104fdfcff04fbU, 0xff050103fa01fbfaU,
  0x400fdf907fcfffeU, 0x2fc02fcfd0403fdU, 0x10407fffb00fe04U, 0xfffffa0103fbfcffU,
  0x604fd0405fcffffU, 0x1010202fcfb0405U, 0xfcff01f9ff00fd06U, 0xfd05fb0005fe04feU,
  0x3fcf9fafdfdfc04U, 0xfdfafafafc02U, 0x404fafa03040500U, 0xfc07fc040300fd02U,
  0xff0403fe01fb04fbU, 0xfd01fb060303f902U, 0xfa02fc03fa00fe04U, 0x605fbfd02f9ffffU,
  0x30005fb01000405U, 0xff02fc000205fffdU, 0x6fcfc00fb03faU, 0xfc0100fefa06fcfaU,
  0xfff7fcfffcfcfffaU, 0x3ff040200fdfd01U, 0xfafa07fcfd05fdfdU, 0x60200faff070606U,
  0xfd0000fb050001U, 0xfd050204fc060705U, 0xff01fd0601fe06f9U, 0xfc05010305fe03fcU,
  0xfcfd010506fa0402U, 0xff060100020404feU, 0x7fbfb06f9040406U, 0xfe01fb0103030603U,
  0x4fa000401040206U, 0x600fa0504fefdfcU, 0x5fafd050206fdfdU, 0x4fb0303fc060605U,
  0xf907010606fffd01U, 0xfafbfcfa02fa02fcU, 0x2050101fafb0703U, 0x4fdfefe01fdfb04U,
  0xfefb06ff05fc07fbU, 0x7fafd0102050503U, 0x505fd010303fc06U, 0x6ff010502fe02U,
  0x20506fa05fefbfbU, 0xfd01ff02fdfdfa01U, 0x5fbf9fe040105U, 0xff060607fcfffefeU,
  0x3f9fffb03fbff04U, 0xfafcfdfeff04faffU, 0xfffbfc04fd06fffbU, 0xfe000400060506fbU,
  0xfdfafdfd06fafb02U, 0xfcf906fb0501fb01U, 0x1fa00fd00fa0401U, 0x1ff000705fe0501U,
  0x5fcfe03fafcfeU, 0xfe03f9fdfefb05ffU, 0x1fc04fe02fa0106U, 0x404020606fafafcU,
  0xfe04fe02fcfb07ffU, 0xfb02f90504faff01U, 0x3000103fe02fbfeU, 0xff03fa04fb00fcfcU,
  0x3070505fdfdfc03U, 0x604f906fcfd01f9U, 0x6040200fbfe06faU, 0x4000206fc06f903U,
  0x1f901f70500f904U, 0xf9fcfafefdfaf9ffU, 0x300fcfdfefcf9U, 0xf9050305f8fb05ffU,
  0x5fb070502060306U, 0x204f8ffff01faf7U, 0xfdf80505f800fe00U, 0x5fb06ff00f8feU,
  0xff0300fafd010100U, 0xfbfffefd0405f903U, 0xf8faf8f902fb05faU, 0x307fbfdfc0006faU,
  0xfd000404fff70505U, 0x206fafefdfdf7fbU, 0xfcfdfbfaf90300f7U, 0x505fdfe01fbfaf9U,
  0x4f9fefe06fefafdU, 0x1ff03fd03050202U, 0x1fefdfffbf9fe05U, 0xfd0302fb00fbffU,
  0xf804fbfd00ff04fbU, 0xfefef9fbffff0101U, 0xfa0302050203feffU, 0xfe03fffefb00f9U,
  0xf9f900060101fcfcU, 0x503060203fff904U, 0xfdfbfe0205fc00U, 0xfc05fe0101fbfbfcU,
  0xf803f801ff000506U, 0xf7fd01f903ff06fcU, 0x5fd03fc05f9fbfdU, 0xf80402f70302fffaU,
  0xfafa01020402fdfeU, 0xf70202fcf9fe02U, 0xfa0104fb0001fefeU, 0x405fffafffd01f8U,
  0x5fafcfdfb010303U, 0x105f90300fbfefcU, 0x2f9fdfb0001ffffU, 0xfcfdfe040405f9f7U,
  0xf8fdf9fffbfcfb04U, 0xfefa040002fbf803U, 0xfd04f804fbf9fef8U, 0xf9fa01faf8fcf902U,
  0x4fe03faf904f803U, 0x4fffafe02010205U, 0x3f9ff00f9fcfcfcU, 0xf8fef70100fe0102U,
  0x1f803fdfcfb04f8U, 0x600fcfcf8fe0304U, 0x105020102fcff07U, 0x6070405ff0106ffU,
  0xfc0304fffbfcfbffU, 0xff01fa05040600fbU, 0x203fbfe060706faU, 0xfffbfbfdfd060300U,
  0xfdfb03fa02fd05ffU, 0xfaf8fb07f90402f7U, 0x104fffa0504fb02U, 0xfd07fb02f9f9feffU,
  0x102000407f90600U, 0x3020003fafa0000U, 0x10104fd040201fcU, 0xfd05fafe0502fefcU,
  0xfefbfbfe0105f902U, 0xfdfe0000fe040105U, 0xfafd0202feff0506U, 0xfeff00f7fcfd04U,
  0xfff7fefd05f801fdU, 0x4fbf9fd030100fbU, 0xfffcf90000fe07f9U, 0xfcfd000502ff02U,
  0x6fe01fd02020400U, 0x20405fd04ff05ffU, 0xf9f7030202fd00feU, 0xfc04fffefcfdfef8U,
  0xfe02ff03030004faU, 0x303fafa01fefcf9U, 0x3faf7fa01fe01f8U, 0xfdfff80303fafd00U,
  0x4fc00fe02f900f9U, 0xfd01fafbfb0202fdU, 0xf804f9000502ff00U, 0xf801fbfcfcfbf9fdU,
  0x2fa03f9f702fe04U, 0xfbfcf9f9faf9f7U, 0xf7fbf7fcfa000500U, 0xfcfd0004010002f9U,
  0xfdf8f804f8fc0403U, 0xf90100fa0005fbU, 0x5fc05ff0001fdf9U, 0xfafd0304050402feU,
  0x30104fff7f7ff05U, 0xfd04fcfbfd010500U, 0xfefbfffc03f90405U, 0xfe0005fdfa0001fbU,
  0xfbfcfffe040401f9U, 0x2fe0001f903fff8U, 0xfa00fa04ff00fa00U, 0xfe04fa06fb060105U,
  0xfc02fe020301fc04U, 0x4010600ff05f9fbU, 0xf903f906030105faU, 0xfc05060005ff05fdU,
  0xfafdfd0305fefeffU, 0x6020102fcfef902U, 0x206fa00fa04f9fbU, 0xfe03fffdfa0203fdU,
  0x4fcfb06fa01fc02U, 0x6ffff0505fb0000U, 0xfa0605010502fcfdU, 0xfcfdff0606020503U,
  0xfcff01f9fb03fcfcU, 0xfd0201fafc03f9fcU, 0x40302fdfffc0602U, 0x6fd03fafa0105fdU,
  0x702f901ff01fcfbU, 0xff020207fb0105feU, 0xfcfc04020006fa00U, 0xfcfe00fafe04faf9U,
  0x6f9fc00fb0105faU, 0xfe00020000030606U, 0x700ff01fcfdfa05U, 0x2fff800fbff01faU,
  0xfcf8fe0300f902faU, 0xfffe0100fbfaff01U, 0x200f9f9ff02fbffU, 0xfafbff0001fbfefdU,
  0xfdf9f7fcfafa01ffU, 0xfafcfefe04f8fefbU, 0x501fafaff00fffbU, 0x4fbfb0204fb01feU,
  0x1020201ff0000feU, 0xf9f8f9f70400fbfdU, 0x300f8fe000105f9U, 0x4f8f8fefffffbfcU,
  0xfaf8ff01fb01fafbU, 0xf7f800f703f9f901U, 0x2fcfaf8f7fffa03U, 0x10301f9ff0203f7U,
  0xfc00f801ff01fbfbU, 0xfdfafefbfbfb03ffU, 0xfbfefb01fdf9fb00U, 0xff04f9fdfafafbfbU,
  0x1fffdfd00fcfcf8U, 0xf8fcf9fef8f9f803U, 0xfef9f9f8fe01fefdU, 0xfc00f9fdfaf8fdffU,
  0xfafc00fbf6f6fcfdU, 0xfcf90203fa02f8f6U, 0xf6fefa00f5fbfcfeU, 0xfe00fff6f7fafffbU,
  0xfdf8fdf501fd02f8U, 0xf6f7f3fbf7fdf5f4U, 0xf9f600f6f5f6f6f8U, 0xf9fafdf9f8fafaf5U,
  0xfff6f8f7f3fefdfcU, 0xf8f4fbf7fef9f3f5U, 0xfaf4f2fcf9fefbfaU, 0xf7f5fbfdf7fdfdfaU,
  0xf4fefff9f9fcf8ffU, 0x302f7f7000200faU, 0xfcf8f7fcfffbfefeU, 0xf5fbfcf7f8f6fff5U,
  0xff0100f6fbfdfe01U, 0xfef8fe01f8f2feU, 0xfff8f6f7fbf8fcfcU, 0xfd0001fbf8030bf6U,
  0xfafa00fbfbf9fe02U, 0xf9fff9fe02faf901U, 0xf7f701f8ff01fcf6U, 0xfcf7f9f2f3fff4feU,
  0xf7f6f8f6f4fbfcf8U, 0xfcf2faf1f5fbfbf6U, 0xf5f1fcfbf9f5f1f4U, 0xf9faf8f7f0f2fdfaU,
  0xf8f1f2f5f3f7f9f4U, 0xfdfaff00f8fbf4U, 0xfbf8f6f2f2f5f7f8U, 0xfdfef5f5fcfbU,
  0xfefcf1fcf1eff3faU, 0xfbfdf3f4f8faf9fcU, 0xf8fb02f8f1fdfefcU, 0xf8f8f4f9f4fcf4f8U,
  0xfbf7f9f2ff00fcf4U, 0xfff9f4fcfafff7f7U, 0xf9fcf3fffef2fffcU, 0x4fff801fafff4ffU,
  0xfbfffcf6f700f4f7U, 0xf3fef902f8f4f0faU, 0xfbf7fdfbf2fef4faU, 0xf7f9f7000300fefaU,
  0xf3f5faf7f8fff8faU, 0xfdf600fdfbfdfd04U, 0xfcf7f7f201f5f5f4U, 0xfbf4fbfdfdf9f4faU,
  0xf9fef9fef3f5fbf6U, 0xfdfcfffdf5f8f9f7U, 0xfcf7fd01f6fdfeffU, 0x1fdf601ff00f901U,
  0xfffffef50201f6f7U, 0xf9ff01f7f900f7U, 0xf5f7f8f2f6f6f6faU, 0xf3f501fd0202f2feU,
  0xf9fbf8f8f1f0f4fcU, 0xf9fbfcf2fcff0401U, 0xfcfef5faf6f2f2f5U, 0xfbf0f1f9faeef902U,
  0xf500f9f5f8f9f1fcU, 0xf500fffdf0fff8f6U, 0x4eef9f7fc0000f4U, 0xfaf7fdfffafbfbf9U,
  0xf400fdfaf8fffbf6U, 0x5fff5fbf6f8fcf7U, 0xf3f0f9fbf3f0fefcU, 0xf5f709faf6f5f5f7U,
  0xfcfbf3f3fa04fdf0U, 0xfafef5f703f7f8f6U, 0xfbfffafbfdf7f5faU, 0xfbf4f9fcf9f9f3f5U,
  0xf8f5f1f9f4faf6f4U, 0x3faf6fa03f9fcf8U, 0xf901fafe06fe01fdU, 0xfafcf6fcfc000601U,
  0xb08f80200fbf4fbU, 0xf9030200fcf1fdf8U, 0xf4fef50202fffaf5U, 0xfff505f7fffdf8f8U,
  0xfcf2f7f8f202fb06U, 0xfa03f5f104f6fef6U, 0xfbfaf7f9f4fff3f6U, 0xf600f5fefef6f9f4U,
  0xfff901fcfd03fefeU, 0x3f8fffc0203fafdU, 0xfcf6fcfcfbf7fdfcU, 0xf6ffff00fcfc0107U,
  0xfdfcf1f80201f2f8U, 0xfdf7f7f6fafafdfcU, 0x3fff9f5f70200f8U, 0xfef5f6f2f1f7f4f9U,
  0xf2f9f8f3fafbfa00U, 0xf6f604fffefaf7feU, 0xf7fffbf600fef7f5U, 0xf7f7f7fefcf701f5U,
  0xfbfbf9f5fffaf8faU, 0xff00fcf8f7f7f6f9U, 0x2fbf4fb01f8faf7U, 0xf8fdfb01f7fef9f9U,
  0xfbf8fef6fcf601f7U, 0xf9fcf9f9fefdf400U, 0xf8fbf5fcf6ff00ffU, 0x201fb01faf6fef6U,
  0xfb01f8f9f7fdfbfbU, 0x1f9fdf6f8f6f5f5U, 0xfdfdfff9ff02f6f9U, 0xf8fc040001f1f3ffU,
  0xf4fdf9fef9fdf400U, 0xff07f5fa0102fdf7U, 0xfdf602fcfe00f902U, 0xf9f80001f7fdfeffU,
  0xf900f7f3fafdf9fbU, 0xf800f8fa00fefff9U, 0xf5f5fb01f7ff0102U, 0xfdfdfff702f1fdf7U,
  0xf8fff7f8f7f8f7f3U, 0xf8f5fafdfdfb0703U, 0xf9f802fa00fbf600U, 0xfbfdfaf7fef3f9f4U,
  0xfb01fdfbf6f5f9fbU, 0xfd01fdfdf8f7f9f6U, 0xf702fefc02f8fcfdU, 0xfdf801f9f4fbf900U,
  0x301fd00fffcf601U, 0xfaf9f7f8faf8f4U, 0xf6faf600f8faf7fcU, 0xf4fff6fffc0501f5U,
  0xf7fdf9fefdfdf4ffU, 0xf4f3fdfcfbff01f9U, 0xfbfbf9f3fefb02fbU, 0xfcf6fdf4faf3f6fcU,
  0xf6fffdfff9f8ffU, 0xf8fe00f80002f9f7U, 0xfcf5fe02fe02fcfdU, 0xf7f9fafefcfa0103U,
  0xfb01fcf8fe0400f9U, 0xf3f8f7f3fcf9f8f6U, 0xf9f6ff02fcf902f5U, 0xfcfdfaf8fdf5f6f5U,
  0xf6fdfefdf2fafdU, 0xf5f3ff03f801fef5U, 0xf400f6f6fafbf9U, 0xfbfefaf4f9fefffbU,
  0xf6f3f6fe01f4fbfbU, 0xfcfdfdfcfcfbf701U, 0xfdfbfd01f5fffe00U, 0xf7fa01fef5fbf3faU,
  0x1fffaf2fdfcfff4U, 0xf8f7f8fef9f902f7U, 0xf9040104fefdf9f5U, 0xf6fafcfb0300fbf9U,
  0xf2f7f3f6faf4f9f5U, 0xfcf2fefdf6fdff04U, 0xf5f3f4f9f4f9fffaU, 0xfcf800f1f3fdfb01U,
  0x1f9fdf6fffcf4f4U, 0xfcf6f2f803f3f5f7U, 0xfbfdfffcfffef5fcU, 0xf503f8f7f8fc02f5U,
  0x3f5f4fafe02fbf5U, 0xfefcf400f7f4f4fdU, 0xfe00f7eef8fbf9feU, 0x3fffff6fbfdf5f5U,
  0x2fbf702fdf3fff4U, 0xf7fa0201f8f6f7fbU, 0xf400f8f2f4fef5fcU, 0xf6f5fdf5f80003f0U,
  0xfaf3f7fef7f3fffaU, 0xf3f7f7f7f7fff6feU, 0xfafaf4f9fcfbf7f8U, 0xfff904f904fc09fdU,
  0xfdfbf4000a040305U, 0x6fffa0001f8fff7U, 0xf7fefff5ff01f9f9U, 0xf4f802fefcfef3U,
  0xfaf40201fb01f9f7U, 0x100fa01faf2fcf4U, 0xf3f9f6faf800fcU, 0xf900f401f801f7faU,
  0xf9fff9f2f8f9fdf8U, 0xfb0001fef8f8f4f4U, 0xfbfefffefc02f3f7U, 0xf7f9fffafef50001U,
  0x401f7fdf901faf5U, 0x2f9f5f6f6fbfdf9U, 0xf8f5fbf9fffaf4f9U, 0xf6f9fafbf3f7f3f8U,
  0xfbf9faff040200f6U, 0xfef3faf7faf4fb01U, 0xfff9f7f6fffafff9U, 0x100fd00f4f5f6f1U,
  0xf8f4fe02f6fb03fbU, 0xf6fdfdf8fb02fefaU, 0xfbf5f50200fefaf9U, 0xf6fff5fdfdfdfaf8U,
  0xf4f9fdf4fcf7fff9U, 0x30200fc00fbfef6U, 0xf8fffbfe0303faU, 0xfdfafaf903fcf4fdU,
  0xfafff6ff01f9fb02U, 0xfaf5fcf0f501fbfcU, 0xfbfb09fbf4f8f801U, 0x5fcfdfcf2f7fb02U,
  0xf8fafdfcfb00f9feU, 0xfafdfef6fafdfef7U, 0xf200f8f5fcfafeffU, 0x2fafbf802f9fcf8U,
  0xfbf1fafafdfa0401U, 0xfdfafcfdf9fdfbfaU, 0xf9fcf7fa03fdfcfbU, 0xf6ff0303fbf2f6f9U,
  0xf9f5fbfdf7fcfcfdU, 0xf5f3fc00fefcfb00U, 0xf8f7fbf6f9fbfbf9U, 0xf0fdf5f4f8ff03f8U,
  0xf6f2f4f3f6fffbf7U, 0xf6f9f3fa00f8f8faU, 0xf8f9f9f9f7f8fffaU, 0xfdfafdfdfdfdf8f1U,
  0x50405fe06fe02fdU, 0xfdf801fa0206ff07U, 0x6fefef9fdfbfa00U, 0x6fffc06fb07fd01U,
  0x3030200ff07fef9U, 0xfd020205f9fcfafcU, 0xf9fefa00fc02fafdU, 0x2f9010602fafd06U,
  0xfc0500040003fa06U, 0xfff9010105fe00fdU, 0x207fa050106fffaU, 0x3fcfb00ff0407faU,
  0x500070703fffbfdU, 0x403fb06fbfc06fdU, 0xfbfc02fbfc01fdfcU, 0xfe070300fc01fafaU,
  0x5ff0500fe020106U, 0x707fc01fb0201ffU, 0xf9fcfc02fdfefafdU, 0x4fafbfa07fbfeU,
  0xff020404fdfe0607U, 0x20602030504fbfeU, 0x20903fdfb000201U, 0x60104faf90203faU,
  0xfe07fdfe020306fcU, 0xfa020100fa01fdfcU, 0xfb02fb010102f5fbU, 0xfbf6f702fefcf7ffU,
  0xfbf3f4ff0404f701U, 0xfc01f8fafcfff8fbU, 0xf4fff7fbf6f701f7U, 0xf6fbf7fffcfffff9U,
  0x601f8f4f7fafefdU, 0xf1f7faf9f703fbfeU, 0xfbf3f9f8f2f8f8U, 0xfc01fdfbfaff05U,
  0xfefefe0002f7f9ffU, 0xfffdfcf803f1fb04U, 0xf5fffafaf9f3fbf9U, 0xfafbfdf7fefbff01U,
  0xf8f9f6f5f403f9fcU, 0x10001fef6fbfeffU, 0xf5f3fd0102f5f7f5U, 0xf7fbfcfa01fff5fbU,
  0xf4fffcff00f4f8fcU, 0xf5fcf4f3f5fe00f3U, 0xf6f6faf6f4f3f3fcU, 0xf6f7f5f9f3fafdf8U,
  0xf400fdfaf8f5f8f3U, 0xfffe0304040903faU, 0x2f3fbf70506ff00U, 0xfc05fb00000107feU,
  0xff05faf4f9f5f7f4U, 0xfbf4fbfa0303fdf9U, 0xf6f4fbfffefdfcf7U, 0xfef3fffef7fefbf7U,
  0xf3fcf9f5f7fcfafaU, 0xf801fef4fdf9f9f3U, 0xf7f8fbfdfdf2f6f7U, 0xfcf6fbfdfefefeffU,
  0xfcf9f5fcfffdf4f6U, 0xf8f4fcfffefbfbfbU, 0xf5fcf9fcf6f0fef7U, 0xf4f3f6fdfaf8fe05U,
  0xfe02faf5f3fbf3f4U, 0xfdf9f4f3fcf6faf5U, 0xf2f9f5f9f7f7f800U, 0xf7f3faeff901eff6U,
  0xf6f9f8f5f802fff2U, 0xfafefff5fdf6fffbU, 0xf9f3fdf8fef8ff01U, 0x2fffdfcf3fff3f3U,
  0xf2f3f3fef9fcfefdU, 0xf909f401fb020100U, 0xb0b05020cfef7f6U, 0xf7ff02fafc03fd02U,
  0xfef503f7faf109fcU, 0xfdf6f0fefcfafcfeU, 0xf6fc02fcf4f5f7f3U, 0xf4fdfcf500f3f5ffU,
  0x5f9f600fe05f9fcU, 0xf9fffcf6fcf1fc00U, 0xf800fc01fff804f6U, 0x4f4fdfcf6f4fbf8U,
  0xf6faf7f9fcf4fafaU, 0xff00faf4fbfefcf5U, 0xfcf9fdf3f1fd02f3U, 0xfef4fffffbfbf3f6U,
  0xf503f902fffbf9fbU, 0xfd00fcf301fd06fdU, 0xfef100f9f9f5f4f1U, 0xfd01f4f8f6f1fbfeU,
  0x6fb04fff9f2fa04U, 0xfefb04f9faf6fafaU, 0xf7ff0603f6fefcf6U, 0x2f5f8fdfcf9feU,
  0xf9f9fafc01fd0203U, 0xfafffafff900f401U, 0xf8fef7f3fdfff6f8U, 0xf8f6f6f4f6fefdf6U,
  0xf4fe00f3fdfcf5U, 0x2faf6fafa00fff6U, 0xf9fcf4fdf7faf7f4U, 0xf5fdfefbf9fdf5fbU,
  0xf3f5f6faf5f501faU, 0xf3fbf4f3fcf6f805U, 0xf50600f6fbfcfff6U, 0xfefff4f7f2fff6U,
  0xf5f4fcfcfff8fffaU, 0xfdfffbf5f4f9fbfcU, 0x1f4f7f8f7fdf4f8U, 0xf9fffd01f5fff5f5U,
  0xfc0001faf7fef700U, 0xff01f5f3f6fcf3f6U, 0xfff7f9fefcfefb00U, 0xfd000103f9f4fa00U,
  0xf9f400fef6f6fefeU, 0xf4fff8fbfd03f9fdU, 0xf900fef3f8fef6ffU, 0xf8fdf6fd01fd00faU,
  0x1fb00fffefaf9fbU, 0xff010500fc00f702U, 0xfbfafbf9fefd01faU, 0xfdff00fbf6fdfffdU,
  0x2f5fafef7fa01f9U, 0xf7fff5fefef7fafcU, 0xf5f901fa01fcfd05U, 0xf9fbf7f6f3fcf8ffU,
  0xfa02f901fdf8f8faU, 0xfef8f7fffdfff7ffU, 0x5f9fbfdf4f8fdfaU, 0xf7fffcfafe0300fcU,
  0x2fafbf7f9f9f3f9U, 0xf5f7f7f5fafbfdfdU, 0xf50300fffffcf9f6U, 0xff00fc01f9f8f8f7U,
  0xfdfafa02f9f6ffffU, 0xfefef3030202faU, 0xf9fd02fb02fffef8U, 0xf6f8ff03f6f5fef9U,
  0xfbfaf3f4fef601feU, 0xf5fafff6fefef800U, 0xfbfefdfbfdfdff09U, 0x6fefffb02fdf6f6U,
  0xfd00fdf7f9f5fbf6U, 0x2f6f807faf4f502U, 0x1f7fff8f6ff0806U, 0x203fa00fa0502fdU,
  0xfffc02fc0301ffffU, 0x304fbfd02020204U, 0xfaf5f5f6fbfef500U, 0xf7f7fefbfbf601feU,
  0xf6f6fffc00f6fafaU, 0xfe04fdf7f800fbfcU, 0xfdf4f501fbf9fffaU, 0xf302fcf9fff8f3f2U,
  0xfdfb00f7f8fcf2faU, 0xfef6f7f9f9faf6U, 0xfdf4fcf6f903f7f6U, 0xf7f6fffdf5f5fbf8U,
  0x1f8faf8f6fdf800U, 0xfef7f5fcf9fdf6f5U, 0xf403f7fff402fefdU, 0xf5f9f1fc00f601f2U,
  0xf4f8f7f6f7fc01feU, 0x401f1fdf2f1f5faU, 0xf7fbf7fbf7f7fdfbU, 0xf9f8fffef6f5fef3U,
  0xf3fdf9fafcf600f9U, 0xfaf8fff3fcf5fcfdU, 0xf9f8f3f4f6fffbfcU, 0x304f9faf900fafdU,
  0xf7fdf804fdfefbfaU, 0xff0104f8fbfb05fdU, 0xfc0000010301fd03U, 0x4fefb00fc0200feU,
  0xfbfaf7fcf9f804faU, 0xfefd010402fdf901U, 0xfef802ff040003f8U, 0xf7fff9fff9f7fe00U,
  0xfaf704040200feU, 0x1fdfbfe0004fbf7U, 0x4faf90203fffbfaU, 0x3f9030002fffdfdU,
  0xfafbf8ff0000fbfaU, 0x203ff00f7fafcfcU, 0xfefcff040003f800U, 0xfcfb00fef70100faU,
  0x4fb04f7fa0301fcU, 0xfcf8fe03fdf7f902U, 0x4f7fa020201fcfcU, 0xfefd01fbf80304U,
  0xfe01f900fefe0100U, 0xfffbfefaf9fafb04U, 0xfb01fa00fa02f902U, 0xf8fff8faf703fdf7U,
  0x20203fefb04fd01U, 0xf7fd01030203fc00U, 0x202ff02fcf90400U, 0xf9ff05fa00f7f801U,
  0xff030402fcfdfffaU, 0xfefafbfaff0005f7U, 0x100fd0102f8f8feU, 0xfffafafcfcf90200U,
  0xfaf8fef8fb040001U, 0x3f7f70104f7f9ffU, 0xfbfdfbfbfff900fdU, 0xfb04fb040203faffU,
  0xfe00fcf8ff02fe02U, 0xfcf9fafffe03fb02U, 0x102fdf9fb020403U, 0xff0104ff02f7f802U,
  0xf704fd0002050601U, 0x70501060003fdU, 0x8090800000407U, 0x2fe08010204fc03U,
  0x4f7fc04f8fd0607U, 0xff0306fdff050300U, 0x404f9fcf801feU, 0x2060106ffff01fbU,
  0xfafe0204fa010505U, 0xf8fd01f7fef9f703U, 0x302f902010404f9U, 0x4f7f904fbfaf703U,
  0xfefbf70404f9fc02U, 0xfcfcf8fffefafdf9U, 0x4fc00fafe00fdf9U, 0xfd01f7fb03f8f802U,
  0x2fb0003f9fa02fcU, 0xfdfffef70200fcfaU, 0xfefafafa000203faU, 0x301fdff000404f8U,
  0x4f8fb01f9fdfbf7U, 0xfe01f8fbf9f8f802U, 0xfa0301fafff802feU, 0xfcfd01fc04fffd00U,
  0xfb00fe02fc02fcf8U, 0x1f9f703f802fafbU, 0x1f700040004fffdU, 0xfcfd0303fc00f804U,
  0xfef9fbf70200f9ffU, 0x201f801f7f7fefbU, 0xf9fefe03fb01fcf9U, 0x30204fd00010103U,
  0x4fe0002fbfe01feU, 0x105fefa0505fe00U, 0x7050001fefb00feU, 0x4fc07fb06040207U,
  0xfd02fbfb06fc0406U, 0x6fafe010305fafcU, 0xfb01f901040006faU, 0xfc04ff02fd06fcfcU,
  0xff01fafc02ff00U, 0xfcfef7fa02fc0104U, 0xfefefd04070206ffU, 0xfb0304f9fb010403U,
  0x403010606ff06fbU, 0x105fa00fbfa0106U, 0xfc01feffff02ffU, 0xfcfbfdfaff000607U,
  0x604fc0204fffc01U, 0xfa0100fd0106fe01U, 0x4fafe0201050201U, 0xff0002fefe0704fdU,
  0xfafcfffe06fb00ffU, 0x3ff07fef904ff00U, 0x2fa05fb0701fb04U, 0xfd05070403fafafeU,
  0x20201fa0100fafbU, 0xfe01fb0002fd0300U, 0xfbfffafb020600fcU, 0x506fafffa06fcffU,
  0xfe06fd06fe060503U, 0x6fa010103020304U, 0xfffffbfb03fd0307U, 0xfa0205fc00fdff00U,
  0xfc01f9fa0100f901U, 0xfe06f9060504fcfbU, 0x50002fb0005feU, 0x50202fd03fdfa05U,
  0x6fefdfd03fbfeU, 0xfa0305030104fefdU, 0x5fefb01ff0105ffU, 0x10406fb06fd01faU,
  0x5fe02feff0106faU, 0xfefdfa02000503feU, 0x2f905faf9ffff01U, 0x40704f901010507U,
  0x4fcfa040603fafaU, 0xfdff0504fd000106U, 0x400fafd07fb0304U, 0x4060004070106ffU,
  0x2fe01fe04020403U, 0x102fc06fefe0707U, 0xfa05fe0204020503U, 0x104f8050203f8f8U,
  0xf8f704020302f9f8U, 0xf7f9fbf7fd010304U, 0xfe02fe03fb03f8f8U, 0xf8fd03fcfb05fb02U,
  0x2fafdf7f9f8f704U, 0xfffe0201fdfffffeU, 0xfc03fbfa03fe03faU, 0xf8f7fdfafd04f7ffU,
  0xfefefa02fa01fbf8U, 0xf9ff04fff90003fcU, 0xf7faf80100fe04feU, 0xf701fcfc00fffcfbU,
  0xfaf9fafbf9f905fbU, 0xf9fc00f9fd01fd01U, 0x3f9f9fafff9fe02U, 0x1fb00fdfffbfeU,
  0xfff801fbfffd0200U, 0x50300fb03fb0002U, 0xfcfcfffff801f9f7U, 0x2fff9fbf803ff03U,
  0xfbfc000302f7feU, 0x5ff02fffeff0400U, 0x200ff04fff8fe04U, 0xfe09fff9f903ff00U,
  0xfd00010402fb02fbU, 0x90603fd0301f9feU, 0x1f7fd01f9fcfbffU, 0xfd00fb02fbfbf901U,
  0x103fbfcf9fc02feU, 0x3fb0002faf9fefbU, 0xf9fcfbff0002fefdU, 0xfc0203020300fb02U,
  0xf901f8fc02feff00U, 0x303faf9fcf8U, 0x8fff901fef802fdU, 0x2f8faf8fef9fa04U,
  0xfafa000303f900f9U, 0xfdf8fffdfe010002U, 0xfefeff00fefc0203U, 0x1fa00fa04fefef8U,
  0x4fefa01f8fc0002U, 0x400fefc04fb01faU, 0xfbfdfbfffff804f8U, 0x1fef8f9f8fc00fdU,
  0xfdfbfe02fefaff01U, 0x200fefa01fb0401U, 0xfbf9f804f701feffU, 0xfd06fdff070103feU,
  0x60505fcfdff0607U, 0xfb00fc0504fd06ffU, 0xfffcfffe04fa04U, 0x10206fc0207fbffU,
  0xfb030103fcfa0104U, 0x5030502fefefdffU, 0x40604fdfc0505fcU, 0xfc01fcfafaff0106U,
  0x604ff03030705ffU, 0xf9fefb0406fefffeU, 0x405fafafdfb04U, 0xfbf902fe0304fc06U,
  0x205fffefe04feffU, 0x207fa00020406ffU, 0xfafd0207faff05faU, 0x103feff07fb0505U,
  0xfafffb000403feffU, 0xfefe0606fafe0406U, 0x5fbff0604ff03feU, 0xfefafefe02000505U,
  0xfdfc04fcfe07fc06U, 0x401030407f905fcU, 0x7fffdff0302f9fdU, 0xf7fa040304fefcfeU,
  0xfef90201f8fb0101U, 0xfefbf7f800fcfc01U, 0x1fbf9fafb000003U, 0xf70304f9fdf9fbfaU,
  0x2fdfef905fe0408U, 0x8f804fcfaf800fcU, 0xf901fefdfbfcfefdU, 0xf702fa0500f801fcU,
  0xfbfffb000203f7f8U, 0xff02f9fb01fefeffU, 0x40300fcf9fe03feU, 0xf9fb03fe000403feU,
  0xfbf900fa040004U, 0xfefafa0304f9f9fcU, 0x30300fdfafb0405U, 0x401fffa03f7fc04U,
  0xfb02fe03fbfff7fbU, 0x3fc02fafc03faffU, 0x301f8f90204feU, 0xf9fbfbfaf800fbfeU,
  0xfffbfcfafefdfbffU, 0xf90104fafe00fc03U, 0xf701fef90300f8f7U, 0xfbfcfe0303f904fcU,
  0xfffe020301ff00fbU, 0xf9fafa01fa0206fbU, 0x1fb01fdfefc01fcU, 0xfe06060603fdfffdU,
  0xfd050604fa00fd03U, 0x6ff0000fdfefffcU, 0x7fffe060305fb03U, 0x6fd05fbff010205U,
  0xfbfc05fa05fe0504U, 0xfdfa04f90303fdfdU, 0xf901fc04fcfe0301U, 0x3fb0304fb00fb05U,
  0x20704faff00fc05U, 0xfefffcfb0604faU, 0x601030103fb0203U, 0x3fbfcfa05050200U,
  0x6feff0400fffffcU, 0xf904fb05fb00fdfaU, 0xfefcfa03ff030203U, 0xfeff0202060405faU,
  0x4fa010401fc0600U, 0x401fffb06fd0504U, 0x40304fdfefafcfaU, 0x4ff01ff02070000U,
  0xfcf8f7fffdfafe02U, 0xfc04fcfff904fdU, 0xfbfafbf904fcfdU, 0x100fc00fff8fc03U,
  0x4fdfafa03010200U, 0x3fefbfcfe0004fdU, 0xfaf9fafdfb02f704U, 0x103fb04fe01fcf9U,
  0xf8fa01ff03fe03fdU, 0xf8fef9f703fff703U, 0xf8fcf8fdf8fbfffeU, 0x1fbf9fd01fef7fdU,
  0xf9fa01fdfbfe04f9U, 0xfffffe02fdfdfcfeU, 0xfff9fafff70400U, 0xfefefc02ff02faf8U,
  0xfd03030101ff0404U, 0xfefdf9020302f7ffU, 0x40104f9f902fa04U, 0x5040102fafe00fcU,
  0x4f8f9fff8fafbfbU, 0xfd04fc01fc0505U, 0xf900040304f7faf8U, 0x4f803fef70102f9U,
  0x202f7f80004fdfdU, 0x3fffd01fbf80102U, 0xfffbf9fa04fffdU, 0x104ff0004f7fe00U,
  0xfa0000fb04f7f802U, 0xf8f9fcfd00fff7f9U, 0xfafafd0204fa02fdU, 0x4f706fcf7fc00ffU,
  0xfef80304040303fcU, 0x7fcfcf801f8f7U, 0xfb02fdf8f7f904feU, 0xfdfb02fcff0203ffU,
  0x3fe03030104fbffU, 0x3fe0200f7fb01fbU, 0x5f702fffef7fcffU, 0xfbfcf8fffbfffe02U,
  0xf700fcfb0302fafcU, 0xfef80400fa0203feU, 0xfff70100030303f8U, 0xf800fff900f7fe00U,
  0xfbfbff0402fcfcffU, 0xf803fc0002f8fdfbU, 0xf8f90402fb01fefbU, 0xfc00fdfcfbfd0301U,
  0x30406020207fd09U, 0x500f8fc0405fe01U, 0x606faff03fe0104U, 0xfaf8010404f90002U,
  0x2ff020600060300U, 0x3fa0401f8fefef8U, 0x701fefef8fa0504U, 0xfcfdfe06fffb0904U,
  0x901fffc00f9fbU, 0xff00fc0001ff04U, 0xf9fe01fe08fd01f8U, 0x205fd0706fd02ffU,
  0x7000401f7f800fdU, 0x3040407f909fefdU, 0x305ffff0605fd06U, 0x200fdfdfdfc07feU,
  0xfe02fa070005feffU, 0xfbfc020403fdfdfaU, 0x303fa02fe06fffdU, 0xfafc0404090607fdU,
  0xff01fbfd06fd07fdU, 0xfffd06ff03fb0105U, 0xfcfefe060406fffeU, 0xff0006f9fe02f9U,
  0x205030604f9fffaU, 0x403fff902ff0005U, 0xf901fbf8fff8f902U, 0x104fcf9fe0003f9U,
  0x2fffdfd01ff0300U, 0xfef8f70200fdff03U, 0xfc0402fe0001fffcU, 0xff0102f9fff9fdfdU,
  0xf703fffbf704faf8U, 0xff04fbfc00fd00ffU, 0xfafefafffaf9fef8U, 0xf8f7fdfefe00fcfeU,
  0xf8fc03ff000302f7U, 0xf702f8fffcfafe02U, 0xfafe03fef7fbfb01U, 0x304fc0101fefef8U,
  0xfffd01fbfef8fc01U, 0x30504f7fcfc02faU, 0x102fc04fc0101fdU, 0x5fbfcf8fcfb0001U,
  0xf901f800f7f8fbf7U, 0xfbfffef9f7fef9fdU, 0xfbfcf8fa03fe0302U, 0xf9ff00f801fdfbffU,
  0xff01fe0103f9f8ffU, 0x100fdfefbf7f904U, 0x30004fafafe0102U, 0xf903fb070001ff02U,
  0x101030301fffafdU, 0x5f9fefd0506U, 0xfc0001f9fdfdfe02U, 0xfe02fb0501fbfafcU,
  0x5fefcf905030006U, 0x3ff0600fc070206U, 0xfcfafffafa02fdfaU, 0xfe03020006fafdU,
  0xfafb05050705fd07U, 0x106fc04ff0404faU, 0x402fd00fbfdfdU, 0x601020001fbfafdU,
  0x20707fd03fd0306U, 0xfa06060602fcfefcU, 0xfdfe030503fbff04U, 0x2fcfe0606fefa01U,
  0xfffffcfd01fbff02U, 0x6000701fbfefc00U, 0x607fafe07030702U, 0xfafffdfbfc0203ffU,
  0xff06fffc03030404U, 0x2ff0006020203fcU, 0xfafe0100fa07fa02U, 0xfefdfa0001ff02f7U,
  0x20304fffd020104U, 0xfe02fd03fefcfd00U, 0xf7fc02fbfefa0202U, 0x1f80003fcfd02faU,
  0xfb00fc03f7fa00fcU, 0x3fffffbfa0301fbU, 0xfa00fcfb0103f8U, 0xfefefbfaf9ff00fdU,
  0xfa040502ff00f7fbU, 0xf8fefcfe04fffb05U, 0x2fbfcfd0102fa00U, 0xfc0401fbfefbfa04U,
  0xfd0204fef70001f9U, 0xfefe04f8ff01fcfbU, 0xfbfdf8fbf7fafffcU, 0x2fbfdf8fa0301fdU,
  0xf9fafe00f7fefafcU, 0xf800030001fefa03U, 0xff0202f704f90002U, 0x1f8f9ff04f8fefcU,
  0xff0203f8f9f9fc04U, 0xfef9fff7f905fd00U, 0x3f702f8f705fefcU, 0xecef010c040304f7U,
  0xe9f4fae4e5dee3e2U, 0xf81114fdff08fceaU, 0x23192212f6f2f0f1U, 0xb21fbf6edefedfeU,
  0xeafd0f02f3f3f2fbU, 0xa16222a18030dffU, 0xf7090f1a1320150cU, 0xff01000b0f01eaeaU,
  0xe9ddfc291a0f0909U, 0x1d160c0ced131604U, 0xf7fde3cde8030803U, 0xf9fa12091c0d0106U,
  0xe1000b1814e1fb08U, 0xf60712130cfcfaebU, 0x8f5dfe6f3fb040fU, 0xecf6f908fa010c1cU,
  0x1a25fce6e1fa020aU, 0x1c19fcf40e0d0c14U, 0x2140513fde2f20dU, 0xe3e4ff1dfafdf1f2U,
  0xc081019080001e9U, 0xfa15fef2ddf3eb00U, 0xf7f3e8f303081805U, 0xffffcfd01070202U,
  0x40a0005faf6f3U, 0x5f3fcf90907fdU, 0x706080406fd01f6U, 0xfffd03fbefeffaf9U,
  0xfc0605f705030301U, 0xfd0205fffef6eef2U, 0xe9eef1fbf2f6f5f2U, 0x1ff0d110df7efecU,
  0xf1f6f8f7f6f00001U, 0x161315131d1d17fcU, 0x210ffafbf3000507U, 0xfc020d0f0c0e1010U,
  0x812120807fef0faU, 0xf5fa070e1b0b0709U, 0xf1b11130fff00f5U, 0xf7ecfaff080e0f19U,
  0x1c16180e05180c03U, 0xf5eff0e8f3f2ef06U, 0xf7090a100b020202U, 0xf7f5fafeeee8f1eeU,
  0xf0edfe04120cfefbU, 0xfe02f9fdfc02fbebU, 0xf5ecf2f9fffd0a07U, 0xfafc0601060201fdU,
  0xf8fe001aedeff5f5U, 0xe9f2f2eaf707f4f7U, 0xef09f8ec0019fde2U, 0x20f6ede3e0d2f9e9U,
  0x2707f509fcf5ff15U, 0xf40904ece2eaf1ecU, 0xfa092409fc161b0cU, 0x2911f9fb0f06f7edU,
  0xf2d604272700f70eU, 0xe7133d1bfb012005U, 0x14fee0ee132b0ffbU, 0xc05e6f32b170209U,
  0xb00eeefeefa2c22U, 0x11fc002605fd1b10U, 0x30e09faecefe4e3U, 0xe3e3f5fd09221d10U,
  0x1017000706f3f5f4U, 0x16f6dbe30819111cU, 0x3818f409ff010cf4U, 0xfc0df6cae60b28U,
  0xf8303f08ffffef0aU, 0x70d0e0605eed1e1U, 0xfbeef4170e0a0a0aU, 0xfb0b0406040512edU,
  0xf7031402f7fff4f0U, 0xe0608f4f6e0f100U, 0xd700f90a09110d08U, 0xfbeee60022e2ecf0U,
  0xf3f1f5f80301fbffU, 0xfaf1ecfaff223002U, 0x2011eaf20af0fff9U, 0x7fafdf4f601103bU,
  0x2121121ae0f20ffaU, 0xee01effdf7f706U, 0x241525110b0bd7f1U, 0xe6f3f3e8f9ec0304U,
  0x617031b2f091512U, 0xc1af7fde7f0f5f6U, 0xfcf4241cf4effd09U, 0xfdf61106f4e4e7edU,
  0x10deaf51c1710f9U, 0x1b020d1e29f7ede6U, 0xf1eb060cf5ec270aU, 0x25010e00f92521f2U,
  0xf3ee04d3faf1f1f5U, 0x1ef0c0022f8f41dU, 0xa1a000e05f1011fU, 0xecfb03fbfc18280cU,
  0xf01fefafbff02f8U, 0xd8f9f8fc0201050eU, 0xfefe0b0af9f5ecdeU, 0x50efcf4f304U,
  0x706110af8e2e4e7U, 0x1242e0b08f0daf1U, 0xebef04fefaf0e8edU, 0x51d3e3f0ee7efU,
  0xd4f605fc0404fafbU, 0x20d1c0a353a2b0bU, 0xcfde4f907fd0310U, 0x3080821161f0bU,
  0x10fa0b09e6e8f2f5U, 0xe9eb0703111a1510U, 0xea0510fb130bf301U, 0xfde8eafdfb030d15U,
  0x212603f0fe18180aU, 0x19fcf3eff8fcfbf4U, 0xeeff2c1715030711U, 0xf2607e5f3f20027U,
  0xf9fcf3012b0a08fdU, 0x6eef11a02e6fadcU, 0xf3dbefe6000607f1U, 0xef0520f6f20df8fbU,
  0x6fb15ecf019f905U, 0xfffff71a2203190eU, 0xfeeff9eceffb04faU, 0xe4e9070801020a00U,
  0xf4f1ecf402f0fbeeU, 0xe9ebee0400001200U, 0x3fef609f92622fbU, 0x29f0d1f0ff100afeU,
  0x3071201f9091342U, 0x312201f3d3fa140aU, 0xfdfcfa110bf9f7fdU, 0x110c21f2f9efe4f6U,
  0xeaefeaf2020d0b12U, 0x826f20d22f210fbU, 0x2511f609e9e807fdU, 0x5091f17f2050711U,
  0xf40c1004f5f5ed12U, 0x713f90b2217f3e6U, 0x10f805110ce80af8U, 0x1fe132cfd082c12U,
  0x1e000ff3113212eaU, 0xf4fdefd6ed00f8fdU, 0x8f60b0a05e7f519U, 0xfbf404fe0807091bU,
  0xf60a0effff1e2cf2U, 0x202010a060606f1U, 0xfa051c12010115U, 0x1f70ffb0002010fU,
  0xf01af8f7021028f3U, 0x1203deef04def8eeU, 0x1510f001fdfbf80eU, 0xff0c11f1efeae9eeU,
  0xec012e09edfc1916U, 0x3323f4ff16fdf0e5U, 0xe5cef41b20f7f604U, 0xfffe2d2cfa003008U,
  0x20f7eae6032701f1U, 0xf8fdffec2513f908U, 0xffff8faeeec101dU, 0xfef7f82a07f71616U,
  0x8070bfce9eee1edU, 0xf2f4faf80627140bU, 0xa1b040c0500f3eeU, 0x10fbdddf030a1915U,
  0x3414fc06ff080f00U, 0x50718fdd8ebff24U, 0xf5273908ff03ef07U, 0xfc0a18011601e5f1U,
  0x1904fd1c1ffd0403U, 0x50c09090f0017faU, 0xff140decfefbff03U, 0xf9faf6ebdfd6ffe5U,
  0xf21006f0050d1313U, 0xd9cdceefd7e5dde7U, 0xe1f5e60ff2f5f1e6U, 0xfdfbe9ee0c13f3eaU,
  0xef6010c0216f4efU, 0xff1705fce0fe1c19U, 0xfcecfdd9fc1910feU, 0xe0f41207f1d4e7e1U,
  0x30bf5eaf9d60605U, 0x907dbfde11a0a00U, 0x19f3e61516092af1U, 0x2113182304f9cd05U,
  0xdb1b0ffdd1ebf3fcU, 0xf01405e7f1fc0403U, 0xfdf6ed351507f7e3U, 0xfb1b1e2e0a000911U,
  0xeefffd02022314faU, 0xe7efeaec13fcf100U, 0xe7f2dde6f6f5f705U, 0x7eee40eefeef7eaU,
  0xeceeeffb0e0d0c11U, 0xfdfb0b0a0500fdf2U, 0x1fc0602fc04f8f6U, 0xfa0b1306fcfdf9f8U,
  0xf80b08f4f4f2f8f7U, 0x70b1305fffc02fdU, 0xd09200df0f3f0fcU, 0x71820f3fef1eefeU,
  0xf4fd0b00fef1e90aU, 0x8172e23f7e2e5U, 0xd80c0a1207101208U, 0xcfafe072e2111efU,
  0xf4e7f4ff01f1fc15U, 0xfa0d0af8090b13f8U, 0x3e1f5ecdefcf0edU, 0xe1e60a06171d0104U,
  0xed0d151e2d0306fbU, 0xe8fbe9fafe060915U, 0x1a08e9d900171803U, 0x10fb03f5f019030aU,
  0xfb021c00f9f5eefcU, 0xf3313e701fe0636U, 0x614ff0c16fafff6U, 0xffdc002cf8edf2dcU,
  0xf8f1021b06f500f0U, 0xfb1617f4e7faff0aU, 0x6f509f9040f1505U, 0x1700f9161a0901fdU,
  0xd6d4b7a6c9c4c0e4U, 0xeee907f1edede2dbU, 0xf1eef71efededcf3U, 0xeaeee2091f10ffddU,
  0xbad901cfe8e3ceffU, 0x160efabcf4dceaU, 0xcdd1807143ff400U, 0xd1ed191f0c14cffdU,
  0xe8f803eeebe11cffU, 0x17080707f6fe2a0fU, 0x17e5e3f31000f4f7U, 0x1dfc19f008100502U,
  0x1ce3050be7f2e919U, 0x1c1404f1b2f8d011U, 0xc010f10b05d6fafdU, 0xf6f8fffce305c2fbU,
  0xe3fa0306ec031901U, 0xff414041001d3f7U, 0xe9d4ecc7dccaf515U, 0xedf7e4e6ec0aedf9U,
  0x1dec0508f6f7d1dfU, 0xf5fdec02fb0b040cU, 0xd6f8220f09020f07U, 0xe7f7fce6cfb8bbbbU,
  0xfffc090cf51203ecU, 0x90e150c1003ff07U, 0xf9dcefe1eb11070fU, 0x1f815fee9dedd03U,
  0xfd181bf6d8f4fc02U, 0xf0003030604f9f7U, 0xf9f9092c1af8dcf8U, 0xcbf20f05090ffcf4U,
  0xbeef1f3191afc04U, 0xf4e9d9edfdfa0605U, 0x8fa060b14160df5U, 0x40090e06e0ebecfcU,
  0xf8eb0bfaf806fd11U, 0xf1df09081016f911U, 0xfaeefa050b081f1bU, 0x21190adde6f9fb15U,
  0x1efd0cfaf9010007U, 0x71e1519080a21U, 0xa291bea01fb0c1aU, 0xfb04f900180110eeU,
  0x18f1e605f1fbfbe1U, 0x8fffb190e021112U, 0x151f080301f904U, 0xb071209fd0b070eU,
  0xb0a030dfefa020bU, 0x40705f903f3e8f4U, 0xdf0410fb0a03f807U, 0xecd7dde5e9dde3dfU,
  0xefe2f1ed12f8dff0U, 0xebfcf1fb01fb0ff5U, 0x302e3f2f70f1401U, 0x70908fcfbe71a02U,
  0xf408eee602fef3f8U, 0xe8f4f810fbfe0f00U, 0x5fff7f8fb11eaf7U, 0x705f0ea0808f200U,
  0xfd04f7fefd291307U, 0xfc09071d01ee0b0dU, 0x31d130dfd0c10U, 0x170c1cfbfdf2f9e2U,
  0xffe8f017140b0e00U, 0x516180e21fa010eU, 0xe2eb01f5f21108f1U, 0xf6f1fbf7f70b0ef1U,
  0xfff0f4f303f80309U, 0xa05e404fb0afef8U, 0xf8f7fafbf2feff09U, 0xbfff9f8ecf7f8U,
  0xfafefe00ff08060aU, 0xebee0813fffefbfaU, 0xfdfc00f0e9f3fbfdU, 0xf30af6f7ff1a14f1U,
  0xfee7e4f1f5e805f7U, 0x211d030910000012U, 0xf905f7e5f6e6fb04U, 0xf408320afc0b2519U,
  0x351ef7f717f7ffe2U, 0xd3cffb1f03f11211U, 0xc113204f8f81df2U, 0x602f4fa132b04fdU,
  0xff16fd00260e0600U, 0x503ebf9f6e91b0bU, 0xfeaf61d110a231bU, 0x18170bf8f0f6f9f2U,
  0xfef5110d1421211bU, 0xa19070b0ef9f704U, 0xff1e1f220302d18U, 0x3aff0107f4160af7U,
  0x202fbf1d4ff1c28U, 0xf42421f306f2e5fbU, 0x20f01fc06e2f200U, 0xbfe0f140b12ffffU,
  0x30cf90604fa0a11U, 0xfb0efdef03050405U, 0x2fcf4fe0106U, 0x309f506f60407feU,
  0xe01faf30afffc01U, 0x50200effa050213U, 0xfc02f1fafc0210f8U, 0x3414fee9f4e2fd06U,
  0x705fce9f613f434U, 0x7251f12d3f300efU, 0xe1203f40ef51111U, 0xa1e27261209e908U,
  0xf90900f404020ef3U, 0x1219161010fd0315U, 0xa0aecf6f7eb03f8U, 0x6f91b2af30412f0U,
  0x12150d11f006f8dbU, 0xf9fe02fa1b1cf50aU, 0x3f9fdf72100ecfbU, 0x6f0f81df4fd2b1cU,
  0x200210040aff11deU, 0x2ed00ed110ef5fdU, 0xfc0812fc08fcfa26U, 0xfc1f010ff3dafefcU,
  0x71e090ef3ff0cf8U, 0x17f200080c03fc0aU, 0xf7f2fdf31306f10bU, 0xfafd0b090402fdfaU,
  0xeffdf6020a02f9f9U, 0xfe0a0202f9e9dfe9U, 0xea06110a0a08ffe8U, 0xd9db0401f3e2daecU,
  0xfa0409373b14fbeeU, 0xdf0009fd06f5f600U, 0x11171e1b2f3e2828U, 0xfa070018220efb08U,
  0xf90e16f804121b1aU, 0xfbdde101ef0705f5U, 0xfde6fd06231f0305U, 0xed01faf803f8e807U,
  0xf9090ae9fff10d16U, 0x221004fb000d1006U, 0x7fbebf6f6faf9edU, 0xf4f323120beff4e8U,
  0x7f9f8e8f7f8fb28U, 0xc06fb08220d0c10U, 0x7fc021ffae5fdecU, 0xead2fe09031504e4U,
  0xecfcfae3eb13e809U, 0xfb0009ebf0090104U, 0x11f8f20508ecf3feU, 0xcad1d5e3d2d0f809U,
  0xf70b18f71404f5efU, 0xd0ddff05d8e0e4eaU, 0xfaff030ef4eadbd1U, 0x6f1f1ff1519fde8U,
  0xfbea00190e1202eeU, 0xbfdfdf2d7f80f05U, 0xf9e9dee20c1300ffU, 0xf7ff1403f8dfea00U,
  0xf30cf7e3dfe5f3fbU, 0xfd040010ee081603U, 0xdfd1e0050f11fdd9U, 0xf8091316120e04f2U,
  0x151ffdeecad5ea00U, 0x1210070b130b1611U, 0x1a0a243118f2e503U, 0xf292a0a0016121bU,
  0xf6fd0113151205f5U, 0xfff9050e1b0ffdfbU, 0xfafbe9f908030102U, 0xefafa05fef3faedU,
  0x5f8f9030004070aU, 0xb09080a120c0801U, 0xfc00020e0c0d04U, 0x1c171113040804ffU,
  0x2b292823201b1e15U, 0x5030cfc02020f16U, 0x7010b151a171713U, 0x5091e21fe0c0a05U,
  0x26fc0b17282a02fbU, 0xf1d7ee0a0be7ed13U, 0xf0fcedf8130a0803U, 0xf4ebfdfe021703e9U,
  0x2a0d1df9f2fa0e0cU, 0x1f2f3031517fd00U, 0x2eb061d0206ff0bU, 0xfc0903e4edfdf506U,
  0x16faf5e5f50afbf5U, 0xf809f20b09130911U, 0x16072623f80d0d16U, 0xaff1a0d1aff0009U,
  0xf7feffe7f32a1d12U, 0xf2e1d5dce715f0fcU, 0xd0c071602e5eaf4U, 0x373b2d080b022524U,
  0x29170f0c0b03fe00U, 0xfce50e181b0c130aU, 0x1017141c241e0802U, 0xa0c16111208040cU,
  0x3fd0605fffd01U, 0xecf4f8fcfcf2f203U, 0xfb08fefbfcfaf8f4U, 0xfffaece7f1f5ff06U,
  0xf604080407fd0502U, 0x103fdf2f3f1ececU, 0xf2ebfa160e131608U, 0x1b0e0c14fffffef1U,
  0xf6f7f7f8fc101611U, 0x50a0c07040904fbU, 0x7fffdf3f8f70008U, 0x7090c181a1712U,
  0x170000f6f8f9f804U, 0xfbf9ff0100101b1eU, 0x1220150807fefef2U, 0x1fcf7fef1ff0716U,
  0x190e0a021506fffdU, 0x1104f7fa00fbf205U, 0xf900100b0d0e1c1fU, 0x7150f00f3f4f0faU,
  0xeaf8f102fbfd0910U, 0xfbf2f80d00eef0f7U, 0xfb00f2e9e9fc00f7U, 0xb010005040402U,
  0x1c1eed0ff3fffd06U, 0x1b1a0d243020161fU, 0x1ef51124f2fc0f1cU, 0xf70506fb372b30U,
  0xb2826f2101aedf7U, 0x300110ffbf5f11dU, 0xd6fc151708f60c0eU, 0x8ff0bfbf5f7ecd8U,
  0xdce1f9f7371de203U, 0x1a0e0f0103fae5e3U, 0xd1e0dcf0fff40d1eU, 0xf70f45130dfffcf6U,
  0xfbfdd4cddce9f3fcU, 0x3e60a2d1a08ebU, 0xffe30801fddef3fbU, 0xfd002506f7172009U,
  0x6f70bf50a00f2eeU, 0xfcf6ead6130ff216U, 0xe7eff4f70ff505ffU, 0x8fbeeecdccf0cf8U,
  0x230c0d05ea1025f3U, 0x27ebfbf6e401e200U, 0xed040c05210aee26U, 0xb30230a0f03e1f8U,
  0x90203000c1a2011U, 0x21c0afe06f7ebdaU, 0xfcde08fdee112809U, 0x15ea0409e80a13e4U,
  0xe6e8ffeafb030618U, 0x90e03f2f2f3f707U, 0x4f1ccf6eae5f311U, 0xf20204fdf8fed8ebU,
  0x2e41007ebfadfe2U, 0xfa03fcf8f7ebf710U, 0x1b1a1af4fd1605fdU, 0xedeae6eff8fce8f3U,
  0xdcf22c240ef4f30dU, 0xff02d6e3e6f8f8f9U, 0xf9f8f2050a2c26f9U, 0xd17f9f2d9e9e7f2U,
  0xe0daf6f4fa06fc0eU, 0xe1f51c01e7e2bbf1U, 0xdcfdf5d1f30100f1U, 0xfb00ef1522ffefecU,
  0xc00e6fe0cfdf4f4U, 0xecef11fadf0a16fdU, 0xfbf511e2e7f30614U, 0x131602f01513f101U,
  0x814221d18000c15U, 0x60f1015ffe91317U, 0xa1e211507101100U, 0x1fdf802fffd0b02U,
  0x1fcfd171bfe1519U, 0xcfaf212efe4fdedU, 0xbebfa0413290e03U, 0x6fdedf804f4d5ebU,
  0xea04d5d6f9021406U, 0x2f3e51601f40fe7U, 0x1a19f9ffe5ef0202U, 0xfff1f500161e1bffU,
  0x21ebe9100101f406U, 0xe3f4fdf9e0fc2022U, 0x212b09f2fceedae2U, 0xe3e1f6ecfa00f705U,
  0x1612f71b08f5fcffU, 0xf5e4d7eee6dffef4U, 0xf0030800e1f63222U, 0x10f3e6c8c7fde6d1U,
  0xfc00f50606f7defbU, 0xf82a1dfb0cf1eb05U, 0xed1413fff7f91101U, 0x1a00ee0efe040ffdU,
  0x1a01090f142cfbf6U, 0x3ec171ee8ff1a25U, 0x1f2f2a1b0f0f1b11U, 0x409040a0b213713U,
  0x23fc2617021904f5U, 0xfcfc0af40b1a001aU, 0x111e06f408fc0f26U, 0xcefe4fb00ee0311U,
  0x2010e0af1f7ec05U, 0xfbf924f5edfedeeaU, 0x10b03fbfaf20b17U, 0x1f1604f50f2203f9U,
  0x6faf81903f3e9f8U, 0xf3ef291709f0f30aU, 0xedf4e4dce40afcf9U, 0x3070c10241efdedU,
  0x18110bfdeaf7fef4U, 0xf6e502051c1cf921U, 0xde09220bf7dcd101U, 0xe907f0f700080ff6U,
  0x1300f11508f4e5ddU, 0x1efafb1d1523030dU, 0xfb031a1120402a1cU, 0x91014fcf8fcfa13U,
  0x202cfdf91dfdf30dU, 0x1d242d1e1a12182aU, 0x1b1f020c0602251eU, 0x1511020e3115161fU,
  0x21f4153509f80109U, 0xcf711e5eb290c07U, 0xfa172afd13220004U, 0xf8fc1408f9f4e10aU,
  0xd4f71023fded0006U, 0x2f001fdfdf6e6e3U, 0xeee0eef42719e9f9U, 0xe1604040402d0e3U,
  0xd4e3e9f3faf20b18U, 0xef00361a05f7f2f3U, 0xf7f8e2d4d8e8efffU, 0xf809dae71d0d0ae5U,
  0x1dc0a0204dbf2f4U, 0x3f7030beb0e1307U, 0xf7e603e40dfdf0f4U, 0x2f5f9dc180cf815U,
  0xf8fa02e619f20304U, 0x7fbf401e6cd180aU, 0x160e0607fc0622f8U, 0x20effcf9ee13ed05U,
  0xfdf70203180bf122U, 0xb2c1105100ee911U, 0x1f120c0d15191719U, 0x1a1f151517fbd60eU,
  0x910f3050804fdfbU, 0xeefc16041f09f8f9U, 0xf5f5feea09fb1907U, 0xf7f0e6feecfe0d0dU,
  0x4e8f9ffe8ee0705U, 0xedf2fdf2e6e5f10cU, 0xd0c1608fce7f2e8U, 0x9fad5f0080d120bU,
  0xb0e1c111828130aU, 0x15f2eeffdcf4fd0dU, 0xf0082b320af52128U, 0xfce6dfcedcf9f507U,
  0xe7f800f7101ff9fdU, 0x241a2714f5eef6e9U, 0x5dddb0306e9f036U, 0xd1f320dfef3eefaU,
  0x5160e06defddde3U, 0xf5f10914050f0debU, 0x201d322418f6d801U, 0xd6fc03fa172a1925U,
  0xfff6ef0dfcdfe2e1U, 0x915e8ebf5e7f7ffU, 0x1d14150b190a0101U, 0x1214221e07170a11U,
  0x131c29110f0c0f0cU, 0x5fd070611080b13U, 0x8ffef2428fd1713U, 0xa030b24eff013f5U,
  0x3ea0316171908efU, 0xeeedfaf6f8f1dcfcU, 0xe6e4d9e2000d0afcU, 0xfbeef50ceefb11e4U,
  0x1d05eff8f5fd0601U, 0xbf4e9fd140cf3f1U, 0x5def611f7f9fc0fU, 0xee1002f2e3f7210aU,
  0x200defd8f3f6dcf0U, 0xdfe7ef00f7fbf704U, 0x1e0601240900f9efU, 0xece6d6fcf2dd0302U,
  0x30b0f01e11e271aU, 0xcf3d2c5d5f1f1ecU, 0xfe04ff1611e6e504U, 0x17371cff0becf206U,
  0xb12070a0502120aU, 0x1e07fe13131119e8U, 0x8fe151e1c2701f5U, 0x4f5261503101416U,
  0x221e3d1e050f0507U, 0xd4f7e71b1a1d191dU, 0x242d33192515f6c2U, 0xfd08cbf0ed030626U,
  0xe90be30d06da0ee5U, 0xfcfb0dfc17060f0eU, 0xd5e5d204ddd7fd06U, 0xf1e19e9e8ebfe01U,
  0xfce5d7ee0d10f9f7U, 0xe504071b2e01020cU, 0xea0404e7f2070ff6U, 0x182eee06233b0ed3U,
  0xd906d5f2fef01203U, 0x1936e2fd08ff01e9U, 0x30215eaf704f7f1U, 0xfbe41a2dfef62bffU,
  0xd19f600fb00fe0aU, 0xf118d0d7eee4f8f5U, 0xfafa0427081effebU, 0x2013200603eed0c9U,
  0xcae6ccebe4f62e24U, 0xe6e1ea131c01dcf2U, 0xf23f1fe070feffaU, 0x16200f213d2e283eU,
  0x602fd000601171fU, 0xea03200500151c08U, 0xfd1707ee05061907U, 0x1113fd1f11fe1909U,
  0xcff10fbe302f3U, 0xf4eb0115161b04efU, 0xf9ecd7f815e9d1e6U, 0xe901eae50413220fU,
  0x4fb080bf0f62cfdU, 0x4170ffe01090601U, 0x301eff1171208ebU, 0x1dfdea0a12f7f610U,
  0xf1100a09f3ef2520U, 0xe3514faecfde3e8U, 0xedfef4fd080a0502U, 0x1b0dfc242c1d0607U,
  0xe2d0bcf1eff60406U, 0x4120300e7f0150dU, 0x10fffc01f302fa04U, 0xf1afd0e1009fd19U,
  0x112d341a160d020eU, 0xf6fefd13fbf3110cU, 0x1504edefff0305f5U, 0x1a070e14191805efU,
  0x12fd1b1d16222024U, 0xecfffb0bedf4f51fU, 0xe81222f1f20607f3U, 0xe8040a050c1deef6U,
  0xf001ebfa17ee140bU, 0xf302ebd8e401fcdeU, 0xcf0e9eee7ec1200U, 0x1cf4f9ede5fbfef8U,
  0x1202fe1ef9f6f2ebU, 0xf4f419e4fffee40bU, 0x20e180df00c0e03U, 0xfafbe2e514ddebfdU,
  0xe4fe09120cf6fefbU, 0xcf801dfd8e7fcdcU, 0x3d8e9f904080eebU, 0x2a15fffaf3e0f4e5U,
  0xf2f4fcd6ecfee500U, 0xf4f70706f3edddf0U, 0xec0508f709e70d02U, 0xf5ec180b0001f7U,
  0xa151b0312f4fff7U, 0xf5f807f8ec0e1f0aU, 0x304fd040dfcf8f8U, 0xf8020d0005080e07U,
  0x122116130e120811U, 0x80ef0fd120c0218U, 0xe1f0f8272b292c15U, 0x1beb081beff51b04U,
  0xf6fc04fd0629f800U, 0x71618fa0510e4f5U, 0xedf8fbfef8edf605U, 0xeefb1b1aeef50df7U,
  0x7e800f8caf1faf7U, 0xe5fbfa0c271df70dU, 0x200a0af7fcf9ccddU, 0xd5e7ea0807010911U,
  0xf01c371104f0f8f8U, 0xfefcfcdce2fc0915U, 0x110aeb0a2e04fbe6U, 0x5e703fafff1faf8U,
  0xfbe7261112261efcU, 0xf5e109eb04f8f9f4U, 0xf4efeadb171b0306U, 0x80c050626ecfcf5U,
  0xf9f1e7ffddf51602U, 0x1406161dfd2534f5U, 0x2e3f2f6d4efe510U, 0xdce7ebeaf9e5f526U,
  0xf1f150e010fdbe5U, 0x90c05121d1a1510U, 0x60e0b081506031bU, 0x60d0b0a0813170bU,
  0x1f0504140c05fe01U, 0x2d4edf80902f302U, 0x9281af70a05f112U, 0x611dee2faf4fb05U,
  0xfc03171f09f814f8U, 0xf6080ceedef3dde0U, 0xd9e2f7fe04fee409U, 0x31902031e0bf4fcU,
  0xf0f3eb010104edefU, 0xeaf4091a0ef30114U, 0x800e3f1e40500fcU, 0xfbfde1f11c1b13f3U,
  0xcfb04fde6eaee09U, 0xeaecfc0005120d13U, 0xf619182b06f8e2faU, 0xd0f8f6cef8f70e14U,
  0x2fdd508361aebdfU, 0xf2f6dafddbebf6fbU, 0xfef60208f81216feU, 0xfdf50af2ec0c08f5U,
  0xfcf604e7120a071fU, 0xdef6fd0100deffebU, 0x9fcfd0b08e6140bU, 0xa0d0f0d010e0000U,
  0xefbfcf6fa070206U, 0x5fced0014190b16U, 0x1e120608fbe4e903U, 0x6fffcff0b352409U,
  0xff16080b01dce9U, 0xe903dde2f8101c15U, 0xfeeedb000f0907d3U, 0x1904f9eecde4fe06U,
  0xfbfdebfa112a1417U, 0x140a0016f9eaee04U, 0xef01feeae2f01315U, 0x282203f7feffe3ebU,
  0xf8ecfb04fef2dff1U, 0x12181a0cfbf50dfbU, 0x17f8fdfdf5ecfaf5U, 0xf7e40909f6102d35U,
  0xffbe8d1d9f0e8beU, 0xdde7efe3efe3deffU, 0x11fce904fce5f6U, 0xf2170af2f7e1fe00U,
  0xcfb090efff7030bU, 0x5e1fbfc0c1303ecU, 0x4d7edfae8f30506U, 0x2b2c1d080b06f506U,
  0x1204fd0afc09f713U, 0xfe0f01062d06fa09U, 0xf3010305192517fbU, 0xf9f9e5eb041003ebU,
  0xf3dbf2e2edf61917U, 0xfd0d1102fbf4090eU, 0xff161a0b080107faU, 0xcfff4fcff1b1e21U,
  0xb0700f42f23190bU, 0xf5eff607f004f907U, 0xfa0d280805fe0b0aU, 0x5f7f5edf3091508U,
  0x402021f191202U, 0x37301d09f7fffff7U, 0xfa0efdf5f9031844U, 0xf6fd04f8dedcf7f7U,
  0x271609060904f9fbU, 0xfb13311d1921151cU, 0x191a2817fdfff70dU, 0xf7fbf70b16221b28U,
  0xf1f50604fcf9fc0dU, 0xfd17f901fbedeef7U, 0x1a12100811120403U, 0x5fbfafa0b15130dU,
  0xfafc06f9fdfefd03U, 0xfbfaff05fb03f9faU, 0xff0605020304fd01U, 0xfffd03fcfefdfbfeU,
  0xfbfefc0604fbfb04U, 0xfbf902030406fdfbU, 0xfdfc06fefffc03faU, 0xfc04faf9fa04f9U,
  0x502f80107feU, 0xfe0604fe0404fb05U, 0xfdf700000201fefdU, 0x5fbfafd02f9fe01U,
  0x4f900fffefe0000U, 0xfb06f80007fd05f8U, 0x5fd050402ff0705U, 0xfe0502f90500fffaU,
  0x401fc02fc04fefaU, 0x7fc00060003fd01U, 0xfd0301fa010301fcU, 0xfa06ff000006fd00U,
  0x3f804010205fcfcU, 0xf9fcfafe0303f8f9U, 0x3f9ff0104fefd02U, 0xfaf9fb04fcfbfaU,
  0x2fefefdfcf8fcU, 0x301f900fcfe05fbU, 0xfbfe03fffcfc03ffU, 0x301fff9030503fdU,
  0xf800fcfd01f90504U, 0x202f800fd0100f8U, 0xfffd03fdfbfb0501U, 0xfc00fc020201fa04U,
  0xfe02fbfffbfd0003U, 0xf902f8fd0102fcf9U, 0xf90404f8fff9f8faU, 0xfefff7fcfff900fbU,
  0xf9f8f801fd03f8ffU, 0xff02fd00fffcfaU, 0xfffdfafcfbfcfffeU, 0xfefdf903fbfdf9faU,
  0xfcf700f80304fd01U, 0x3f704fcfc03f8fcU, 0x103fbf7ff0001f9U, 0xfd0104fc00fe0500U,
  0x3faf7fafa020301U, 0xfef804f9f9fd0301U, 0x10403fe0405ffffU, 0x2f900fb02fb0104U,
  0xf8fcfbff03ff03fbU, 0xfffa00fafefdfdfbU, 0xfafbfc010203fe02U, 0xfafff7f70206fefaU,
  0xfefa02faf702feU, 0xfdf70604fdfbfdfeU, 0xfefa00fef903feU, 0xfffffd0401040303U,
  0x504f9fd0202fd04U, 0xf903fffe00f7fefcU, 0x1fa04fcfafffaf7U, 0x3fc03f8fcf8ff00U,
  0xf902fd0502fb01faU, 0xff0104faff00fd05U, 0x4fdf7faff04f8f8U, 0xf80203f803fe01faU,
  0xfafd0303fafc07fdU, 0x5fafcf90006f9fdU, 0xfcfdfafb020303fdU, 0xf90002f9fdf8fdfeU,
  0x400f903ff04fbfcU, 0xfff8f8fe000404fdU, 0xfd04fd040002f9fbU, 0x305010300fd04fdU,
  0x30301f902fdfdU, 0xfa040400ff010306U, 0xfc0002fc060404ffU, 0x40705fefafaffU,
  0x10406fcfb020604U, 0x20305fefdfc0501U, 0x6fafd05fc050102U, 0xfafa07fb050500feU,
  0x305fd05fdfd0407U, 0x500f7fb05fef9ffU, 0xfbfcfeff06fd0703U, 0xfcfd030400fd05feU,
  0x70106ff060304fbU, 0x303fcfe01fcfc02U, 0x103fefb06faf9feU, 0xfefb0603fb00fbffU,
  0xfafa010203fa02fcU, 0x2fc04fa06fd0401U, 0x5fafefd04030401U, 0x5fdfa01f9020405U,
  0x10404fc050505fbU, 0x10201ff0405f907U, 0x50504fd01fa01f9U, 0xff0300fc02ff0702U,
  0x5060603fd06fb04U, 0xfe05fefc06f90201U, 0xfdfefffd04fdf906U, 0x2fd05ff0206f8faU,
  0x5000303fa030401U, 0x3fe0002fa0305faU, 0x3fcfbfd0506fe02U, 0xfefefdfafb02fdfeU,
  0xfffe02fa02fcfd00U, 0xfdfb040004fd01feU, 0x3fbfafffe04ff05U, 0xfafe01fdfafb05fdU,
  0xfd07feffff070504U, 0xfffd000604020702U, 0x20205fef8fdfa05U, 0x5fc01000202fe04U,
  0xfa00020003040103U, 0xfe0402fefa03ff06U, 0xfc00ff02fcfcfefdU, 0x2f9fbf9fd0201fdU,
  0x201fc0302020106U, 0x106fc06fc0100fdU, 0xfeff0403020401faU, 0xfbfffb00fa07f904U,
  0x60104fd03fcfa06U, 0x70203fa0002U, 0x103fb00050707fcU, 0x6fb00f800ff0102U,
  0xfa06fb0005fffcf9U, 0x2fcfb06fb02fa03U, 0xfffcfbfafc0601ffU, 0x2fffa0603050406U,
