/**
  ******************************************************************************
  * @file    network_data_params.c
  * @author  AST Embedded Analytics Research Platform
  * @date    Tue Apr  9 19:51:16 2024
  * @brief   AI Tool Automatic Code Generator for Embedded NN computing
  ******************************************************************************
  * Copyright (c) 2024 STMicroelectronics.
  * All rights reserved.
  *
  * This software is licensed under terms that can be found in the LICENSE file
  * in the root directory of this software component.
  * If no LICENSE file comes with this software, it is provided AS-IS.
  ******************************************************************************
  */

#include "network_data_params.h"


/**  Activations Section  ****************************************************/
ai_handle g_network_activations_table[1 + 2] = {
  AI_HANDLE_PTR(AI_MAGIC_MARKER),
  AI_HANDLE_PTR(NULL),
  AI_HANDLE_PTR(AI_MAGIC_MARKER),
};




/**  Weights Section  ********************************************************/
AI_ALIGNED(32)
const ai_u64 s_network_weights_array_u64[82673] = {
  0x35ec442fde214304U, 0x66f2dcc3deb7fc4bU, 0x3708f060e84b5a49U, 0x7f04829acbaf91d6U,
  0x9cc3e61044d510ffU, 0x2a2860bbc38d8ed8U, 0x98ecccc4dd4817f0U, 0x438f8598a25be1bU,
  0xe23bbf311a245054U, 0xfa372605201b2412U, 0xe07b42eecbfed09U, 0xd31c4b044308deU,
  0xf004a4f915393703U, 0xc71afdf9586b6396U, 0x86afa610f1c02d3fU, 0xd7d16b46452f3427U,
  0xf081a700e090d134U, 0x49e9bb6a1208f829U, 0xfdfaa1bdfaa5c51aU, 0x2d48fee1041e1fc2U,
  0xdddee25b6d457f64U, 0x4a192e074cdebef8U, 0xb194f7da71fbe2f5U, 0xe1444ed0d924c0f7U,
  0xcd17d3bee11d06f1U, 0x7ddc44739b0bbb2U, 0xeec1dfb5cb854debU, 0x405765c04ad430f5U,
  0x1f5f2147463602e4U, 0x4a1d622560f61a2eU, 0xf14e423e0bf825e6U, 0x97f126d5e2f1738U,
  0x342ae7f04d1a00ddU, 0xf4b561f7281f5233U, 0xeb013df9dae029d0U, 0xc3f8c0605e6207e4U,
  0xd0140352dc4bf17U, 0x6e5e4650682ee918U, 0x7f67617a575e633bU, 0x5f575f1429471f57U,
  0x534b524e365b4b47U, 0x50104c1cff3b5267U, 0x235464513d3c2125U, 0x322f29fd14281441U,
  0x545a35345a272d24U, 0x8fff20620dbd10cU, 0xc3a414e17092238U, 0x1808e91a00ef4854U,
  0xf13b395c467f4b58U, 0xe73c31d7da51f3daU, 0xda35224b4b4a52feU, 0xc3e7c5f3d2dc13b7U,
  0xf6b2e6b2425b26c3U, 0xd4d2ebb7bca3eeb0U, 0xb41917a9db0be332U, 0xdf0aede4cefae1eeU,
  0x32450000fcfdU, 0xffffff0900005ea8U, 0xfffff8e6000006ddU, 0x292f4554ffffff59U,
  0x4514011f0d6e0116U, 0x4e502cd4dbed286dU, 0xcfe76c7f49f823dcU, 0xfe2009f6372648c1U,
  0x706c363b3d17f308U, 0xbbeafb4b2711c9feU, 0x53e4dd41267f44edU, 0x20196028447ee533U,
  0x14f7577c2e2d3f2dU, 0x5502225ee52be0bcU, 0x3d4719d80c65353bU, 0xd7291b26d4c7fadeU,
  0x2c28e5674d2f7013U, 0x52614934112b1456U, 0xf10d3a4d0210f9d0U, 0x1f020f0e0d5a10f4U,
  0x34e020913095d7fU, 0x33191731f3d2f8e4U, 0xc2fe0d09374cedf3U, 0x605ebcc9e4e20633U,
  0x13c4e574c173c2bU, 0x2701164d143363e5U, 0x3c46eb2df8ec4e7fU, 0xcd3a044526f7fb3eU,
  0x2fe820f00d6120dbU, 0x155f341113235d7bU, 0x3006397dc2e6edf3U, 0xe9d900dc7f6e3d4bU,
  0x162d16e2c9c31d34U, 0xe6036270261f3e0eU, 0x1ec7c2001b65151cU, 0x1d6e21faee22377eU,
  0xbde93340de390fe3U, 0xefc5f1ecf1bdfad9U, 0x90a875060b3ae8f3U, 0xec001cd16e164f7fU,
  0xabce0fa013111c2U, 0xebc64b4e51449aa7U, 0x3b1c20424af72607U, 0x221d4b650df1582bU,
  0xc4c642272326f0e2U, 0x1afb243059ff3b29U, 0x4cbfc84144001804U, 0xf31577012c7ff1bfU,
  0x71700323626035bU, 0x3aca1355ee06f7eaU, 0x2175a0210670516U, 0xd30c4542682beb2cU,
  0x6d5260f1a163ae0U, 0x49fe391b2e39ee25U, 0x193b01053828174aU, 0xf5cc08022e620f02U,
  0x29467f07fa192c5cU, 0x310285e77ebe459U, 0x19c501ef353818efU, 0x1f562ef0cadc6165U,
  0x19e4457ff331faf5U, 0x1003e4f01f6d5004U, 0x4b422d3f0c483f2bU, 0xb9ca0d732f1d1d27U,
  0x60d50f1420f4cac8U, 0xdde5724225103e6U, 0xf31a0d163e3e4142U, 0x79282a7ff62c40d1U,
  0x2626380e366e0f0eU, 0x80de307fbbdcfd9U, 0x35051427222a23c4U, 0x3bca52d6de25f922U,
  0x616e029d7f3cee50U, 0x9abb02ba5458483cU, 0xe9d6d1ccae1d4045U, 0x2cdf472a04d3cf64U,
  0xb3fed599433b0c53U, 0x4541bf13deda16efU, 0x227d5c23410c0216U, 0x6258437654043e01U,
  0x1d6e1af8bc0c3f2cU, 0xda72005459bee650U, 0x6d6f901787f38cdU, 0xf0fb64223628fb2eU,
  0x19344f5848f12909U, 0x2e3a09311d404d10U, 0x64486328073b1d3aU, 0xd1ea5125470013d5U,
  0x28cfdd221fe9490cU, 0x56de0f0f0bc617fU, 0xf745e502dfbcd0f2U, 0x5de1f0b23062800U,
  0xee4f49b2ed1b294aU, 0xd12fe25624ecbe39U, 0xfb0dc4063e581630U, 0xe2a510ade200c13U,
  0x32125664f333a38U, 0x72ffe24b17387f35U, 0xe0f97f120f6bd509U, 0x15002a5c22ef2b4fU,
  0x41cfec4aeae5230bU, 0xd70b5214f95e1731U, 0xf3cf20412ffd3cfcU, 0x3e1bd157e90207b7U,
  0x59650b23202fe503U, 0xc512507f2adcd522U, 0x3ec4c6f3424b2d09U, 0x69753dfa053d3f49U,
  0xac234c6df11bfb19U, 0x6530111ce3321cc0U, 0x457f52332408f061U, 0xfffffc1fe6281b0aU,
  0x36d000000c9U, 0x21cfffffdadU, 0xffffffe7fffffa29U, 0x2cbffffff87U,
  0xfffffda3fffffe1fU, 0x25e0000017aU, 0xfffffc88fffffddfU, 0xfef80506000003d0U,
  0x10501fcfa01fcf8U, 0x5fb0002fafffeU, 0xf6fcfb0502f8fdU, 0xfcf600f70604fafaU,
  0x2f6fd06faf80302U, 0xfe03ff01fa06fefbU, 0x40400fafbff02fcU, 0xff00fb01fffaf8U,
  0x1fe0401f90005fdU, 0x5fa03f5fa03f7ffU, 0x2fa04030005fbfaU, 0xfff8f6f605f6fd02U,
  0xfbfe06f5f9f902fdU, 0x1fdfdf9fcfefa03U, 0xf6f6fff9fe010303U, 0xfefff8f5fcfcf800U,
  0x103fef902fff505U, 0xfa04fffb00f805fcU, 0x1f5fbf6f8fbfffcU, 0xfbf50302fe05fffcU,
  0xfe07f7f500f801faU, 0x1fd0103fc04ff04U, 0x1fdfff8f9010500U, 0x1f60501fbfb02fcU,
  0xfbf702fdfafc0305U, 0x1040807fcfcf6feU, 0x601f805fbfb00fdU, 0x7fa01f7fb01f9fdU,
  0xf903fb08fd05fbfbU, 0xfcf802ff00fbfe03U, 0xf6fe00fbfdfe02f9U, 0x4f7fcf90400fc01U,
  0x4f9fc04fffa03U, 0xfa00f90103f7ff03U, 0x3020104f9faf600U, 0xfffef8fc07f9fc00U,
  0x203fbff01070401U, 0x801fe02fdfdfdfdU, 0x403fbfdfcfefdfaU, 0xfb05fd05fafcfb03U,
  0xfc0400fb060004f8U, 0xfef9fefb06f8fe04U, 0x5fdff03fd06fffdU, 0x204fe08fa00fc03U,
  0xfe070103fe0602U, 0xfd0700fdfcfe04fdU, 0xf9030005070606f7U, 0x4fef6f6ff0100ffU,
  0xfdfefcfffcfcfc05U, 0xf8010207f7fe0505U, 0x805ff0503fa0600U, 0xfffb0003ff07fafbU,
  0xf9f9fb03030600feU, 0xf7010600f902fff9U, 0xfbff01fefbfafbU, 0xf8fafefb02fbfefaU,
  0xfbfc06fff9f90204U, 0xfafbff05fbfffb06U, 0xfa0503fafdfd01fbU, 0xfe04fc06fdf905fcU,
  0xfbf701fef8fe03U, 0xfffb04fff9fa0104U, 0x2ff0202f8020703U, 0x6fbfffa04f702ffU,
  0xfe02ffff04010407U, 0xfdf9fe06fdf606faU, 0x5fb0203fc04fcffU, 0xfcfafc04fbfcfa07U,
  0xfc04fcfd02fcfdfdU, 0xfafe03f9fffbfaf7U, 0xfbfdfef9faf8fb07U, 0x705fbfbfc050406U,
  0x106fe020103fc05U, 0x7040304fef9fa02U, 0x7f802f903ff02U, 0xf9ff000203ff0508U,
  0x4fafa04fdf9fe06U, 0xfe010005040307fbU, 0x5fe08fe00fbfd04U, 0xf80304f9fefcfcfdU,
  0xfdfe03fcfc0003f9U, 0x2f9ff04f9fe01feU, 0xfc04060707ff00ffU, 0xff00fcf9f9f8fafeU,
  0x1f7fef804fe06f9U, 0x302fd0000f8fa01U, 0xfefafe02f9fe0200U, 0x3f60502f9f6f9fbU,
  0xfcfa03fbf6f8fafbU, 0xf6f7fefa01fbfffbU, 0xf7fcf9f80101fdfaU, 0x3fefafbfa0104fdU,
  0xfe00fff7f7f70100U, 0xfbfefa010202f9f7U, 0x1fbf9f802f60201U, 0xf8fafefff80102fcU,
  0xf6040402f800fd04U, 0xfdfbfcfa02fb0507U, 0xf9fcfefafafefb05U, 0x205fc000005f605U,
  0xfdfc02faf6fffc02U, 0xfcf701fcf5ff07feU, 0xfefbfcfe0000fff8U, 0xf6fe00fdfcfbfff5U,
  0xf9fefdf8fdf6fdfeU, 0xffff01fb01f8fd04U, 0xfaf6fefdf80403feU, 0xfcf6f90001f702fcU,
  0xf603f901f7f7fc05U, 0xfa04fefbfcff0403U, 0x1f902f8fb0400fcU, 0xfc0102fbff04fffbU,
  0xff0303fd01f8U, 0xfffdf6fff8020403U, 0x700ff01f803fbf9U, 0x6fcf9f9010301fcU,
  0xf700fd07fafc04fdU, 0xfafe03fc04f6f604U, 0xf9f805040207f905U, 0xfffeff05ff02f6faU,
  0x2fe03fffff600fbU, 0xfa05fffb0001f5U, 0xfffefffe02f80103U, 0xf7f6f6fa010205ffU,
  0x4f8f705f7fef502U, 0x20104f7fcf6faf6U, 0xfcf6fef5fff8fffcU, 0x602fd02ff04fe05U,
  0xf9fc07ff02fe0104U, 0xfa0100fffdfbf903U, 0x5fcfe00f9010307U, 0x6fdfefafa0202feU,
  0xf9fd05fffdfcf9fcU, 0x301fefefcfdff01U, 0xfef900fd03fcfbf9U, 0x2f9000806020406U,
  0xf906f902fc0706fdU, 0x502f9fb020305faU, 0x802fc00fefef9feU, 0xf9f9ff02fef904fcU,
  0x108fa07fa06fcfbU, 0x4fbfb0707020301U, 0x604000005ff07fdU, 0x503fff9fd010002U,
  0xfc0603fbfe070003U, 0x607fbfdfb040504U, 0xfff90105fbfcf903U, 0xfb060507fe0302f8U,
  0xfc04fb040203f800U, 0xf8fafe0703000200U, 0xfc0001f9fdfbfafeU, 0xfffaf802fa050201U,
  0x5f9fcfdfc070604U, 0x100fb0105070201U, 0xfe060400faf9fc06U, 0x5f9030306070305U,
  0x1070806ffff07fcU, 0x6ff05f900fdfe07U, 0x1fd02fdfbfeU, 0x3ff00f9fb05fe02U,
  0x203fff9f9fb02fdU, 0xfbf904ffff080307U, 0x6fe030605f902fbU, 0xf9fa05fd01fb00U,
  0x5fef9fffbffff00U, 0xfbfdfb01f90106feU, 0xfcfb0404fdf9fe02U, 0xfeff0607fcfa07feU,
  0x806fefefe04f907U, 0xfa02fc000403feU, 0x3f8f9fc04fc0708U, 0x2f90607fd02f9U,
  0x3f70604faf90203U, 0x4f907fa0504fe03U, 0x403fefd02faf6fdU, 0xfc05f900f9fafff9U,
  0xfb000000fe060602U, 0xfe0708fd0101fd07U, 0xf9fc04fa00010200U, 0xfffdfbfc0806U,
  0xf80004fc03fd02U, 0xfc0303fcfbf90704U, 0xf9fefcfcfafcfcfdU, 0xf8fd0102fd05fb08U,
  0x5fbfa0303040002U, 0xfc0304fcfefcfd03U, 0xfcfcfdfbfafe04f9U, 0xff00fa05fc000602U,
  0x102f8fef9ff03fcU, 0x40002fc04fbfc00U, 0xfaf907050104f9fcU, 0xff07faf90001f902U,
  0xfe040200fb030102U, 0xfbfd00ff060402feU, 0xfc00fcfc08060102U, 0x406ffff0003f907U,
  0xfafbfefb0607fd00U, 0x6010007fff800faU, 0xfd0108fcfb00fefcU, 0x1fe0307fdfd0102U,
  0xfffdfa0003fcfcfcU, 0xfafd050405fd01U, 0x104010506fffc01U, 0xf8f901fd00f9fcf9U,
  0xf9fdff03fdfc0407U, 0xfc04fff90100ff02U, 0x405f9f904fcfbfcU, 0x2fdf9fe06040404U,
  0x1f9fe00010202feU, 0xfa02070405fafe03U, 0xfc04010003fc06fdU, 0xfefe05ff0201fdU,
  0x3fe0800fffefd02U, 0x101fefbff01f902U, 0xfdfd010206fe0706U, 0xfcfefcfdfa01fd01U,
  0xf9fd0001f504f902U, 0x80501070104ffU, 0xf906fdfef90006fbU, 0xfa010403fd0206fcU,
  0xf9fafeff0503fafcU, 0x307fbf9fbfafbfeU, 0xf90003fbf6fefcfaU, 0x202fc01fffc0403U,
  0xfb06f9030405f9feU, 0x3ff080706fd01U, 0x2fb040108fb07fbU, 0x502f90302fbfc05U,
  0x3fffbfbf900fd02U, 0x50507fa0200ff01U, 0xff0001ffff07f605U, 0xfdfafbf905fa07f8U,
  0xfc03fc07fcfd0503U, 0xf80206010000f9fbU, 0x102fa07fcfd02faU, 0xfaff0106fefefa02U,
  0xfd0805fa03fbfc07U, 0x40104f8fbfa04f9U, 0xfb05fe04fefe0108U, 0x10003fefe0104fdU,
  0x2fbfbf900050001U, 0xfef9fc07ff04fc06U, 0xfd01050705fffefcU, 0xfe0601fc00f908f9U,
  0xfffd01080305fb07U, 0x202080402fb0703U, 0x4fd0201fbfdffffU, 0xfefefbfff902fc00U,
  0xfffb0502fe0201f9U, 0x40207fbfd0705feU, 0xfcfdfd01fa05fcffU, 0xfc01fb00030400U,
  0x703fc0307fc0300U, 0xfeff0401fdf90305U, 0xfdff03fcfef903ffU, 0xfdf60500f800f7U,
  0x103fef8fa03fff6U, 0x2fd0302fafc01ffU, 0xfef9faf8fafd02fdU, 0xf7f8fc04fef9fd04U,
  0x4fb04fe0202fc00U, 0x1f7fbf6fd0201feU, 0x3f9f804fdf704feU, 0xfa0201f8fdfd01feU,
  0x5f8f7fefcf604feU, 0xf804fcfcfaf9fafcU, 0xf6f901fc0001f6f6U, 0xfaf9fdf8fcfbfbfeU,
  0xfd0103fb00fd03U, 0xf8fc05fcf803ff05U, 0x4fdf9fcfcf7fd01U, 0x5fcf503fdf6f8ffU,
  0xff0001f501fa00f8U, 0x302f6fcf9f6fcfbU, 0xfeff03fefef9fdf6U, 0xfaf7fcf601fff5fbU,
  0xf5fbfef9f8fa0005U, 0xf8fef6020104fe04U, 0xfef6fdf6000301U, 0x4f500fb040302faU,
  0xfcfcf7fefef5ffU, 0xfc0007feff050202U, 0xf901f6faf700fa05U, 0xfafcf6f704f6fcfaU,
  0x4fef603fdfe01U, 0x4fc0303fef8f6faU, 0x1fa0303fffa03feU, 0x303f602fbf60204U,
  0x1fd05f7f7fcfd00U, 0x201fbfcf603f7faU, 0xfcf7fe02f8fff7f7U, 0xfff7fdfdfaf6f7f7U,
  0xfcf90002fdfffff9U, 0xfff904fbf7040200U, 0xfcf80204f6020500U, 0xf7ff03fb03f7f7f8U,
  0x1fa000303f8fd02U, 0xfd00f7f8fef9fd03U, 0xf60102f9f701f6feU, 0xf9fa01f7fefb0002U,
  0x1fbf7fbf6000501U, 0xfcf8fafff7f501ffU, 0xfb020202fefb05fbU, 0xfa0000fd02080200U,
  0x2060207f8fb0301U, 0xfdf905fbfafbfffdU, 0x6f600f6fa0204faU, 0xfefd03f6fcf5fd07U,
  0xfcfafe07f9f9f6U, 0x101fc0100fa0101U, 0xf90201fefff602f9U, 0xfcf90002fff901f6U,
  0xfdfafdfb00fcfa06U, 0xf8fb03fcfef8U, 0xfe000503ffff0504U, 0x4fafff900fbf600U,
  0x3f90100f703f803U, 0x603fdfbf7ff0002U, 0xfa03fff603f60502U, 0x4f5050206fd0100U,
  0xfb0002fdfffbf704U, 0x5fff604fa050406U, 0x1fcf6fdf8f60604U, 0x1fff7fc07fdfd03U,
  0x306fbfa07fb02f8U, 0xfc0607ff08fefdf7U, 0xfdf7fc02fcfff9f9U, 0xf602f803fbfc0505U,
  0xf8f5fcfcfa0101feU, 0xfafb0800fc000301U, 0xfbf8fb0800faf703U, 0xfff8f5f9fc060604U,
  0x603f8f8070700U, 0xf6040402fc02fdfeU, 0x6f9f902040403ffU, 0x6fdf9fafc01fbf7U,
  0xf902f90404fb0102U, 0xfc07fdfefbf800ffU, 0x8faff0706f9faU, 0x300f70108fe0105U,
  0xfaf5f7f9f7fbf6f7U, 0x1fafdfbf7fffcf5U, 0xfef9f7f9f8f7fffdU, 0xf6fa01f6fb03fe03U,
  0xf9fefafafe01fcfeU, 0xfff8fd04fcfd0402U, 0x4fafc00f6fdf6f8U, 0xfb00f8f9fffff801U,
  0xf7f7fdf9fdfaf6f9U, 0xf6fbf6f9fcfc0300U, 0xfdf7fa03f8fdfefcU, 0xff02f6ff04fd0004U,
  0xf5fbf6f9f602fd02U, 0xfdfd05f7f805f8fdU, 0xf8fbfdf90400fa00U, 0xf9f8fc0201fbf7ffU,
  0xf7f7f6f8fbfefc05U, 0xf9fbfc050503f9f7U, 0x3fcf7fbfd01fa02U, 0xf7fd04fd0004fbfbU,
  0xfe01fafcfc04fdfaU, 0xfbfefff90100f7f5U, 0x1fcfdf9fe0102f7U, 0xf500f80300fff8f5U,
  0xfff9f700fffaf7f9U, 0xf604fa03fff8f6ffU, 0xfdf802f704fbff02U, 0x3fdfcf6f9f5f902U,
  0xfb00f8fb0003f9fdU, 0xff020302faf6fdf5U, 0xf6fe04ff04010200U, 0x200f7fe04f5fdfcU,
  0xfffcf8fa03fbf9U, 0xf701fafffb04fa01U, 0xfcf9fc0203f9fe02U, 0xf704fb03fcf6fef8U,
  0xf9f6fbf8fbfdf7fdU, 0xfefaf8f901f6f701U, 0xfbf9fcf7fcf600f6U, 0xfffd02fa0401fa03U,
  0xfffbf6f9fefbfaU, 0xf703040100f9f9fbU, 0x2ff00f9fe0600f9U, 0x40805fcfbfa04U,
  0x3f9f9f8f90707f9U, 0x20201f7f803fa01U, 0xfefbf6f7fdfffff8U, 0xfe04f800fe000303U,
  0xff0301fdf903fbf9U, 0x3fcfa010003f905U, 0xf801000302fe04f8U, 0x3fef7f6050502f9U,
  0xf7fbfc000003fe04U, 0xfbff03fafdf9f904U, 0xfcfefafe070601fdU, 0xf90304fafc0002f6U,
  0xfcf8f903f80103U, 0xf6f7fa0303f9fa01U, 0xf904f7fcfcf6fc01U, 0xfcfd03f90506faf5U,
  0x1fc04fafdfffdU, 0x6fd01f8fafcf603U, 0xf8f90403f704f9fbU, 0x200fe0004f900f9U,
  0x3f604ff0101fdf6U, 0x10301fc04f8fbf8U, 0xf8fd0301f90000U, 0xf5f5f7f7f9fd03faU,
  0x3fcfe03fdfdfcfcU, 0x1f8f6fffbfcf6f8U, 0xf70403fc01f8ff00U, 0x3fd03f9faf8f8f7U,
  0xfc00fff901ff03fcU, 0x3f9fdfbfffd00f8U, 0xf901f7f805fbfaffU, 0xf7faf702fb03fafeU,
  0xfafdfd000000fdU, 0xf9f7ff000400fc00U, 0xf9fffb0402f70101U, 0x2fcfdfdfdfbfc05U,
  0xf9f6fff5ff02fdf9U, 0xfa08fb06fc01fdfcU, 0xfe06ff00fef702U, 0x206fefa0207fafbU,
  0x50400f8fa040008U, 0xfefd0601fd0100fbU, 0x500010304fc03U, 0xfffd0107ff03f901U,
  0xfd00070005f9fbfdU, 0x5fa01fdfb00fa00U, 0x4fd04fcff000605U, 0x1f907070400fcfeU,
  0x300000004fdff07U, 0x30606f8000500ffU, 0x702fbfbfdfc08faU, 0x60302f9050707f8U,
  0x2fcfb0607f9fef9U, 0xf906fafc01fb00f9U, 0x1fb05ff03f908fdU, 0x705fb03fb010408U,
  0x2fd01f9fdfa03f9U, 0xfb0702fb08fe07ffU, 0xf908050503fa0700U, 0x408f9f901faf9fdU,
  0x102f9fbf9080400U, 0xf9fc01010404fdfcU, 0x50603fafafeU, 0xfd04fbf9fd010302U,
  0x40706fdfcfbfafdU, 0x7030606f9050801U, 0x7fefcfbfc060506U, 0xf9fbfdfd03fcfb06U,
  0xf801fb0301080200U, 0xfef9fbf9fff80808U, 0xf90204f90306fa03U, 0x2fefdfffdf9fcfeU,
  0x3fd050703fef904U, 0x1fdfdfa03fefefdU, 0x70607ff0604fa04U, 0xfb05fefdfa05f901U,
  0x7fafb000004fa08U, 0xfefcfd06fd020606U, 0xff06ff00fb01fb05U, 0xfd060507fd070401U,
  0x6f905fcfaf90202U, 0xfe03ff060301fd02U, 0xfe03fcfc030500fdU, 0xf900fbf9ff06fe01U,
  0x202f9fc07050004U, 0xfc00030406ff07U, 0xfa04fe02fbf802f9U, 0xfcfafafdfffdf8f8U,
  0x50404ff01060305U, 0xf9fc0403fffc07fcU, 0x10200fb0107fefbU, 0xfc030001f900f803U,
  0x4f8fcfbfc0804ffU, 0x6fa0502fafafff8U, 0x501fafa00faff00U, 0x104fefa0607fd05U,
  0xfc00020004080707U, 0x102fb04fc0007faU, 0x701f9fbf80506U, 0xfa03fcfa04fdff03U,
  0xfd03fb06fc04f9f9U, 0xfefbfc04fb070403U, 0x500f9fcfc01f9U, 0x2070105f9030202U,
  0xfd01fcf90402f5f9U, 0xfe07fe0802050102U, 0x40102060204f903U, 0x4ff05f8fa01f606U,
  0x4fffd0405fe07faU, 0xff0804ff04fef7U, 0x107fbfff9fdfefdU, 0xf907fcfdfbfe0107U,
  0x6ff08050201fc01U, 0x5fd060305fbfa02U, 0x505040002fc0706U, 0xfafcfff907f9fdfcU,
  0x6ff020201ff01feU, 0xfe06fdfc0701fd03U, 0xfbfafc07010102feU, 0xfa00070202f90506U,
  0xff040505fffbfa02U, 0xfdfdfef9fe02fbfdU, 0xfdf8fefc01f90002U, 0xfcfffb03fafffaffU,
  0xfcfcf90006fd08U, 0x40300f8f8fd04ffU, 0x1fb00f7f7fbfbf9U, 0xf90304f7f7fffb01U,
  0xf806fcfcf9fb0303U, 0xfe01040205faf902U, 0xfdfdfc01f7f9fa01U, 0xfc02f9fd07fc05f9U,
  0x101fbfd05fe04f8U, 0xfafcfb01f9fb07ffU, 0x5040200fb04fffdU, 0x1fc07f8f8fb0101U,
  0xf904fffe07000104U, 0x3fefa050601fdfeU, 0x3fdfafffefa01fdU, 0xfe0207fcfbf80202U,
  0xfdfd00fefafc0004U, 0xf5fb01f700f90703U, 0x4faf6fc04fd0300U, 0xfd040307fef801fbU,
  0xfdfdfcfb0802fbf7U, 0xf70500fc03fe03fcU, 0x5fc0405fdf5f9U, 0xf803f808fcf902ffU,
  0xfcfc00f605fcfa03U, 0x20103fe00ff0101U, 0x506fafdf5ff0100U, 0xf80406fb020307fcU,
  0x2fcf504020304fdU, 0x7fefffbfd0704f7U, 0xfbfb00fefbfb0401U, 0xfd05fbfaf7f8fa04U,
  0xfe07fd06070601feU, 0xf6fffbf903fa0303U, 0xfc02fffafbfefd00U, 0x2fffc0202fafe03U,
  0x7f802f9fd00fa01U, 0xf8faf8fa03fd0403U, 0xfefa04f60100f7fbU, 0x1f7020202fafb00U,
  0xfbf6fffafa0200f7U, 0xf604fc03ff0103f7U, 0xf7fdf9f804fc03f9U, 0x4fdf7fd00fcfafdU,
  0xfb05fafcf8fff704U, 0xf9f7fc0501fc05U, 0xf8f8f7f9f9fc02U, 0x2fbfbf8f6fcf904U,
  0x205f9fc03f804fdU, 0xf900fbfcfa0105feU, 0xf7f900f70002f9fdU, 0xf805f906f6f9fcU,
  0x1f8000000fcfa01U, 0xf9fe05fd02fcfb02U, 0xfefffe05f502f8feU, 0xfcfc0304f704fa00U,
  0xf902f7fefffefbffU, 0x3fa0504faf905f8U, 0xff0200f8fef5fbfeU, 0xfff903f9f8fbfaf7U,
  0xfcf7f902f600fefeU, 0xf601f904fdfffbf5U, 0xf8fbfb01f90203fcU, 0x4f5f9f701faf7fdU,
  0xf9f8fbfb04010003U, 0x4030202fffbfff6U, 0x40103fe0103f8f9U, 0xfd010401fdff0100U,
  0xfdfe010501fffcf7U, 0xfbfafcf7f800fa00U, 0xf7fdfaf50104ff00U, 0xf9f80301fafa0403U,
  0xfdfefdfb01fef803U, 0xfbfb01f9ff00fefaU, 0x3fa02f6f7fdf505U, 0xfcfd00fafb04fefeU,
  0x4fffa03ff0000f7U, 0xf903f7fb0104fff5U, 0x302f9fef5f5f8faU, 0x2f7ffff0005ffffU,
  0xfbfdfdfaf7f9f5faU, 0xfdfafdfefe010000U, 0x7fbfafb02fc0000U, 0x100fa07faf9ff05U,
  0x5fbfe0607fcfbfcU, 0x4fc02fb04fa03fcU, 0xfcfc03fffcfbfaf9U, 0x403fafd0703fdf8U,
  0x10402fa0701fff8U, 0x106fdf904030200U, 0x8f9fafafffbfe01U, 0xf807fe07fffb01U,
  0x108fdf806fffd01U, 0x2fe0704fc02feU, 0x604ff02ff07fffaU, 0xfaf9fe01fa05ff03U,
  0xfbfb060003030300U, 0xfcfdf90801fffb03U, 0xff0005fb03f805ffU, 0xfcfafe0007f9fdfcU,
  0x3f901fe0101fe01U, 0x4ff0707010005f9U, 0xfd03fafbf90404fcU, 0xfe02f9fefafef805U,
  0x70100fa05fbfe00U, 0xfd01fe0302050200U, 0x804f907fc01fa05U, 0x2fefd0703ff0606U,
  0x7ff040501fafe05U, 0x203ff040600f9fdU, 0xfa06ffff07fc08faU, 0x5fcf908fe040403U,
  0x5f9020501fd02faU, 0xf901fa07fb000702U, 0x6f8f9fe01fa02f9U, 0x50303fb08050504U,
  0xf80605fcf801fbfbU, 0xfa05fbfe0201fa02U, 0x1040406f903fdU, 0xf901f9fe0202fe03U,
  0xfafd03fb0602fefeU, 0xfffffd02f9fefc04U, 0xfc06f907fd0607faU, 0xfafff90101fb0008U,
  0xf9fd0303fffa0201U, 0xfdff07fe0003fdf8U, 0xfd06fc04fef90500U, 0x300fb0508020607U,
  0xfef9f90505fa0205U, 0xff02fbf8fefc01U, 0x5f701fdfffdfef7U, 0x5fef50102f704f8U,
  0xfcf705f60504fff9U, 0x501fe0000000402U, 0x3fcf701f800f604U, 0x404fc05f903f6f9U,
  0xfbfa01f7fdf501faU, 0xfefdfb03fd00f802U, 0xfefb01fff8fe04f5U, 0xfaf504020403fa01U,
  0x1ff0302f8fef600U, 0x403f9fa01f6fdfbU, 0xfcf9fbfdf7f903fbU, 0xf704fa0301fe00f7U,
  0xfbf9f900fd03fcfeU, 0xf904fafe02faf6faU, 0xfcfd02fffcf9fef7U, 0xfef7fb02fd01faf7U,
  0xff0002fd02fcf6fcU, 0xf501f5f6f7fdf501U, 0x1ff02fcf6f6f700U, 0xfc0000fdfe03fef7U,
  0x1f7f7f801f6ff04U, 0xfcf7f6f6fb01f7feU, 0x301f9f700fcf502U, 0xf8ff0101fdf8f8f9U,
  0xf9f5fdf8050100fbU, 0xfdf5fdfeffff01f8U, 0xf9fff70304fef7f6U, 0xfff60201fcf904f6U,
  0xfdf6f602fdfa0501U, 0xf9fbf705fd00f5fdU, 0xf7f703ff01f5fff9U, 0x3fafb040302fbf7U,
  0x203fafefaf6fcfaU, 0xfff704f8fa03f7fdU, 0xfaf7fcf600fd04faU, 0xfa010503f8fcf702U,
  0xfffef9fafd0201fcU, 0x2f6f701f8fefef6U, 0xf504f7fcfc01faf8U, 0x1030404050203f7U,
  0xf7f6fb00f7fef9f9U, 0xfafff6fbf502fcU, 0x70000ff03fbf601U, 0xfc050a0402f80202U,
  0xfd04fe06ff00f7f7U, 0xfaf201fefe0c06f7U, 0x3fc04fdfe0708fcU, 0x8fcfa0506f9ff09U,
  0x50407fdf9f5fdU, 0x20105fe0405fb01U, 0xfe02040102fdfafbU, 0xfffcfa0507020807U,
  0x2fe01f9fb05fd04U, 0x30203070309050bU, 0xfc010000ff06fbfeU, 0x500050afb00f8fbU,
  0x1fff5fe09fbfcfbU, 0xfafd08fb04fd0b05U, 0x203f8fb040600feU, 0xfb00010500010502U,
  0xfffcfffcf9feffU, 0xf903090afcfafef8U, 0xfc0503fa01fcfbfdU, 0xfff602fb0104fd05U,
  0xfafdf9fafdf7f8feU, 0x2fbfdfe03f4fdU, 0xfd02000902f6f807U, 0x1fdfafafc01fc05U,
  0xfef7fdf9040102fcU, 0x603030205fa0006U, 0x102fb03050000faU, 0xfffa000906030809U,
  0xfef8fefd0109ff02U, 0xff010306fff6f908U, 0x4fd0201f4fe0700U, 0x704f6fb03f8fafdU,
  0xfefa01fcfcf80103U, 0xf806fefdf900fefeU, 0xf704ff00fbff03f7U, 0xfb05fb070102ffffU,
  0x300fe00ff0305fdU, 0xfd0900f8fe0303ffU, 0xfd05fd06f8f801ffU, 0xfff9fffb00fb00fcU,
  0x402fcfd01f901U, 0x1fdfcfb03f8ff02U, 0x6fe02fff6f6fa05U, 0xf700f805ffff06ffU,
  0xfdf903fb03f905feU, 0x307fbf706fa00feU, 0x302fafc030102f9U, 0xfd03fb05fc04fe01U,
  0xf6fefaf802040301U, 0xfb0306fffcf8fbfeU, 0x7fefc0100000907U, 0xf9fc0504ff010303U,
  0x100f8faf7fa0401U, 0xfdf8fbfa02040209U, 0xfcf701f5f8f90400U, 0x102ff00fffb01U,
  0x3fe06fe00f9fcfeU, 0xf6fcfeffff00f9fdU, 0xf9f801fc00040204U, 0x2faf5fdfeff09fcU,
  0x705fefe00fefa01U, 0xf9fb08fe07f5f900U, 0xf502f901fb04fb01U, 0xfbfffc0601fdf804U,
  0xfbfefe040b0302fbU, 0x301f6060300fefdU, 0xf8fdfb05fffa0403U, 0xfe04fd02fafb0600U,
  0x7030900050503fcU, 0xf7f901f8f70501fcU, 0xbf9fa03fdff0201U, 0x606fcf806fafdf9U,
  0x6f8fc00f8050705U, 0xfcf4f8f7fa06f7fcU, 0xf80402fc05030208U, 0xf9fa02f7fe0800fdU,
  0xf8f5f9fcf6f60000U, 0x804fdfa05f8f6fcU, 0xff0305fe01f5ff03U, 0x400f503fff8fd00U,
  0x3fafcf60102f8fbU, 0x4fbf8fcf6000303U, 0xfb06fb0500f8fb04U, 0xf5f4f9f8f9f6f7fdU,
  0x5f5f6fdf5f6fdfeU, 0xf906fff801f8fffdU, 0xfaf9fdfdfef5fffeU, 0x60502fdf6040503U,
  0xf9f500fb050005feU, 0xfa04ff01f7f9fcf6U, 0xfb0406f9fcfb0303U, 0xfdf6fbf5ff0405f7U,
  0x502fc0403f9fc02U, 0xf4fcf5fcf9f803faU, 0xf7f705f6fdfef804U, 0x3fdfef6f9faf8ffU,
  0xfafc0101050103f8U, 0x40200f903f9fbfeU, 0x10203f7fdfd00f5U, 0x3faf5f6f8040506U,
  0x404faf7fc040503U, 0xf903f703fe02f7f7U, 0xfa0303f7f8f5f8f4U, 0x5fcff030402fb04U,
  0x3fe0203f9fafffcU, 0xff0100fd02f606f8U, 0xf9f803fafdfefbfbU, 0x2f70202f803f901U,
  0xf5fdf80304fcfd02U, 0xf6fefdf7fcfefef9U, 0x5fa0105f6f6f705U, 0xfd02f7f8f6fffefeU,
  0x6f702ff040504f8U, 0xfcf9f60100f8fafeU, 0xfdfa040501f90400U, 0xf9fefc03ff04f6faU,
  0xfcf60300000002f9U, 0x5fd0703fef700f9U, 0xf9fdfef8f703fbfdU, 0xfbf702f80207fbffU,
  0x40104f6f7fb05ffU, 0x1fef80004fbf7fcU, 0x3fbf9ff04faf7f8U, 0xfe06fcfa0507fb06U,
  0xf8fcfbfd04fe04fdU, 0xf90307f904080308U, 0x20207f90505fa00U, 0xf90100fbf8fb0007U,
  0xf900000107f9fc00U, 0xfbfeff0201070305U, 0x1fbfc02fc000704U, 0x6faf906ff0002fdU,
  0x2fffcfb04fd0202U, 0x40701fefcfeff02U, 0xfffdf8f901070402U, 0xfbfa03fdfe020703U,
  0xfc04fc0107070003U, 0x4fe02f90201f6feU, 0xfa07fefc06fd02fbU, 0x1f900fe07ff02faU,
  0x801000207080105U, 0x1f7fa0afafd0301U, 0xfeff01fc010505fbU, 0x6fafc07050103U,
  0xfe07f9f9010305fcU, 0x1030206fc020304U, 0xfffc05fbfffa0605U, 0x8fa0006fd0206f9U,
  0x4fe080007fbfbfdU, 0x3f8faf80505fef9U, 0x601fff904fc0406U, 0xfb070200f8ff03fdU,
  0xa010604fdfe00f8U, 0xfafc01fefc03fa06U, 0xf905000706010102U, 0x30106fa0601fc03U,
  0xfb0606fafefa04f8U, 0xff030607f9fbfe01U, 0xfd04f906fd07fbfaU, 0xfffffd020102ff02U,
  0xfefc07fe08010202U, 0x102fefe02fffa05U, 0xfdfb0206030803f8U, 0x706fc04faff0005U,
  0x70503fb07fb0103U, 0xf5ff05040502f8ffU, 0xf7f804f701fcf9feU, 0xfbfdfbf9f8ff03feU,
  0xfdf40001ff03fdfaU, 0xf9fcfb00fcf902f7U, 0xf7fefbfb02fafc04U, 0x2050202fffbfcfaU,
  0x3fa07fdff06fefaU, 0xfffafbf6f8fa0401U, 0xf5fa040101f7f803U, 0x2f7fffd03030701U,
  0x5f8ff070afeff02U, 0x7fdfb05f909ff01U, 0x4fb06faff06f908U, 0x905faf607070606U,
  0x8fe0500fff8fb03U, 0x10a0afb01fb0707U, 0xfa02fcfa08fbfdfaU, 0xff06fdfefafcf9fbU,
  0x905fff4fffdff09U, 0x10306f5f601f7f8U, 0x6f7fcfefe06fafeU, 0xfc06fd0200fffb00U,
  0xfe06f701ff0609f9U, 0x1fd040605fefa00U, 0xfa0207fd05fc0205U, 0xff0600040004fdf9U,
  0xf803fdfaf8010401U, 0x7faf60afdf8U, 0xfafc0304fd020302U, 0xf80200f9f5fafa02U,
  0x2fafffdfc0204U, 0x906fbfa00fdffffU, 0x6fc03ff04fb03f9U, 0xfdfcfcfb02f80bfbU,
  0x703fe03fffef909U, 0x7ff01f90606fe03U, 0x9ff060507fc03ffU, 0x8fe04fe00fdfb04U,
  0x6fe070301010105U, 0xfefefd00fa0a0101U, 0xf90801f90502fe06U, 0xfb02f7f8fcf4fcU,
  0xff0203f9f902faffU, 0xf8fb02f9fd06f8faU, 0xfffa010002040306U, 0xfefafd010701fd07U,
  0xfcf80502fb01f9f9U, 0xfc0204030305f801U, 0x305ffff03fc06faU, 0x200fa02fefdfbf9U,
  0xfafbfafff90405f9U, 0x6fbfbfcff06fb08U, 0x106fdf9fd0006U, 0x608fa08030007feU,
  0xf801f90003fffaU, 0xfcfe0600fe000003U, 0x502ff01fd04ffU, 0x6fbfb07f9fefb03U,
  0xfdfaff04fbfef9fbU, 0xfbfffa01fdf9ff04U, 0xfdfb02f902fd00ffU, 0x8f8fe0202fef9f9U,
  0xf9fd06fbf9fbfc07U, 0x3f9f9f906030807U, 0x5fafcfdfa0600ffU, 0xfc04fbf80005f9fbU,
  0x6fcfd02fe020303U, 0x203fb05f9fa0707U, 0xf8f90302f9ff0300U, 0xfafcf80300030201U,
  0xfefcfd05f90205fbU, 0x3fbfb00ff07f8f8U, 0xfbf900fbfa02fa02U, 0x105fd0406080001U,
  0xfdf903fafc010102U, 0x20601000205fafbU, 0xfbf904040306fefcU, 0x6fefafff9fc01ffU,
  0x4fdf9fb0201fefcU, 0xfbfef902fbff03faU, 0x10104fef906f9fcU, 0x403fc050404fafaU,
  0x107fcfffe0003ffU, 0xfaf90003030401fbU, 0xf801fdfef904fff9U, 0xf5fef50306010805U,
  0x40301fe00f9fe00U, 0x7000602fc040d01U, 0x609f8fd020303fdU, 0x7f7090202fefcfcU,
  0xfd07050402050202U, 0x4020101f601fdffU, 0x302fafafefe0409U, 0xfa00fbf8fafafdf7U,
  0x3fc0dfdfefffdfeU, 0x2fff8fff6f6f7ffU, 0xfc08f9fc01fdf901U, 0xfffd03fb04fc0c0dU,
  0x3fbf905ff0500f9U, 0x10a04fef7f603f5U, 0x2050405fd07f802U, 0x1fc040403feff0aU,
  0xfc04090109faff00U, 0xf4f30103fe01ff06U, 0xf3f3010105f903f6U, 0xfe030305f8f50005U,
  0xfef7fdfe06f6fefeU, 0xfc02f9fdff000008U, 0xafd000209030a01U, 0x8010206f6fcfb03U,
  0xb00050500fb02U, 0xf60504f7fb040a01U, 0xfbfc06050a0401f9U, 0xfbf7fb05fd00feU,
  0xfe00f8040706f7U, 0x4fcfd0304fa01f7U, 0x8fe02fc0602U, 0xfefd00ff0300fbfeU,
  0x7fffc0006ff0aU, 0xfe02080705fd0709U, 0xfffe070afd000501U, 0x30106ff000afd00U,
  0x1f9fe05f9fefbU, 0x104fefafa0a040aU, 0x1fb03070001fefaU, 0x2fb0301060306U,
  0xf7f5f9f4f500f402U, 0xfa07f907fefefb00U, 0x4f903fef9f6f302U, 0xc09fe06fefb0106U,
  0xfb0401050cf4fd02U, 0x4fcfc01040709faU, 0x40304feffff0206U, 0xfe0507f9fd0a0bf8U,
  0x9fe050803fe04ffU, 0x1f6f8ff06fa0203U, 0x706020204fbfbf9U, 0x707fefdfcfe07f9U,
  0xfe0202fbf909f8fcU, 0x200fbfbff0b00U, 0x6fe02fefdfa000aU, 0xff00f901ff0706U,
  0xfc0604fe0104ffU, 0xfeff03f507010b09U, 0xfefffd010207fc06U, 0x7060007fafd0602U,
  0x70407fbf8f7fdfaU, 0x4fb0c06fc0904U, 0xff05fefa06fd03fdU, 0xfbf604fa01fcfffaU,
  0x8fdfe03fff7ffU, 0x90604fb0105fc01U, 0xf9fffff8f6f909fbU, 0x3f9fcfdfefa01fbU,
  0xfefd04fd0706fef9U, 0x1fc0903f8020003U, 0x3fefb0b02010b01U, 0x403faff04f9fcfdU,
  0xb010207ff090408U, 0x105ff0207050502U, 0xfbf90104fa01f8feU, 0x202fdff050601faU,
  0xfa05fa06f605000aU, 0x2fc0505fe0306U, 0xfbfc0301ff0002fdU, 0x3020006f9fc05U,
  0xfb06f6fc05fe06feU, 0xf505f5f80202fe02U, 0xfc0200fd010000fcU, 0x404fef70202f804U,
  0xfd05fa01fafeff01U, 0xf604fbfa04fffc04U, 0x4f703fa05fbfbfeU, 0x4f9fa01fffffffbU,
  0xfef7040102fffff7U, 0x600ffff02fe03f9U, 0x5fcfdf7f6f6f703U, 0x30603040501ff00U,
  0xf8fefd0002fd03U, 0xf7faf9fa02f80504U, 0xf80000fef9ff0502U, 0xfd0002f8f9f7f700U,
  0x2fbfaf900fdfdfbU, 0x1f6040004f90102U, 0x4f703fcfb03fa01U, 0x100fefc01f9ff00U,
  0x1f9fafefc01fdf8U, 0x2fc02050401f8fbU, 0xfd02f7f6fdfc0305U, 0xfb03fffc04fcfdffU,
  0xff04fe01fe01ff03U, 0xf7fd030605fafaffU, 0x4fe02fefaf9fe03U, 0x403f9f8fbf901fcU,
  0xf7f6010100050105U, 0xf7f6faf905f8f6f8U, 0xfff8f806fdfdf6fbU, 0xf8fe0304fffd0204U,
  0xfcfbfb03faff0202U, 0xfcf9f6fd03fb02ffU, 0x3fbfffdfbfffcfcU, 0xfbf7f900f7fe0501U,
  0x40105fbf7fa00fcU, 0xfe01fffbfc000501U, 0x1fff802f7040300U, 0x40404020100fcfdU,
  0x3fff6000504fbf6U, 0xfbfa02f8fdfafb03U, 0x4f9fd01f701fa02U, 0xfefafefff8fc04fbU,
  0x40102fefd00fcfdU, 0x2fffef6f7fc02fbU, 0xfb01fbf70200U, 0x1faf9fefefd0903U,
  0x5f5ff0000ff0209U, 0xf9050507fc09f9fdU, 0x3f6fcfc05fd0004U, 0xf9fdfd0a03fc02feU,
  0x1060902f806f4faU, 0xfe050207f7fafef9U, 0xf706000105f8fafdU, 0xf80106f8fc07fdf9U,
  0x301fdff05faff07U, 0x403fffbfe0204f7U, 0xfafe040801040004U, 0xbfb030209fb0005U,
  0x3f8fff706020304U, 0x6f80009fd05fa03U, 0xfdfdfd08fa0904faU, 0x807fb0efd010a05U,
  0xfaff09fa02f901f6U, 0xfef901000502f6ffU, 0x5fefefd06fd0009U, 0x701000302f606ffU,
  0x9fcfd04fc020affU, 0x6fc05fd00fcf8faU, 0xfe01fcfd08fd0008U, 0xfb03fb04fd02ff09U,
  0xf6080a0c0bf9fcfeU, 0xfb05f6fdf5fe01f8U, 0xfbf7040203000002U, 0x70a010101faf8U,
  0x3fa06fc09fef606U, 0x7fc09ff03fff9f7U, 0xfc00ff0df70204faU, 0x606f90b030104ffU,
  0x707fd00fb01070aU, 0x3fffdfd0209f704U, 0xff0309fe040a0409U, 0xf6fbf8ff000006ffU,
  0xfafdfe0301fbfd04U, 0xfa02f9fefe0b04ffU, 0xf804fb070307fd03U, 0x107f7ff02fef9fcU,
  0xcff0101050108ffU, 0xfe01090800000108U, 0x909fdfc0402U, 0xff05fdfd06ff04U,
  0xfe03fd09010afd0bU, 0x4ffff01ff07fefeU, 0x20405020102fbfbU, 0xfc04fd0501000601U,
  0xfd030507fc050007U, 0xfb09fefe0601fb05U, 0x4ffff020303ff05U, 0xfe02050108ffffffU,
  0x4050605090a0405U, 0xfc010708fb0600ffU, 0xbfb0603ff02ff02U, 0x402000501ff0403U,
  0xfcfb0001070806U, 0x904fffc0802faf8U, 0x80afefd06fbfbfbU, 0xfc060907fafffd00U,
  0xfcfaf907fbfdfc09U, 0xfafe0101fc0008fcU, 0x706fb03fe020606U, 0xf801010501f80705U,
  0xf80602f8f8f9f806U, 0x40506fffa040300U, 0x1f803fafd06fc04U, 0xfb00090508060204U,
  0xf8fcf90401fb0701U, 0x503fe050106f900U, 0xfa000503f9050405U, 0xfd04fc07050606faU,
  0x404060204fe0406U, 0xf9f9f803fd050701U, 0x30602fd07000401U, 0x60101fefbf8fc03U,
  0xfd0005fe0201f8faU, 0x301faf800fa03fbU, 0xfcfffdf604fa00ffU, 0xf9fdf9f7fc030402U,
  0xf704010003fdfa06U, 0x6ff04fcfc0000fdU, 0xfef802fafef901feU, 0x7fb070802fd0505U,
  0x2fc03fcf8f90a05U, 0x6fffbfc0005fefcU, 0xfffdf9fa06ff03fdU, 0xfefafa07f9fe0406U,
  0xfe08040603f802fcU, 0xfd0008fa04fe0201U, 0xfd01fb0308fe04ffU, 0xfcfc0401fb0204fdU,
  0x1070703f8fd0700U, 0x40503f9040700fbU, 0x202fefd000af704U, 0x2fe0101ff02fffcU,
  0x101ffff0304fe09U, 0x3f807f9fa01fcf9U, 0x30400f60a060501U, 0xfd07fefaff020bffU,
  0x10405fd01fa04faU, 0xfafa020802f90402U, 0x2010105fbf904U, 0x1fe0803fefffaU,
  0x5fbfafafd04fd01U, 0x60301080100fafaU, 0xfffd0303ff01fa03U, 0x603040203f900fdU,
  0x6f903f506f60808U, 0xfffefcfdff00f9ffU, 0xb0205fbfffb03fbU, 0xfa08f902fafc01f7U,
  0xf90301010306fafaU, 0x3fffb01fe07fafcU, 0xfcff02f90305fd03U, 0xfa01fdf8f8fffdfaU,
  0x607f907fc000002U, 0xf9f9fbfb01fc07f8U, 0xfd06010503f9fd01U, 0xfff902f6f9feff05U,
  0x2f5f900f8000afcU, 0x5fbfc030006ff06U, 0xfa02030800080105U, 0x60204fffaf600fdU,
  0xfcfe0202fdf8f903U, 0x5000406fb00f801U, 0x3f803fe01f9fdffU, 0xf9fdfdf90202fe06U,
  0xfeff000402fc03f9U, 0x70201fb05f9fd05U, 0xfe0004faf7fefefaU, 0x2f7020002000600U,
  0xfc0006fdff050304U, 0xfff802fd00f806fcU, 0xf7fefdf7fd01fafaU, 0x3f901010501f8fdU,
  0xfbff03fafffef802U, 0xf8fffcfc050204ffU, 0x10001fc03f804fcU, 0xfaf701fefffffafcU,
  0x6fafbfd05ff0106U, 0xfeff0200fcfefefeU, 0xf802f802fefdf602U, 0xf8fffa05fdfafd01U,
  0x101fa02fbfcfa06U, 0xfa01fe01fdff00faU, 0xf9fb04fe0006fcfeU, 0xff0203fff9fb02fbU,
  0xf7fa04fa0203fe03U, 0x2fa05fe00f904f8U, 0x302030000fefc04U, 0xfbfcfcf80100fefdU,
  0xff05f700f7fefeU, 0xf801f80506f7fffcU, 0xfbfdfff7f904fcfcU, 0x6f9f8f905010000U,
  0x3ff05fb010301f8U, 0xff0304fcf9ff00feU, 0xf9020503010600feU, 0x2fefb01fc03fcf7U,
  0xfc0406f9f8fef803U, 0xfd04f706030205f6U, 0xfefdf702fdfbfaU, 0xfdf9fdff0106fcf7U,
  0x5fcfb00fdfe04feU, 0xf7030305faf7f7f8U, 0xf8fd03fb0201fafbU, 0xfbf8f7fef6fefbf7U,
  0xfefafcfc07fa0303U, 0xf701fa0903f9f600U, 0x304fe0503f8fcf8U, 0xfa00f809f80109U,
  0x1f902ff02fe00f9U, 0xf9fef902fd03f504U, 0x1fa0201f9fdf4faU, 0xffff0006fef8U,
  0x101fc06f8fafdf7U, 0x1fbf9fafd06f800U, 0x600fdfe0805fcf9U, 0xf90502020001fa04U,
  0x20cf7fcf9f7ffffU, 0x80a0405ff0001ffU, 0x60a03fdf803f702U, 0xfcfc02020af6fcU,
  0xfafb0302ff020400U, 0x3f808fd0101f8fbU, 0xff0805fbf8fff605U, 0xfd020dff050bfd01U,
  0x90807ff0bfdf302U, 0xa05fcfa01ff05fdU, 0xfdf704f907fb00U, 0xfb01fa00090200fdU,
  0xfef5f502f9ff07ffU, 0xfaf805f804f700faU, 0x3fef4f702ff0301U, 0xfaf5f5f9f60207fdU,
  0x801000705fdfbf9U, 0x2ff030603fbfd00U, 0xf701f9fefcfdf807U, 0x90a02f6fefd0002U,
  0xf900fa020102fcfeU, 0xf6fcfe060104ff00U, 0x3fb0002fe050601U, 0xf9fbf701080303fdU,
  0xf7fffbf7fdf9f503U, 0xf9faff04f600f502U, 0xfefdfa0301fafffaU, 0xf7f503f5f3fcfefeU,
  0x30104fd0302fbffU, 0xf9fbfd0000fd0bffU, 0xfa02fc030601fffcU, 0xfbfb04f8fa030301U,
  0x105faff0104fffbU, 0xfb03f902fc0704faU, 0xfefc030500fefaf9U, 0xfd00fd0102fd02ffU,
  0xfa03fb0307ff02f9U, 0xfd00fd00fb04f9fcU, 0xfefd0607fb03fefaU, 0x2fd08fc0402f8faU,
  0x508faf9fd070202U, 0xfd0403f9060304fdU, 0x302ffff03fd05fdU, 0xfafbfbf908f8fb01U,
  0x203fb0707fafcfeU, 0x302fdfffeff07fdU, 0x4fb00fffd06fd06U, 0x5030005fb04f9fcU,
  0xfb03050301fa03U, 0xfafc00060304fafeU, 0x4fc000707fdffU, 0xf9fcfbfc00fb07f8U,
  0x405fc06ff05fbfaU, 0xfdfd02f806fafffdU, 0x2fc07f90200ff00U, 0xfefc01ff06fcf805U,
  0xfc00fc02fefd0005U, 0xfcfc0703f8fffcfaU, 0xfcfefefbfc07fbfdU, 0xfb0307fe0705fe07U,
  0xfbfc04080702fe03U, 0xfdf8fa06fafa0603U, 0xfefdfffafff90303U, 0x601feff03fbf908U,
  0x10506fc0008fd01U, 0xff000104f9040300U, 0xfa02060802fdfdffU, 0x70101fbfafefa04U,
  0xff08fdf8f9fa0404U, 0x5fb06fbfb060702U, 0xf80505fdfa040707U, 0xfe0301fc0408faf9U,
  0x602ff03ff04fefeU, 0xfaf70104fcfafc02U, 0xfcfa04f7f8fc02f8U, 0x501f9f6fbf8fff7U,
  0xfcfcf9ff00fcfdffU, 0xfbfefffb0107fd04U, 0xf90006fd02fa01ffU, 0x203fefff80102fcU,
  0xfd03f904fd00fffeU, 0xfd02fafcf9f8fdf6U, 0xfa0602fefbfcfcf7U, 0xfbf800fb0203fafbU,
  0x3fe0101000601f8U, 0x50400020004faU, 0xfff9fd02fe03fc02U, 0x4fd00f903fafeU,
  0xf7f7f7fefdf8fe05U, 0x1fbfdf80203fa04U, 0xfefd04f7f7f7fe02U, 0xfffafffa0202fafcU,
  0xfff704fa06050503U, 0x50001fd0002f6f9U, 0xfe00fdfbfb030300U, 0xf9050203fbfef6f8U,
  0xfbff04fdfd01fa02U, 0xfff7fff8fcf706f9U, 0xf9fe01f80405fff9U, 0xfb02050100f6fc02U,
  0x3fd010300fb0303U, 0x1fcf8fa06f802f8U, 0xf7faf9fafe0406U, 0xfdff01020206fe03U,
  0xfffe0200fafd05f6U, 0xfdf90406fbf7f701U, 0x5040401fdfc03f6U, 0x3f90604feff0304U,
  0xfcfefffbfcf8fcf8U, 0x104fc00f9f905faU, 0xfd010004f9050202U, 0x403ff0004fc0500U,
  0xfcfe01fdfb0100faU, 0x3f9fffffcfd0506U, 0xff00fdf9fefffe05U, 0xf9f7fd00fc04f7fdU,
  0xfef80403fd0501fbU, 0x2fd000a0b08U, 0xa00fcf8fb000103U, 0x2f607060201ff00U,
  0xf8040202fdf9fd01U, 0x4fefcf4030205fbU, 0xfcfffa00fffbfc06U, 0x1fb0407faf4fcU,
  0x1fafbfc01010300U, 0xa0afff5f904f806U, 0x70a05fa01fe01ffU, 0xff0500030703fe02U,
  0xfefafafef8fe00f7U, 0xfd02f7f9f4f6fefcU, 0xfe00fbf7f8fbf803U, 0xfd0202fcfd06fe03U,
  0x2f9fe0704fafb01U, 0xf6fefef6fd0bfcfcU, 0x6f7fbf9fbfb04fbU, 0xfa0204fdf9f9f7f7U,
  0xf904ff0401ff0402U, 0x4fc04fe00f80807U, 0xf501f4f904fc0300U, 0xf9ff03fa04ff07fcU,
  0xf8fc04fafdf9faf7U, 0x4f8fd01f8fbf301U, 0xff02feff01f801f4U, 0xfa08f7020bf5fb05U,
  0xfdfefc00000204faU, 0x406fdfaf9fd0204U, 0xfbfefdfdf809f904U, 0x3f7f9f804fc0000U,
  0x4f7fa06040003ffU, 0xfdfa08fdfefafdf9U, 0xfb0203f80303f504U, 0x3f700fd08fc02feU,
  0xfb02f5f6f9fd03f9U, 0xf70700fc05f90002U, 0xf50bfa0201f9fef6U, 0xf7fd05030305fe01U,
  0x5f702fcf8fdfa00U, 0x1030809010201feU, 0xfafbfb050604fa06U, 0x101fb01f8f9faf6U,
  0x4fcf8fbfa01fb06U, 0x7fe02fbfc0401f6U, 0xfefdfe0506fcfbfbU, 0x20106fe030306feU,
  0xfafc0303f704fffcU, 0xfffafb0500f901f8U, 0x403fbfcfefcfd04U, 0x502fdf906000400U,
  0xfbfffa06fefa01U, 0x603ff0305f8f8faU, 0xfafc06fdfc0702fcU, 0xfffefa070401fc01U,
  0xf9fe02f8070402fbU, 0xfafef606fffefe01U, 0xfa02060006fafef9U, 0xfc02fdf7fc05f802U,
  0xfe0704070205fbffU, 0x401f9f8f9fdfb01U, 0x30202fcfe000401U, 0xfc03fbfcfefdfcfbU,
  0x30004fd03fafaf8U, 0xfdf903fffa00fa06U, 0xfbfefefdff030403U, 0xfafdfd06030307f7U,
  0xfc06fe0401fbfafaU, 0xfbf70401000500fcU, 0x6fdfeff01040504U, 0x107f7fbfe07fefeU,
  0x2fb05050003fff8U, 0x6fb05f901000501U, 0xfd080006f9fb00U, 0xf705fff804fef8fdU,
  0xfb030803f900fa01U, 0x402fcfd01faf902U, 0x4f9fffafdfc0201U, 0x703fb0204fffd06U,
  0xfd03fa020303f807U, 0xf90000fc02ff04faU, 0xfd0504f9fcff05fbU, 0x6f603000103ff07U,
  0x3fe0402fbfb05U, 0xfcfafaf8fafc0403U, 0xfefaf9fcff00fd03U, 0x700fb02ff02f900U,
  0xf90104fc060001faU, 0xff0406f90104fe04U, 0x50100fbfdfc0808U, 0x6f70304ff02fa06U,
  0xfc050603fcfff800U, 0x705040602030301U, 0xfb00fff906fcfa05U, 0x5fd06fc04fafff9U,
  0x3f907f90603fffdU, 0xf8ff0104030201ffU, 0x1020301fe000406U, 0xfafa010105fafefcU,
  0xfcfd03fd06ff04faU, 0x6fd05f7f8f9f9f9U, 0x70106fd080105f8U, 0xfcfe0505fa02f801U,
  0xfa0206f9fb020506U, 0xfa0503fa0106fff7U, 0x6fc00fa04ff06f9U, 0x4f9f90006ff02ffU,
  0xfbfc01fd07f9fdfaU, 0x207ff0103050000U, 0x3fb0605fefd0205U, 0xfd0100fa06f9fa01U,
  0x40305fffb01fe00U, 0xfff9fbf70603f9feU, 0x1ff02020206f900U, 0xfd0007fb0207fe01U,
  0x30106030306fa07U, 0x10504fa06fa06fcU, 0x5fc06030006fdfcU, 0xfffe0100fffc07U,
  0xfa05000100fffbfbU, 0xf7fb03fe01040403U, 0xf8f8fd03fd05fd00U, 0x5fefbfd01fef9faU,
  0x50000fd04fafc00U, 0x8fb04030403f8ffU, 0xfa06060604080002U, 0x2fe00fb00fe0700U,
  0xfcfa07fe030401U, 0x3fd020301030701U, 0x203fbfe03030400U, 0xfafc08f905feU,
  0xf9ff020303f90607U, 0xff0301fe08fd0806U, 0x400fffafdfef9fdU, 0x70306fa07020101U,
  0xf807f9f9fef801fdU, 0xfc01fc0202fa00U, 0x4faf503fffdfefaU, 0x7fef506f8fdffffU,
  0x40001fa07070105U, 0x5fa07f90103fb07U, 0xfb04f802feff02f9U, 0xfb05fb05fafd05ffU,
  0xfc0103f9f8030702U, 0xfc000405fa00ffU, 0x3f907fcfbfefafeU, 0xff02fb05fffff806U,
  0xff02fa05fcf7fd03U, 0xfd04f80107f8fe01U, 0x107fdfe0606fefdU, 0x4fc01fafe0005fdU,
  0x3f9020607fefc04U, 0xfafe07fd070205ffU, 0xfc07fe0301010103U, 0xf90405fff5fd0100U,
  0xfb0008fbfb060201U, 0xfefa0206f9ff0600U, 0xfefafdff02fe0102U, 0x307f905f6fc02ffU,
  0x10505fd03faf9fdU, 0x4030701040700feU, 0xf9fd020304000206U, 0xfd05fd07040405fdU,
  0x7070100fcff0407U, 0x6fdfefa040305U, 0xf8fd02fc03ff0702U, 0xfe06000501ff06ffU,
  0x704fdfbfefa0605U, 0xf9fcf9fe0501fefaU, 0x6f3f8f7f5fdf701U, 0xfcf5fa0105feff00U,
  0xfe07fb06fffff5f9U, 0x2fd03fcfe02fafdU, 0xf900060104fdf9U, 0xf6030001fefdf506U,
  0xf904fff8f504fbf7U, 0xfbfefff6f705fcfaU, 0x106fefcf5fdf5fdU, 0xf6f7f600fffeff00U,
  0xf8fd03fdf5f802f7U, 0xf4f7fa00fcf2f204U, 0x3000204f7faf6fbU, 0xf9000101f9faf502U,
  0xfefb01fe06fb03faU, 0xfffefb0101020102U, 0xf802fbfafbfb03fbU, 0xf602f7f4fffb0200U,
  0x201f5f8f2fbfef7U, 0xfbf5f8fcf600f9f7U, 0x600f7fdf9f6f3fdU, 0x202fc02f7f6f7f9U,
  0xfffc02fbfa02faf8U, 0x301fbf804f903fbU, 0xf4f2f6faf7f6fd03U, 0xf902f8fa00f201fdU,
  0xfd00fa04fefaU, 0xfcfffdf905f9f8f8U, 0xf305fff7f8f9fbf5U, 0xfef5f5f6fffdf5faU,
  0xf502f3fffd00f503U, 0x3f70100000301f5U, 0xf5fc07fdfd02f7fbU, 0xfff8f8f5f6fe03feU,
  0xfdfaf7ff00000004U, 0xf6f4f9f902f6fbfaU, 0x3fb04f5fff800U, 0x202ff0102f500fdU,
  0xfbf504fbfffe00feU, 0xfefe07fd0301ffU, 0xfffcfe06fbfcfeffU, 0x8fefefff9ff03U,
  0xfafbfdfbff0406fcU, 0x30706010705f908U, 0xfa03fd000607fc03U, 0x608faf9040504ffU,
  0xfefafc040606fa00U, 0xf80205f9fffaff03U, 0x5fafc02fb050408U, 0x2080307ff06fb02U,
  0xfffe0207f905fbfbU, 0x1ff010004fbfbfcU, 0x208fefafe0003f9U, 0x4030605fb06fafaU,
  0xfb040005fdfbfbffU, 0xfc04fefc05fc00fdU, 0x7f905f8fe04f9fdU, 0xfefefafb06fffd03U,
  0xfcfb0703000406U, 0xfb05f805f8fafa08U, 0xfbfe010605fd02fcU, 0x501fb0808fd0307U,
  0xfbfc030400f900fdU, 0xfbfe00030600fcfaU, 0xfdfe03020700f903U, 0xfafcfffafa0706f8U,
  0x6f9fd0105010501U, 0x506fbfa0201fb07U, 0xf9fafafafd000404U, 0x5f9f904fffafc00U,
  0xfef906070000fcfdU, 0xfb0000fc00fbfef9U, 0x4fb02f9fafe05f8U, 0x804fd0208020006U,
  0x30708fe07f9fd01U, 0x600fdf9f80604fcU, 0x7fb01fd00010205U, 0xf9fffffcf9fc07U,
  0x6fa02fd00fbffU, 0x6fa0106fa0307ffU, 0xfc0001ff040702U, 0x5fafc0103010706U,
  0xf904fa05f90603faU, 0x406fd020606f901U, 0xfdf9fff801fa03fbU, 0x4fb0500fb020208U,
  0xfbff04fefbfaf9f8U, 0xc0d0a06fefefdf6U, 0x3030702fcfd0bffU, 0xf8f50003fffd0300U,
  0xf7fc0903fe030805U, 0xff09070207000003U, 0xf804f8fafcfef700U, 0x701f5f9010bf5fbU,
  0xfdfe03fb05fdfef6U, 0x4fcfbfaf5fa02feU, 0x101000203fe00f7U, 0x7fb04f5fc04f5f6U,
  0xfc04fc00f9f705fdU, 0x205fc00f9f9fff3U, 0x6fb02fc00f60803U, 0xf601fd030203fbfaU,
  0xf605fffe0204fd01U, 0x102020808f905U, 0x401fefaff090afcU, 0xfd02f5fbf40105f8U,
  0xf60a09fe00f802f6U, 0xf7fefc04fbfc03f7U, 0xfafdfb09090b05f6U, 0x2f4fa01000902fbU,
  0x20001fc02f906fcU, 0xf70a04fd01fdfbf9U, 0xfd07fa02f809f8U, 0xf7fef7060102fdfcU,
  0x6fafdfff7060cf4U, 0x406fe070c00fa03U, 0xfb0706fd000004feU, 0xa07fc01040109fdU,
  0x3fbfc04000400fbU, 0xf90402ff060303ffU, 0xfc03fefd06fe05feU, 0x1fffe0af8fe0601U,
  0xfdfbf8fbf601f8U, 0xf8f7f502f9f804f6U, 0xfcf50003fd05fdfcU, 0x9f9fafe04fa05f7U,
  0xfbff07000107f9fcU, 0x601f300fef70002U, 0xfc06f5fcfd00f8fbU, 0xfc04f9fbf8fb02f8U,
  0xfdfbf7000aff0701U, 0x8f90103020bf803U, 0x30308ff040100f6U, 0xfffc0203fe0007f7U,
  0xfb05fbfa04fa0004U, 0x400030601fdf903U, 0x50106fdf60004f7U, 0xfd05f8fe03fb02fcU,
  0xf8fefffdf9000500U, 0xfaf9fdfc03fd03faU, 0xf6f5fdfaf9fa0506U, 0xf801f7f9f60304f6U,
  0xafefb0300f4faf9U, 0x401f80703f7ff0bU, 0x8fb0402fe0304f7U, 0x30502f400f60607U,
  0x4050002fdf9f8fdU, 0xfafaf40a02f6fb03U, 0xfeff090b0002fefcU, 0x4fbfbf7030601f6U,
  0xfb0a0103f8f7fe02U, 0x90407f900f90508U, 0xf9fb01fbfa07fffbU, 0xf8fc01f8faf80202U,
  0xfcfef6010600fffaU, 0xfaf90003fefbfff6U, 0xfc0706ffff03fe07U, 0xf9f50304fef6f7U,
  0x6fb0001fdf4f602U, 0x1faff040507f9f9U, 0xfff4f80205f6fa06U, 0x1f805050004faf8U,
  0x8fcfe04fa0806fbU, 0xfef902fb06fdf6fcU, 0xf5fcfefbff01fffcU, 0x6fefa08fd06f7fcU,
  0x5fe0506f5010707U, 0x105f805f906f7ffU, 0x405fb020200fcU, 0xf9ff03fa0300fffcU,
  0x1060004fa0300ffU, 0x105fdf9fdfb04faU, 0xfbfd05f90007fafaU, 0x20507fffaf8fe06U,
  0xfafafa01ff0401ffU, 0x1fc050007fe0405U, 0x5fcfd00f90100fbU, 0x3fb01fe020005f9U,
  0xfe0300fe0602fe04U, 0xfdfd05fc0001fd06U, 0x20600fefcff02f8U, 0xfb0503fefafdffU,
  0xf9fafc0407fcfbfbU, 0xfbfc03fffb01fb00U, 0x80707f8fffefafdU, 0xf8fc03fdfb0307f9U,
  0x5fefff80604fcfeU, 0x4f9fbfcfef806feU, 0xfdfefbf80004fa02U, 0xfc0303fefd0206f8U,
  0x5f806fdff000504U, 0x704ffff050702ffU, 0xfe0504fa050002f9U, 0x600fff802fdfa06U,
  0xf8fd07040107ff03U, 0xff06fafdf8f8ff04U, 0x205f8fef8f802ffU, 0xfb00040406020002U,
  0x303fcfffbfd02ffU, 0xfe06fd02fafcff03U, 0xfe06010701060806U, 0x1fc05fffcfdfbfbU,
  0xf90701fffff90106U, 0xfd0007f906f901U, 0x1fdfffa0107fbfdU, 0x3fbfc050707fc07U,
  0x2fdfa0300ff0002U, 0x50800fffcf9f9ffU, 0xfb06fcfefafbfdfaU, 0x7fffbff06fbff06U,
  0x60705fd03f904fbU, 0xff0503f807ff0505U, 0x2f905020303fdf6U, 0xfc03fff9fffdfafbU,
  0x2fff504fb08U, 0xfd0700fd02050501U, 0xf6f60108030303feU, 0x2fa0403fb0107fcU,
  0x608050200040301U, 0xfaff000200f909U, 0xfffdff0405faf4U, 0xf906fa00fdf600f4U,
  0x7fb03f305fe06fcU, 0x2fa07fe08faf5feU, 0x10903fef8fafffbU, 0xff0a06fdfff5fd08U,
  0xf6fb0800f5f9f504U, 0x4f9f8fffbfb00f8U, 0x202ff09ff02fdU, 0x20109f70304fdf4U,
  0xf6fdfa0bf80005f9U, 0xfb01020000f9f700U, 0xf50002ff03fc07fbU, 0x607f402fbf807fdU,
  0xff06fe010400f5f8U, 0x5f70502f9fbfc04U, 0xfa07f505fdfdf8ffU, 0xf906fff602010805U,
  0xfa010802fa06fbfdU, 0xfd040902fa0603f6U, 0x3ff03f6020203f9U, 0xfc07fb00fbf805fbU,
  0xfefafaf8f8feff05U, 0x9fbf708f8f60202U, 0xfe04fc00f8fd0cfeU, 0xfffcf90305fdf9f5U,
  0xf907fcfd0304f8f7U, 0x3fa0101fdfa00U, 0xfafdf6f9faf8f500U, 0x708fffc0205f5f8U,
  0xf7fe02f6fafffaf5U, 0x1fb0300f70a0a03U, 0x8f906fb09f8fdfbU, 0x7020bf70603f904U,
  0xf8fbfef8fe020405U, 0xfdfbfcfffc04fb03U, 0x2fffa07fc06fc05U, 0xfefdf8fc07fb07ffU,
  0xfcf9f905fd06fbfaU, 0xfffdfe04000300f9U, 0x6f902fc01feff02U, 0xfbfd040301f8f9faU,
  0xfefbfaf9050100fdU, 0x4ff00fe07fd04ffU, 0x50102fe040406fcU, 0xf90403f8fb04fafbU,
  0x404040603fdfffeU, 0xfafc0101fbfd0709U, 0x80401fd030004fbU, 0x206000906ff03fcU,
  0xfefafc04fa00fcfeU, 0xfb07fafb06fdfdfbU, 0xfbf7f906fbfc0301U, 0x2fff704fffe0403U,
  0x7fafd0604010306U, 0x3f5f905fbfbfc08U, 0xffff050502fb01feU, 0xfafa0100f7f8f900U,
  0xfafd04fbf7f5faf9U, 0x1fa02050403fa05U, 0xfbf802f7fff7f9faU, 0x804f9f9fd0300f5U,
  0xf8ff0203fd030602U, 0x102fd03fdfbf9ffU, 0xfbfb040701050100U, 0xfcfeff07fbf8ff07U,
  0xfe06f90005fbfd03U, 0xfd0006fefb02fa05U, 0xfdfd030404010103U, 0x203f9f8fbfcfb03U,
  0xfe0002fbfffffa02U, 0xfdfa070505f9fa02U, 0xfc040505f9050305U, 0x6f8ff04fe03fcffU,
  0xf703030404fb0405U, 0xfffa04f80000f8ffU, 0x706faff04f70002U, 0xf9f9f5fb02fafc04U,
  0x1fd02fa07fafbffU, 0x505fd06fffe0203U, 0x3f90402fd0108fcU, 0x705000201fb0504U,
  0x206fe0506fb0507U, 0x5fef802000305faU, 0xf9f70201fb04fc04U, 0xf6fff9070101fefaU,
  0xfcfff902fd02f806U, 0x102f9fcfefaf9f8U, 0xfdfefc02fc0602fbU, 0xfdf9fa0705fc0301U,
  0xfeff03fefc060107U, 0xfef9f9fefcfbf900U, 0xfefb0007f6f902f6U, 0xfefefa00f7010504U,
  0xfe0008f9faf9fa01U, 0xfe02f6fa02f5f400U, 0xf9f905ff06fff604U, 0xfcfc0600fff90006U,
  0xfbfdf900fbfe03fbU, 0xfcfbfe0702fcfeffU, 0x402fa02fe06fb05U, 0x20705f903060300U,
  0x103fdfd03040300U, 0xfdfaf9fafd0001f7U, 0x10402f9f90505U, 0xfd06f9f600f9fdfeU,
  0x605040002fc0001U, 0xfcfb02fbfc0502f9U, 0x7fcfaf9fe0004fbU, 0x3fcf80204fffa03U,
  0xfffdfbfa00fcfffeU, 0x504fa0206fdf9fbU, 0x801fe030303fafdU, 0xfcfbfe01f90301f8U,
  0x104fb0201fe05fcU, 0xf7fa01f505f90400U, 0x60302040a03030aU, 0xfefc020203000bfdU,
  0xfffc09090cfff6faU, 0x102fdfd0407fc00U, 0x3030704fd05f807U, 0xff04fffc030500fdU,
  0xfe04f9feff010504U, 0xfb01f9f902fbfef8U, 0xfbfb00fb0607fa08U, 0xf80401fcfc0307fbU,
  0xff04fb01ff06fdf9U, 0x30505fc07010804U, 0x6f7020501040402U, 0x602000203fffc01U,
  0xfe0307fff805fcffU, 0xfffafefd0705fd06U, 0x7fe0306fd0302fcU, 0xf9f8fe0203fbf8U,
  0x303f9fc0405fefaU, 0x1fefcfcfcfbf9feU, 0x5fb04fe0205fefdU, 0xfcfb04fc01f907fdU,
  0x3fe01f9fbff05f8U, 0x3fafb0605fd0502U, 0xfcf8fffe08fcfafcU, 0xff00fffefcfa0305U,
  0xfffb05f9f9f90800U, 0xfe02070504fffa06U, 0xfc050705fffcf9ffU, 0xf900f90304ff07f8U,
  0x6f80706fa01f8fbU, 0xfdff05060100fbfaU, 0x5f904fb040707fbU, 0x50201f906fffbfaU,
  0xfefb05fafb06f9fdU, 0xfa08ff02fe060306U, 0xff02fa05fefb05fdU, 0x3fe00f803fb02feU,
  0xf8f8fbfe03f904f9U, 0xfbff0300f9fd00f8U, 0xfbfafa0702fc0706U, 0x20202fefd030106U,
  0xfeff05fb06010404U, 0xfcfb0001fd040407U, 0xfd03fe06f9fa02fcU, 0xfdfb05f8fe00fff8U,
  0xf8f9fafa070100fcU, 0x1f9f7fefdfef7fcU, 0xf6f5fa00fc02f7fcU, 0xfd03f6f902fefff7U,
  0x102f6f3fff90301U, 0x2fdf8f5f6fd0405U, 0x1faf6fcf901fdf8U, 0xfcfe04f502fef9fdU,
  0xfc02fbff0506fef8U, 0xfa06fdf80401f5U, 0x10704fdfefffcfbU, 0xfc030603fbf5f5U,
  0x2fbf5030003fafbU, 0xf80307f602fb0200U, 0xfd070401f4f8fefdU, 0xf4f5fe06f804f5U,
  0xfbfa00fdf0ff0306U, 0xfcf605fc04f9fffdU, 0x3040807f6fbfdfcU, 0x2f9f0f6040cfcf7U,
  0x100070502f5f9fcU, 0xfc01f6fd09faf5fcU, 0x3f6fb05fc05fd07U, 0xf9fef70101f8fb02U,
  0x30200fefefafff9U, 0x800f9fffdf901feU, 0x40300f8f501f7ffU, 0xfcf5fafe03ff05faU,
  0x902fbf8fe0306faU, 0xfaff0607fa060005U, 0x7fffdfdfb0802fcU, 0x5ff02fcff000400U,
  0xfaf501fbff080207U, 0xfb0501fe01fcf9fbU, 0xf609fefe04010a07U, 0xfaf801f8fefaf6feU,
  0xfbf70005fcfffbfdU, 0xfafafbfbf900fdfdU, 0xfef50305fcf9f6fdU, 0x2fb080a0104faffU,
  0xfc010305fcf7fefbU, 0x200f9f6fafbfbU, 0x30004fdfcfef807U, 0xff080005fd0607faU,
  0x7fb01fe02040407U, 0x604f9fb05f90503U, 0xfbfaff05fffc05U, 0xfcff05fefbfcfd03U,
  0xfafd06f9f9fffdfdU, 0x701060807fefbfcU, 0xfa01fcff00fdf9fcU, 0xfa070300fd070803U,
  0x8fefcfb03fb07faU, 0xf804ff01fffdfcU, 0x3fa07f90304fe01U, 0xfafa00fd04ff01feU,
  0x5f80505fffcfb05U, 0x505fa0801faff02U, 0x1fffc0300fd03U, 0x5fe060105fe0108U,
  0x6050107fcf900ffU, 0xfaf9f9fcf805fe00U, 0x1f906fdfa0107U, 0xffff060500010105U,
  0x6fcfc0004fd0007U, 0x3040504fffffb06U, 0xfcfbfcfffbfd07ffU, 0x2fe07fcfefb0303U,
  0x704040008fa05fcU, 0x5fc0505050205feU, 0x3f9fafdfa00fd02U, 0xfafd08fb07fa05faU,
  0xfaff0004fbfc03fcU, 0x1f9fb0201040502U, 0x7050804fe0602U, 0xfb06fafdfffdfef9U,
  0xfffc030006fcfe00U, 0x500f9f9060602ffU, 0x506fcfe0706ffU, 0xfbfaf90203fcfafeU,
  0x301030200fffc03U, 0xfa03fa02fefbfd02U, 0xfa02030103fdfa02U, 0xfdfc03050105f9f8U,
  0x30602fb0501fdU, 0x6fefcfff9fb06U, 0xfd0004fafc0200faU, 0xf9010305ff0003faU,
  0xfbfd04fa030000f9U, 0xfb0003fcf90704fbU, 0xfa05fdfefbfefc01U, 0x4fa0305040302f9U,
  0xfd0505fd070204f9U, 0xfb06ff010200f700U, 0xff03f80400f80006U, 0x704f9ff00ff03ffU,
  0x3fffd0006fd0302U, 0x4020307fb02f9fcU, 0x60207fc060202fdU, 0xf9fafeff0401f902U,
  0xfcfdfef8f9f9fef9U, 0xf9fafd03fbfffefcU, 0x1fe0004fd07faf9U, 0xfdfb01fbfd030603U,
  0x4fcf906fbf9faf9U, 0x206fefefc05fffaU, 0xf802fa01f90704f9U, 0xfa030205fefbf9fbU,
  0xfeff0201fbfe0706U, 0x6feff02f805fff7U, 0xfdfefefb02f90206U, 0x7f905010604fdffU,
  0xfa02f8fe0504fe02U, 0xfdf8fe0105fc0002U, 0xfefd080702f900ffU, 0xf800f8fb03fe0707U,
  0xfcf905ff02010006U, 0xfefc020506fb00fbU, 0x301fe050501feffU, 0x1fbff01fd0505faU,
  0x1fcfd02f90103f9U, 0xf80305f902fafdfcU, 0x1fefffff905fcf9U, 0x4020307faf8fa06U,
  0xfefc0301fefafa04U, 0x20100f9fdf90700U, 0xfafcff01f9f8fcU, 0xf604fcf7fcfe0605U,
  0xfdf5f2f4f701fd05U, 0xfbfdfb04f902ff02U, 0x2fffaff0700fbU, 0xfdf5f6fd01fa08faU,
  0xfffdfa0204ff0204U, 0x1fbf8f9fd05fafcU, 0x7020403f6040607U, 0x205fdfd0503f9ffU,
  0xfdf8050404050003U, 0xf90002ff06f50905U, 0x90b000305040806U, 0x4fd0404fffb06fcU,
  0x70500050afcfbf7U, 0xfffc0309fefdfdfdU, 0xf60000faf9fff9fdU, 0xfef500faf104fbf7U,
  0x2f7fbfd02f8ff05U, 0xfcfefff7fb04fcf5U, 0xfe00f8f803fcfeffU, 0xff02fdfdfcffff03U,
  0xfff9f906fefffef8U, 0xf602f90301f3fdfaU, 0xf70009fd03fc0300U, 0xfe0304f901fffc09U,
  0xfef9fafaf8fff505U, 0x5f7fbfdfffe000bU, 0x6fefef704f6fa00U, 0xfc01000afffcfb00U,
  0x6fdf3fb04faf905U, 0x1fc04faf9040605U, 0x4060809fffeff06U, 0xfcfa06fd02f7fbfbU,
  0x80afc020a02f7f8U, 0x20707fcfa0902feU, 0xf8fc02f8ffff0500U, 0x6fefe09fa0303faU,
  0x101fcf1fff9f9f8U, 0x2030002f8ff00fdU, 0x50305f9f7f6f606U, 0x50803000a0303fbU,
  0x506fe0002fff909U, 0x1fc0804fffcf9faU, 0x4fcf904fc030609U, 0xfa00fd02fdfc00fcU,
  0x5fd0409fffd0707U, 0xf900fcfe0401fbfbU, 0xf90104fafffc03fcU, 0x30101040805fe05U,
  0xf8ff02fef9fcfcffU, 0xfb060508fe02f8feU, 0x30408020804fb09U, 0xfafbfafd010202feU,
  0xfa00010109fe0400U, 0x2090005f8fbff02U, 0xff0001fa0205fd05U, 0x6fb03030607fd01U,
  0xfaf8030504fd0302U, 0x400fb0108f80803U, 0xff0503090303ff05U, 0xf90207fb02ff0a05U,
  0x80600fbfc05f905U, 0x404040704060209U, 0x103fa090803fcfcU, 0x104fffa01fafaf9U,
  0x90901fd0801fd01U, 0xf90506f706fa0809U, 0xfb01050903fafa03U, 0xfa0803feff07fd06U,
  0xfffc07f903080105U, 0x709fcfcfeff0a04U, 0xa00fd0a05fc07U, 0x40808fcfd04fd08U,
  0xfbfd050600fafeffU, 0x7fffd03fe050a02U, 0xfc03fbfe05060206U, 0x40a050a05000102U,
  0xfcfe05fdfcfd07fcU, 0xfa09fffe02fe0001U, 0xafcff020b0407fcU, 0xfe06fc02ff0a07fdU,
  0xfd03fb03fc020a00U, 0x40a070400010608U, 0x3010802ff080606U, 0xc010502050701fbU,
  0xf80401fcfc070009U, 0xf8fa02fc02f900feU, 0xf901f7fc05ff04fdU, 0x2f60603feff01fbU,
  0xf703f8fffdf700f7U, 0x405010402f9fdffU, 0xf8fa01f8fc00fef8U, 0xf9ff01fa01fdfefdU,
  0xfefcfffefdfffbfcU, 0x3fa03040201fb02U, 0xfc0406fef9060407U, 0xf603fbf900fefc04U,
  0xfc0601fb0405fe02U, 0xfe050700060500ffU, 0x1feff0402fe07fbU, 0xfefafefafff8f9f9U,
  0xfefefa04fa080207U, 0xfdfafbff07f90302U, 0xff08f9f9020007f8U, 0x70604fcf9fdf8f7U,
  0x5030506fb010705U, 0x405ff02f80706feU, 0xfd04fefc0301f6f8U, 0x3f90200fef8ffU,
  0x30206f8fd0603f8U, 0xfcf90405fcf9fafeU, 0x6f9070806fcfe06U, 0x30206fcfe03fdfdU,
  0xfb0405ff02fdfd02U, 0xfdf9f9ff0304faffU, 0xfbfdfefefffe0503U, 0xfbfb050004060203U,
  0xfe060407060802fbU, 0xfb07fd06f903fc06U, 0xfff90506ff07ffU, 0x4fb08fc04fbfd06U,
  0xfcf7f9fa01fffefdU, 0xfaffff01fcfa02fcU, 0xfcfcfffcfffb0000U, 0x204fcfb0005f804U,
  0xfe01fefc03feff02U, 0xfb04f70600fdfb02U, 0xfbfd04fcf801fffcU, 0x807fd0704fc01ffU,
  0x7f8f8fcfffaf9feU, 0x6060707fffb02fdU, 0xfffcfe06fa010400U, 0x4fffa03fcfc06fbU,
  0x4fe05fdfafc0202U, 0xfbfd020103f906U, 0xfa03fe0108fd04feU, 0x2fef900fdfafdfdU,
  0x6fe040205fffb01U, 0xfe00fcfd06030002U, 0xfa03f9faf902fdfcU, 0xfcfafffb030402faU,
  0x202fe0606fd03f9U, 0xfe01fafa0408fd00U, 0x1fafcfa0407f907U, 0xfbfffdfcfdfef900U,
  0xf801ff02fbfd01U, 0xfc00f903f802fc02U, 0x605fe01fdff00faU, 0xfd03f8fe02fb03feU,
  0x2f9fb05f7fc01fbU, 0xfbfaf9fa06fffb00U, 0x7fd05050306fd08U, 0xfdf9fe01fe0305U,
  0x6f9050200ff0704U, 0xfcf808fcfbfe05fdU, 0xfd00f8fbf7fbf9ffU, 0xfc0202fd040607fdU,
  0xfdfffafdff03ffffU, 0xff0005030203fbf9U, 0x5fcfc0700060403U, 0xf803f9f5000703U,
  0xfffa0302fbfd03feU, 0x5fdff01fb0705fdU, 0x70500fa00fb07U, 0xfdfefc02fc07fa01U,
  0x20205fd07040503U, 0xfefffc06ff030504U, 0xfb0704fcfc03f900U, 0xfbfa0407000502ffU,
  0xfafef903fd06fd01U, 0x607fbfdfe0406fcU, 0x6fc0205fe09020cU, 0xfbfa00fa0004f802U,
  0xfd02fafe05000308U, 0x402070603fa03ffU, 0x8fcfefffa01fe04U, 0xf6f5ffff00f8f9U,
  0xfbfe0702fc0501U, 0xfcfcfdfb09feffU, 0x20203f505f3f3fbU, 0xfefaf601f8fb06feU,
  0xf302f6fff7f4f9f9U, 0x7fc0404f5fa06fdU, 0xfcfaf9f700fefd01U, 0x308f5f8fef0f7f3U,
  0xf6f702fff9f903f9U, 0x3fcf406fe01f1feU, 0xf7f9fdf700fffdfdU, 0xfd0503f0f4f60004U,
  0x1f9fa08fc05fcf4U, 0x4fcff0109f3faf5U, 0xfaf904fefc03fa03U, 0x10103fdfff4fcfdU,
  0xfdfdfd0001f6fd04U, 0xfefef3fbf70aef00U, 0x107fbfffe01fafcU, 0x400fcf0fdf5fff7U,
  0x4010503fbfd0302U, 0x30206faf70503ffU, 0xfafbf7fb03f50804U, 0xf4f7fefc0402ff02U,
  0xfeef0004fe00fe03U, 0xf4f704fdf606fd00U, 0xbfbf5fc00f8f805U, 0xa0508fff3fffd05U,
  0xf604f9fc05010000U, 0xfb00050a0cfbf9U, 0xf001f4fdff0105fdU, 0x20601f6fa04f601U,
  0x2fdfb0301f30100U, 0xfdf70703fa03fcffU, 0x1000c020803fffbU, 0x50afa030607040fU,
  0x1f500f8fdf6f7fcU, 0x303fff6fcf9fdffU, 0xfafaf501f90201f6U, 0xfa02f4fe01fcf9f8U,
  0xfe01ff05fc02faf4U, 0xf400f7f9fff2fcf8U, 0xfff20306f5030204U, 0xf1fd03fffdfff7f8U,
  0xfcfcfa04fffff8f1U, 0xf9f8fcfcfa02fdfbU, 0xf6fef8fefef7fffaU, 0xfeff030201fef8feU,
  0xfcfdf6f5fcfaff06U, 0xf80401fafdf9fcf8U, 0x702fc02fbfe01fdU, 0xf3f3f9fffbf407f7U,
  0xfbf5fefdfa010503U, 0xf8fbf8fc000800faU, 0xf5fef7fa0203fffaU, 0x4fffbf8f4f900f5U,
  0xfff9fbf802f5fbfaU, 0xf9f9ff02fd0204f2U, 0xfb01faf5fb0500f9U, 0xfc01faf7f5fdf7f8U,
  0x400fffff900fef9U, 0x10102f4fafdf3U, 0xf7fb03faf9f7fdf5U, 0xfdf902f4fb05fdfbU,
  0x301faf7fff80100U, 0xfefffef803fdf502U, 0xfdfafaf9fefbf7f9U, 0xf80003fffcf2f702U,
  0x10001f3fbfa03f4U, 0xf7fa00faf4fcf9f9U, 0x6f8fafffdf100feU, 0xf903f7fbf3f5fef8U,
  0xf5f80002fc01fc07U, 0x1ff04050801f7f6U, 0x304fef8010200ffU, 0x206fbfa060105ffU,
  0x2fffc03f7fafa05U, 0xfb0302f9fefbfdU, 0x2fffffeff03fdffU, 0xfcf9f601f8fefa00U,
  0xf0fb00fff4f7f7faU, 0x5f909fd0302f4feU, 0xfe0201020306fdffU, 0xfef7fff7fc03fafeU,
  0xffff00fef6f9f9fcU, 0xf2fcf30302fb0508U, 0xffff07fcf7f701f9U, 0xfb00fe02f806f5f9U,
  0x5f9f801f8000109U, 0xfef9f9f80301f6ffU, 0xf307050105fdfef8U, 0xf701fcfb00fff9fbU,
  0xff000b03fe08f8f3U, 0xfbfbf9fc01f80708U, 0xfd07010104050303U, 0xf50903fff5030200U,
  0x4fef9fc0505f9f5U, 0xf5f8fcfe03fdfafbU, 0xfc000403fefd03U, 0xfafaf5f4f9000003U,
  0xf802fdfa0100f604U, 0xfcf9fbfcfffafb00U, 0xf9fd03fc0402ff00U, 0xf6fef700f6000600U,
  0x403fef8fffffb01U, 0xf4fc050102f8f4feU, 0xf7f804f003fbf301U, 0x100f3fafc0301ffU,
  0xfcf80104f5fcfcfdU, 0x3fdfcf6090503f9U, 0xf800fd0001ff030aU, 0xc0003fff2f8fef6U,
  0xf905fd0002fbf600U, 0xf2fa03ff02fd0608U, 0xfe04f6fe00feff03U, 0x30402fffcf60207U,
  0x3f9f5fdffee00faU, 0xff050305f904fd00U, 0xfef7fef7fff400f9U, 0x200f401fd0004U,
  0xfdfb0003f9fdfd01U, 0xf9f7fff6fefcfa08U, 0xf3fa01f6f6070000U, 0x60105fdf402f3f2U,
  0x208fefefcfe0508U, 0xfaf6f9050206fd0cU, 0xefafa02fdfafbffU, 0x4fa06fe050106fcU,
  0xf501060103030202U, 0x40600090503f8fbU, 0xc0300ff0800fd02U, 0x505fbf300fe0affU,
  0xa0b050304040808U, 0xfc0009040301fe05U, 0xfbfd05fe010308fdU, 0xfa040305fc06fe04U,
  0xfd0505f705060603U, 0x405ff08fef5fcU, 0xff050002fd060b03U, 0x1fa04fc05fa0a08U,
  0x5040607040901feU, 0x4f70406090400ffU, 0xfcf90307fcfd0405U, 0xf8f902060dfbfffeU,
  0xfffdfef2fb05070aU, 0x4fe06f7f50407fbU, 0xfa020306fd0902U, 0xf9fc05fe0cfffd06U,
  0x10b08100a04f701U, 0xfe07fb070501fa03U, 0x6fd0004f8010307U, 0x20802fdfb09f90dU,
  0x90207060c0b0502U, 0xfb010bfe0603ff00U, 0x80406fe0f0703fbU, 0x404fd0806000cfbU,
  0x801fc0907fa0701U, 0x6040b0207001100U, 0xfb08090902fd0202U, 0xfd0802f8fc08fdfdU,
  0xfdfcfd00fefcfcfbU, 0xf807ff0306ff0803U, 0x400fe04fc03f9feU, 0xfbf804ffff04f909U,
  0x40304ff06fffa02U, 0x4050200f90304feU, 0xfdf806fcfef903feU, 0xf900fd0504fcfcfbU,
  0x4070202fcf8fc00U, 0xfcf902fb0006fefbU, 0x401f7fcf8f80303U, 0xfff8fcfafd01fd02U,
  0xff05f90705fb0402U, 0xfffdfd02ffff0200U, 0xfb06f9fa06fe0002U, 0x606ff0000fb06fdU,
  0x3fffd02fcf901f9U, 0x2000604fffd0400U, 0xf903fe04fd0305fbU, 0x2f901fdffff0005U,
  0x5f8fdfbf804fe00U, 0x1fafefcf8fc02fdU, 0x10002f704fdfaf8U, 0xfc00f9feffff0202U,
  0xfcfe00fe07000201U, 0xf9030604fe04fffeU, 0xfbfaf8fb06040105U, 0x603060204ff03faU,
  0xfd0303fbfd050400U, 0x400fffb02fafc02U, 0x205030304fbfdf9U, 0xf8060702fdf8fc01U,
  0xfb03fbfdfbf906feU, 0x6fc03fd07050503U, 0x2ff0606f9fdfcfeU, 0xfefdfb02fef90607U,
  0x104fdff0305fbf9U, 0x6fffffefefd04f7U, 0x502fefbfcfc0200U, 0x3fbff05020005fbU,
  0xfdff0302f9faf9f8U, 0xfa070304060206faU, 0x2fffa03fd05f8f9U, 0xfef807040703fd00U,
  0x2fbfffb06fdfcfeU, 0xff010406fdf9fcf7U, 0x2f6f8fe03fffdfdU, 0xf4fafdfe0400f7f4U,
  0xf9fafdfe01f6f8f9U, 0xf9fa0203fafd0001U, 0xfeffff020102f5f7U, 0x1fe0005f5fffa01U,
  0xf5f801f90200ff00U, 0x1fe0103fbf70105U, 0xf6f8fcfdf6070801U, 0xfdfaff030208fd00U,
  0xf8fefbf80200f801U, 0xff06fe01010907fdU, 0xfaf809030307fe09U, 0x60701fe000cfd00U,
  0xfafa090404fc0206U, 0x6030606fcf606ffU, 0xf6fdf70607fefdf6U, 0x300fdfefa000b03U,
  0x7f9fdfa00ff0107U, 0xf70afc03fdf702ffU, 0xfafb0002f203fff6U, 0xfdfbf2fafef4fcfcU,
  0xff01f3fff6f8fdU, 0xfbf9fffcfc00feU, 0x1fbfdf7fe00f7f9U, 0x100000200f802f9U,
  0xfcf801f40503f9f7U, 0xf4f800f30101f8f3U, 0x5fffbfffa06fafeU, 0x60104f4fdfa03f4U,
  0x4fff9fe02fe08f8U, 0x106f6f3070afd07U, 0xf801020209fafefbU, 0x10305fa020805f5U,
  0xfc01080208fd01fdU, 0x70006f404fe02f6U, 0xfb02fffa03060501U, 0xfef6f6f6fcfefa05U,
  0x406ff05f9fc07f7U, 0x1fefefafa0402faU, 0x304feff03fd05f7U, 0xfb0804f9faf5f9feU,
  0xfeff03f8fd0100fdU, 0xfafdff0506fffef7U, 0xf901fa00fafc0202U, 0x3fc080602fb05faU,
  0x404030405fb0109U, 0xfffe08fffefb01fbU, 0x704fd0903040105U, 0xff01fc0705000804U,
  0x4fbfd09fc09fe03U, 0x6fe06fe06ff0909U, 0x9fdfffc060502ffU, 0xfe010303ff04fb01U,
  0x509f900010206fdU, 0x3fd02040006fc06U, 0x10005f8fe0600fdU, 0x304040400060504U,
  0x50407000206fb09U, 0xfefcfafb00010305U, 0x1fdfbfe0303fd02U, 0xfd05010606020405U,
  0x205fa0706020800U, 0x106f706f9fb04fcU, 0x1faf904fc03fe06U, 0xfd00fdfd08fefffcU,
  0x407fb04ff01f705U, 0xfe0409fc0700fe00U, 0x20203f902fd0004U, 0x3faf905fe04fff9U,
  0x10705fc080803ffU, 0x7faf8fe01fc0205U, 0xffff05fc00fafc06U, 0x806fdff02fcfd01U,
  0x403040200fc0305U, 0x8fbfd0a030602f5U, 0x1fcfefefd060601U, 0x4090607fffb0002U,
  0x6fc080609050006U, 0xb0808f9fb05ff09U, 0xfe02ff0908fe07f9U, 0x1000607fefe0703U,
  0xa0a08fe0a070709U, 0x7fffe010b040d03U, 0x9010a0405060b00U, 0xf9f80103f6fafe02U,
  0xff0603f8f20401fbU, 0x5fffd0a00fd0702U, 0xf703fc02f60501U, 0x3f8fe01f8020205U,
  0xff030b0d0afe00fdU, 0xf9fefef9fafefd06U, 0xf802f70506fdfcf8U, 0xff01fafbff00ff00U,
  0x20602f8fefe0701U, 0x306f9fbfd0005f8U, 0xf604fbf907ff0403U, 0x5fcf5f8f4fcfb0bU,
  0x803f803f80301fbU, 0xf7fefe0001fdfefdU, 0xfb0bf4f4fef700feU, 0x3fefb05050a0605U,
  0x2fd00070108fbU, 0x103faf5f6f903faU, 0xfa00fcf6070ef606U, 0x4060002fdf5fcf1U,
  0x2fcfcf7fdf802f0U, 0x40207f70004f406U, 0xfb06fafbfffe03fcU, 0xfcf8fffd010904fcU,
  0xfbfffc00fefb01feU, 0x303020102fd0004U, 0xfcfbf9faf706fdfbU, 0x5fefafdfe02fcf3U,
  0xfa010bfdf903f504U, 0x7090806fbfc0605U, 0x200040302fb060aU, 0x500fc06f709fa07U,
  0x2f805f8fc0d00faU, 0xfc07050902fd02f9U, 0x3fdfe010a0703fcU, 0x103f90400fa0707U,
  0xfa04f7fefe090803U, 0x1ff02010204f4f5U, 0x90300fdf5f2f904U, 0xfe0601f5ff06fafdU,
  0xc090af8f9fbf6f8U, 0xf703050205f8fcfbU, 0xfb01fa00f9f7fefaU, 0x103f907fa020401U,
  0xf8fcfc05fc030303U, 0x7fe0406fbfc0701U, 0xfbfc06fd03fafcffU, 0xfcfc0600fbf9fe06U,
  0xfafffd040704fefbU, 0x5fcf90708fc0803U, 0xfffcfbfbff04f9f9U, 0x2fd01f906fbfffaU,
  0x8fa01fbf8fe0808U, 0x8fa02020107fb00U, 0x6fd01fdfcfafbfdU, 0xfafd04fafcfc03fdU,
  0x4fe08fffcfcfff9U, 0x5fe01fc07fcf904U, 0x7030406010306f8U, 0x1fafd04fdffff06U,
  0xff00020601f9U, 0x5fb02010204faf9U, 0x4f9fd04fffaff04U, 0xf9ff0605f900f700U,
  0xf9000306070005fcU, 0x2fa04fbfafafefaU, 0xfcfc0502fefcfbfaU, 0xfffb04feff04feffU,
  0x701020300fefe07U, 0xfafd08070007f905U, 0x70600f802fb0704U, 0x4fc0101fe00fb06U,
  0xfffefbfefb0101fbU, 0x6fe050308fbfb04U, 0x20102fd0205fafaU, 0x304f9fffefdfd05U,
  0xfbfffc02040107fcU, 0x7fffb0305faff04U, 0xfcfefa0602ff0205U, 0xfc03fcff03fcfff9U,
  0xfe07fafd010101fbU, 0x4f807fbfffffeffU, 0x707fa0704fbfb08U, 0x206040205fbfbfcU,
  0xf7f6fe00f300f1ffU, 0xf5f3fc0009fd0407U, 0xfe03faf5fb00fdf3U, 0x6030a09fdfb0201U,
  0x2f8fc01fffffa01U, 0x1f6f8f9fcfaf6fbU, 0x50503f902fa00fbU, 0xfafafff2fbf5fffdU,
  0x1fdf802f7fbf900U, 0xfa0406f6fefafcU, 0xfdfe0104fef9f4fcU, 0x30f0e010103U,
  0xfafcfcfafa060405U, 0x405fd0309000000U, 0xf800fc0303f804faU, 0x2fcf5fcfef4f6faU,
  0xfef7fdfbfefefefdU, 0xf8f7f7fb0005f6f9U, 0xf8f00705f7fbfb00U, 0xf6f7fef8fefafdfeU,
  0xf7f8f8fb0a03f4f4U, 0xf4f005fefcfdfc06U, 0xf9f6fafdf8fff601U, 0xf7f705f9f40504fbU,
  0xfdf7f2f4fcf6f700U, 0xfdfffafbf5f7fbf2U, 0xfbfa04fe04f8f7fdU, 0xf9fef8fffbfe0101U,
  0xfffe01f4f20a0302U, 0xfc030007fff1f9f8U, 0x3fbfdfbfd05f8f6U, 0xfbfaf603000301f5U,
  0xf7f8f602ff0503feU, 0x70002f6fb04fefaU, 0x1f9fcf500030003U, 0xf4fdfefd00f8f2f5U,
  0xfcf2f400fafefa01U, 0x403f701f6fefe00U, 0xf1fcfe02fd000400U, 0xfffbfefe0304f2U,
  0xfafa09fdfa09fe00U, 0xfaf8f503020504fbU, 0x4fffafbfd05ff02U, 0x1f90506ff040204U,
  0xfd0003fc0007fffaU, 0x7fc00fbfcf8fefcU, 0xfe0107fdfafd06fcU, 0x305f9fd07070201U,
  0xfbfd07000205fcfcU, 0xfb050300fbfefa04U, 0x408f902fdffffU, 0x3f8fb04fb0603fbU,
  0xf900fd0407060101U, 0x601fd08fcfe0107U, 0x3fa07fbfdfc05fbU, 0x4fdfcfc01fb04fbU,
  0xf8fbfa0701fe0106U, 0x201f807ff02fe03U, 0xfb070006f9fe07fcU, 0xfc05fe030305fd03U,
  0x501010202fcfdffU, 0xfcfcf9fefa080700U, 0x407030002fafe04U, 0xfdfafd03ff03f9feU,
  0x101f804fa07fbfbU, 0x7fb040803050204U, 0xfaf90406fc050406U, 0x20800010106fbf8U,
  0xfa010302ff010601U, 0xfb0500ff07070403U, 0xfd06fa07fbfa0203U, 0x1fb06fa07fe0400U,
  0x6fb0502fe02fa03U, 0x3fdf90001fe0600U, 0x6fc08fcfffafb04U, 0xfe0702fcfdfb0403U,
  0xf905070200060708U, 0xfcfd05fc02fe02feU, 0xfb010603fafafd04U, 0x50506000401fa04U,
  0xfdf9fc08fb02fbfcU, 0x207f9010105f9fcU, 0xfb050100fc04fbffU, 0x3f8010506fd0002U,
  0x604040105ff01ffU, 0xfc0603f9fbfaf804U, 0x506faf8fff8fdfeU, 0xfcfcfdfeff06fafcU,
  0xfb010202fbf8f9feU, 0x1fdfcfe03fa0502U, 0xfaf8f9fb0100f8f7U, 0xfd04050606fb0707U,
  0x20107fb0505f804U, 0x704fe06fa03fbffU, 0xfa0301fff8f9fd04U, 0x20305fcfa02fff8U,
  0xfaff05080101fd03U, 0xfdf9020404fefc01U, 0xfaf907fc00f9fffeU, 0xfd03fefcfffafe01U,
  0xfb010601fdfd0400U, 0xfa0406fd01fe0304U, 0xfcf8fcf800fe0601U, 0xfbfb0004fdfa01faU,
  0x2fcf905f9fbf8f7U, 0x3050604fefbfcfcU, 0xf904fd0302fdfe05U, 0x2fb040302020400U,
  0x607fef7fa070602U, 0xf8fd020303fa00ffU, 0xfcfd00fefd03fd03U, 0x4f9faf9fcfdfa04U,
  0xfbfdfefefefef9fcU, 0x4010307f902fcfaU, 0x704fdfa04faf8feU, 0xfefc0102fc06fe05U,
  0xfffdff050100fe01U, 0x60706fefb0102ffU, 0x4060402fc050206U, 0xfd060700f9000401U,
  0xf8f9fffe04fff9fbU, 0xf9f902f9fc01feffU, 0x5fe03faf9fe0205U, 0x205f8fafbfcfdfaU,
  0x6fcfaf903fefbffU, 0x70706fdfe060302U, 0x6f801f904ff06feU, 0x103f805fb07faU,
  0x4faf901fdfdf904U, 0x4030400ff060b08U, 0xafe0d01fcfb04fdU, 0x30cff05faU,
  0x7070302030403fbU, 0xfdfd02fa000502fbU, 0xfb050301f9fdfef7U, 0x5fa04fcfa02fafaU,
  0xfb03fd03fdfc0006U, 0x30800fbfd0500fcU, 0xfd01fdf900f3ff02U, 0x107fb06010301f8U,
  0xfdfefe0303080601U, 0x4fbfefc05fe06U, 0x70a070505ff01f8U, 0xfafc0408f9f80600U,
  0x2fef608010101f7U, 0xfd050205ff0706f8U, 0x2f302090404f7fdU, 0xfa080cfa04fafa08U,
  0xfe02f905fbff0304U, 0xfdf8fc03fd0403ffU, 0x504ff050808fcf5U, 0xfffef7fef603f704U,
  0x20007f6fef8f9fdU, 0x3000001f6fdfefaU, 0xfffefaf9fefffdf6U, 0x3fbf9fcfd0002fdU,
  0x1fa03fdfdfbfb01U, 0x308fc01f502fbf5U, 0x4f70305f403fc08U, 0x40a08f901fc0aU,
  0xf9fc0202fc05050aU, 0xfd070000fb03fff5U, 0xf809fa05f5fb04fcU, 0xf9fe0401f8fafd02U,
  0xf306fefb01f5fe04U, 0x1fa00f602f5fbf6U, 0x205f8060605f9feU, 0xfcf8f7f6ffff03ffU,
  0xf500f9fbfcf9f801U, 0xff01fefcfff1fbfcU, 0xfffb02f9fef9fff9U, 0xfa0505040902fcfdU,
  0xfc010101030304fbU, 0xf8f6000404fdf900U, 0x900fbf90303faf9U, 0xf5fefcf7fafc0700U,
  0x6ff01f7f8fffdf7U, 0xf9f701060003ff05U, 0xfbfb00fcf8fcf8faU, 0x2f900f403010004U,
  0xfa090306f9fb0804U, 0x3ff0605fb06U, 0xfef40102fa05fcf6U, 0xfcfefcfb0206fcfdU,
  0xa02fc03f8f802feU, 0x6fb020200f60406U, 0xf9fafe04f806fcf7U, 0xf601ff0107f5faf6U,
  0xf80305ff040300fbU, 0xf9f9fbfafefffcfdU, 0xfffd01fd0900U, 0x300fcfff80b0305U,
  0xfafa0205fafef6f4U, 0x1050401f7fffdffU, 0x304fafb04f900fcU, 0xfbfaf90004fefa04U,
  0x1f903010200f700U, 0xfc040309fe09faf7U, 0xff03f5f7f90105fcU, 0x603fb04f8fd0101U,
  0xfefc0004fffa0401U, 0xfcfafdf7fc04f8f9U, 0xf903080502fef8faU, 0xf9f605fcfefbf9f9U,
  0xfd010202fe00ffffU, 0xf7fff5f9fffb0006U, 0x104f9fcfdf4f8ffU, 0xfcf3f5050c0900fdU,
  0xf702fcfbfff7faf7U, 0x1010005f6fa0003U, 0xfafef7ff0006fef6U, 0xfaf6fc01f7fcfbfbU,
  0xfbf6fdfc030a04f9U, 0xf9f600f9f8f6fd00U, 0xf7fa03fe05faf7fdU, 0xfb05020005f4fe06U,
  0xfdfa0004f7fafcffU, 0xff020501f903fffbU, 0xf6fc050601f7fd03U, 0x103fbfcfafaf6fbU,
  0x3fe04fa00f90700U, 0xfb02f7f802fcfdfaU, 0xf8fdfdf8f801ff06U, 0x2f6f7fffafe0300U,
  0x5010001fcfdf8feU, 0x201f701fc03fffeU, 0xf6fc03f7fafcfe03U, 0xf80303fafaf900U,
  0x404fe00fb0302fdU, 0xf8fcfafdfff803fdU, 0x1fff6fd060500U, 0xfcfcfefff9020100U,
  0x1f8fe0406fd02fbU, 0xf901fcfb00fcfffeU, 0xfd06fdfafb0402fdU, 0x301f7fefbfa00fbU,
  0xfafa010305fffb01U, 0x5f600fc08fdfbfbU, 0xfaf80503fa050407U, 0xfefafc0503fcfffdU,
  0xf9f505f502f8f9f9U, 0x4fffe01fef701f6U, 0xff03fafc0200f9f8U, 0x205fd06fefffffdU,
  0xf8fdfb00fef8f5f6U, 0xf6f7f9ff0404fdf8U, 0xf805f90201fbfd05U, 0xfef7f7fa01fafd00U,
  0x50201f7fbf9fc03U, 0x309fe02fd090306U, 0x303fefcfd02fbf9U, 0xfd06ff01040507ffU,
  0xff02fcfb01fe0708U, 0x306fa08fd000301U, 0xf9fdfd07050808ffU, 0x304fffc0301fb06U,
  0xfe020606000501feU, 0x400fd0605020101U, 0x2fbfa01fbfa08fbU, 0x6fa020401010202U,
  0x1fbff01fd07fa07U, 0x7fff9f9f807fa03U, 0x4f90404fcfe03fbU, 0xff06ff0501fb08faU,
  0xf908fffffe06fbU, 0xfdfafc0000fdf7ffU, 0x400fff705f9fefaU, 0xf906f8fdf9ff00fdU,
  0x5f9ff00060404U, 0x2ff0803fe0801f9U, 0xfa06fffa02fcfffeU, 0xfd020604fa04fb06U,
  0xfffefe0709fbfef9U, 0xf9f605f907fa0501U, 0xfd03030704fafe05U, 0x6fe0300f906fb04U,
  0xfd01faff00f7fa02U, 0x5fb00fa05fcfb05U, 0x403fbfdf9fafbfeU, 0xfbfa0103fefb0602U,
  0x2fa00ff04fff8feU, 0xfdfffdff04f90207U, 0xf904fd00fffefdffU, 0xfefcfd02fffcfdfdU,
  0xfc0304fd01060000U, 0xfc02fb0203f905feU, 0xfc020002fe01f900U, 0xfaff00fd040000faU,
  0x60402f8ff03ff07U, 0xfdfa030100f8fa06U, 0xfb0005fbfd03f803U, 0xfa05fdfffaf807feU,
  0x8f9060704050503U, 0xff0400ff07f9fbU, 0x4fa040700060208U, 0x105fcfe04fafc05U,
  0xfefdf90304fcf901U, 0x1f8f90003000208U, 0xfef70003fc08f508U, 0x3090203fa0af9ffU,
  0xfd0200feff03feffU, 0xfdf8fdf9fffff9fdU, 0xfbfc0401fbfd02ffU, 0xfbfdfffc0108U,
  0xfffefa01fe00fefaU, 0xfef9fcfe05fbfd02U, 0xfff7fefa00020703U, 0x7ff06fa00fa00f9U,
  0x50afd0704060004U, 0xfa07fdfaf6fa0107U, 0xfa0201f9fbffff03U, 0x407f7fe0505fc04U,
  0x705fc0502fbfaf9U, 0xfdf6ff0800fdfaf5U, 0xfefcfffbf9040307U, 0x4fbfc0704fdfbU,
  0x300ff08fa05fff8U, 0xfafafaf9feff08ffU, 0xfaf8010301fc0102U, 0x1000406fefc0801U,
  0x4fd0106f6fd0006U, 0x8fcf901fc0802U, 0x6ff06080a04fd04U, 0x3fdff0605f90b07U,
  0xfcf9fffffcf70307U, 0x3fdfe05f607fafeU, 0xf501fc050208fdf8U, 0xf8fefd0307f9fdfcU,
  0x50701f904060101U, 0x4fbf90306fc0001U, 0x406fdf6fb0307feU, 0xf903fafffa00ff04U,
  0x2010707070300fcU, 0x5060306fcfafa08U, 0x30302fdfa03f903U, 0xfe01fbf807fdfe07U,
  0xfbfb04fcf902fffcU, 0xf903fefcfcfafdffU, 0x3fe03f90504faU, 0xfaffff00f70afd05U,
  0xfc0606f9fe0601fcU, 0x6000302fc02fa05U, 0xfc05020406040300U, 0xfffefa03fe02fefdU,
  0x1ff050301000500U, 0xfb03fdff04f805fdU, 0xfbf9fb0302fef8fcU, 0x7fcfcff02f9fa03U,
  0x7fdff070202feU, 0x2fb040003050205U, 0xfafefa0204f90501U, 0xfafdfb02fd0504fdU,
  0x50700ffff020606U, 0xf90100fcf906fe08U, 0xfb06030706fafffdU, 0xfbfa03fcfffcfaffU,
  0x70007fb05020208U, 0x404fe04f9fc0200U, 0xfcfcfe00040400fdU, 0x5fdf9ff06fe05feU,
  0x3fc05f8fa070605U, 0xf9fc0107f90607faU, 0x204fafe0204fdfaU, 0x804fafc07fefffeU,
  0xf9fd0407faf906fdU, 0x708f9f90706fd01U, 0x20402f9fefafc07U, 0xfc05f90803fa01faU,
  0x2fbfb0405050108U, 0x702fefc0100fdfbU, 0x6fb04fe03fd03fcU, 0x604fbfaff060407U,
  0x5fdfbf807070004U, 0xff070004fc03f9fcU, 0xfdfdfef8fbfb0205U, 0xfe0008fd02030001U,
  0xf8fb02f9fefe0702U, 0x103fc04f8fbfe02U, 0x202fcfff8fe08f9U, 0x708fbfefc08fcfaU,
  0x4fa050702fe0703U, 0x501030303070107U, 0xfcf60afcfd07fc07U, 0xf8fcf502fffbfdf7U,
  0xfcf802f7f7faf6fcU, 0x80401050afe0a07U, 0xf9fb020308ff0a05U, 0xfdff090402fd0905U,
  0x7ff060806070300U, 0x603ff00f7ff0108U, 0x50609f5f6f9010aU, 0xf8fafaff09f80702U,
  0xfdfb05020007fe01U, 0xf6f9f901fffff7f5U, 0xfafcf7f20103f4f6U, 0xfcfefa01ff00090cU,
  0x2f800fc0102faU, 0xfa040b00faf30103U, 0x203fff903fefffbU, 0xfdfcf8fdf90707f5U,
  0xff01ffff04fe0705U, 0xff02fafbff070009U, 0x7fa09fc0004f803U, 0xf705fb03f5fdf7f8U,
  0xff0afff902f7fdf3U, 0xf70601f50003fefbU, 0xfef4f9090401fff9U, 0x1f302fd07050303U,
  0x3f6f6f3f806f9U, 0xfb0a02f600f700fdU, 0x5f5f8f9f5f70007U, 0xf5f300fc04fdfbfcU,
  0xfbfdfb0801fafeU, 0xfd03f5fe00fcfd02U, 0xf6f7f3f7f80204f9U, 0xf501fef4fffcf805U,
  0xf80105fef60803f9U, 0xf9fafbfb04fc00f6U, 0xfd0bfdf6fcfbf6fcU, 0xf90607060b0606f9U,
  0xfdf70201faff02feU, 0xf606ff00f8fffcf9U, 0xfdf9fbf9fc0401faU, 0xfcf70007fdf7f802U,
  0xfc0cfdff01fa0602U, 0xc08ff0ffb060afeU, 0xfdfbfb04fffa05ffU, 0xb060e04fffef801U,
  0x301fefd01f9fd04U, 0xf60502fc0705fbf8U, 0xfb010d08fd000affU, 0xf7fefe080201fb0aU,
  0xfafe06feff06f8f9U, 0xff08fffd03fe0bfdU, 0xf5fe00f809fcfa06U, 0x9fdf802fb0a0bfdU,
  0x40308f6fd01040aU, 0x1050608ff02fbfcU, 0x1020808f7fa00f6U, 0xf902fc00f3fe0702U,
  0xfcfbf4ff07ff0a02U, 0xf70202fe02ff0d05U, 0xfd0304fe0001f3fdU, 0xb000200f9f2000aU,
  0x300fafd0701fbf8U, 0xf4040607fb050505U, 0xfe070803fcfcU, 0xfbf408fb00fa0803U,
  0xd030102fc0003f7U, 0xc05ff01ff030605U, 0x608fefe050500U, 0xfffdfd0806fcfe02U,
  0xf407fe02fd03f8f7U, 0xfefbf4fbfcfafbffU, 0x1fefb0205ff06ffU, 0x5f1f9fef6fbfb0aU,
  0x7f9f4fefcfbfdfeU, 0xff05070901f60301U, 0xfe0c00f9f8fb01fdU, 0xf6f9fbfefe0303f2U,
  0xf5fcfff401fc0609U, 0x40af9fafefdffffU, 0xfffbfd06fcfcfcffU, 0x50800f404f8fd00U,
  0xfe0303fb0203fd05U, 0x3ff06f800fff6feU, 0x4f703f9f9fe020aU, 0xfd03fffbf6f6f6ffU,
  0xf9fff9fd00fff704U, 0xf6faf5fdfcf8f8ffU, 0xfafff9fcfbfafaf9U, 0xff04f701fdfefaf7U,
  0xf6f903f503faf8f9U, 0x5f7fd0005f801f6U, 0xf7f9f800f9f9fff7U, 0x4fa04040304fcf7U,
  0x302f6ff00fdf900U, 0xfc00ff0102fffc04U, 0xfc02f6fdf804fc03U, 0x301fef5f604f503U,
  0xfc04f902020204fcU, 0xfcfcf8f90700fa04U, 0xf6fefefffdf701fcU, 0x7ff0004fefaf801U,
  0xfcfff8fbfefb02faU, 0xf8f9f7fafcfe0501U, 0xf601f9010503f8fcU, 0xf7f9fafefbfaf8fcU,
  0x200f9fffaf8f902U, 0xf904f7060304f9f7U, 0x105f8fbf7f8f8f7U, 0xfffb00f8f801fcf6U,
  0xfdff04fefd00fdffU, 0xf9f5fefaf5f902ffU, 0xf7f902fcf803fafcU, 0xf9f9f9fafbf4fff6U,
  0xfbfef4fa03f800faU, 0x1f6f9f7f60004fcU, 0xfefdf6f7f7f7f8feU, 0xf6fff802fb01f903U,
  0xfc04000003fcfcf9U, 0xf6f6fa00fa05f7fbU, 0xfafbfb03fdfc0002U, 0x3020101f8fef7faU,
  0xf802f703fdfe01fbU, 0xfb01fbfdfa01f9fbU, 0xfbf9f8fdf7fd04f8U, 0xfbf602fefcf8f800U,
  0xfef5fafbff0504fbU, 0xf9f6f6f8f7f8fffcU, 0x4fdfefd08fffeffU, 0xfef900fb03090afcU,
  0xfe00fd03f80400fdU, 0xf8faf9fd06fc0409U, 0xfa00fef70006f8U, 0x2f70500fcfc0407U,
  0xfcfe04f40009fd04U, 0xf7fb050901f8fcfeU, 0x4040704060800fbU, 0x5f7fef50505fc01U,
  0xfefb02f602fe0609U, 0x8fbfcfafafa0509U, 0x2fe0803030400fcU, 0xf4f906f6fef4fbffU,
  0xf8fffff9fcfbfdf5U, 0xf7fdf600fa010cfeU, 0xf7fe0401f9ff090aU, 0x5fe0b0dfaff03f8U,
  0x1fa0302fff5fe01U, 0x5fe0807fc0504f8U, 0x1fdf9f802020704U, 0xf7faf9060302feU,
  0x90100fc05fbfe04U, 0xfffefbfef9f8ff00U, 0xfc060306fef70606U, 0x2f606fcfb010afbU,
  0xfbf9fe06f7fc0201U, 0xfbfd0afeff0004fcU, 0x101fc01fef50705U, 0xfc04faf6fefef7fcU,
  0x4f7f401f7fe0703U, 0xfefefcfff5fb04ffU, 0xf8fdfd03f9fff500U, 0x30003f8f5fffa05U,
  0x7fd03f7fd010601U, 0xfcfafcfefafffaU, 0xff04030bff020604U, 0xfffef9f9000307fcU,
  0x10001fafaf807f8U, 0xfb0306f6f4050cfcU, 0xf704f804f900f6f7U, 0x2f70602fcf60205U,
  0x20502fcf5f7ff02U, 0xf090801ff0504ffU, 0xfbfb06fe09fb01U, 0x60a08fffc090204U,
  0x50009070a0c07fdU, 0xf90803f9fffdfb09U, 0x3030406060200U, 0xf90303050a080608U,
  0xff05f701fe060302U, 0xfc01fa03fd0506fbU, 0xfb06f80202f8ff04U, 0x5f6fefe00f800U,
  0x101fc0afd06f901U, 0x406fd01f90301f9U, 0xf901f5050703f504U, 0xf6f90505fdf9f801U,
  0xfafdf40204fffb08U, 0xf7010100f7f8fff8U, 0xff01fafdfdf702fdU, 0xf9fbfbfffef8f6faU,
  0xfaf80105f9faf6fbU, 0x3ff01f8fb04fdU, 0xfcf802fffdfc05f7U, 0xfcf90002fa08ffU,
  0x6fefefcfdfef6fbU, 0x4000403fbf7f7fcU, 0xf5fb03fd01f502fbU, 0xf5fbf9fa02f9f900U,
  0xf9f80202fd000b00U, 0xfe02fcf7f9f506feU, 0x5ff070503000202U, 0x6fcfffc010400fdU,
  0x20909fd01f901U, 0xfcfbfb0005fafffcU, 0xfe00f9ff03fffdf6U, 0xfc0102fd02fffffcU,
  0xfcfffb02f7f60106U, 0xfd02f4fffdfafe04U, 0xf4fbfbf5fdfcf8fbU, 0xff01f6010200fa00U,
  0xfc0201faf8fffd00U, 0xf4fff9fef702fcf7U, 0xf6f9f4f3f7fcfbfeU, 0xfafefbfc00fbfbfdU,
  0x2fafc03050702U, 0xfd00f9fa090103f8U, 0x500fbfe01fff906U, 0xfb0201fb0403fa05U,
  0x607f90205fbff00U, 0xf90401ff0107fa02U, 0xf802fa0207fcfe01U, 0xff00ff0006050505U,
  0x60606fbfcfcfefbU, 0xa0502fef901fffcU, 0x2f7fc0402f70008U, 0xfafbf803020006f5U,
  0x907fafcf8f90103U, 0x7fd01fe01fe01f8U, 0xfaf9fbff02f904f6U, 0x204090004fbfc06U,
  0x202fdfbfe0000f6U, 0xf60508f904fc02fcU, 0x7fa07fd08020308U, 0xfbfbf6fdfc01f805U,
  0x6f6fc02040b08ffU, 0xfcfefafd03fdf904U, 0x201fe00fefbfe0aU, 0x505fdfdfcfafff9U,
  0xfcf8000505000003U, 0x2000900f908fcfeU, 0xfbf708070801f9fbU, 0x703fcf5fc04faffU,
  0xfdfbfc02fa010a07U, 0xfff9fcf4fe05fd05U, 0x4020100070502ffU, 0x2030600fa02fdU,
  0xfffffa010303f900U, 0x40101f9fbfbfaU, 0xf90004070402fe06U, 0xfffcfb01f906f9faU,
  0xcfe050807070afbU, 0xf9fd01ff0500fc0aU, 0x7080a0703040102U, 0xf8f7f8f5fd01f4ffU,
  0xff040602f90907f9U, 0xfcfafbfd000301fcU, 0xfc0afe02fcf8fff8U, 0xfcf9fd070301fa02U,
  0xfe0100f7f7fd02f6U, 0xf8fefb0208fffdfdU, 0x100fef5ff05ff02U, 0x1fbfffb04fff8U,
  0x2f9f7f706f9f701U, 0xfb00fefa02020602U, 0x6f7fdf7fd0000fdU, 0x3fcf5f501fafcf6U,
  0xfe0205faf601fdfeU, 0x3f90506fa01f9feU, 0xfffd00f701fff803U, 0xfffdf600020303f7U,
  0xfcfdfffe04fafa00U, 0xf8fbff04f8fa0303U, 0xf9faf9fcfefffdf9U, 0xfbfe03f501f70304U,
  0xf50200fffbff00fdU, 0x10401f8ff03fff7U, 0xfa03f7f802f901f5U, 0xfe01000302f702U,
  0xfefdfa01fffff800U, 0xfb00fbf4f800fef9U, 0xff03f9f7fafaf6f7U, 0xfdfaff01fafbf9f8U,
  0x1030200faf6f8f7U, 0x3fdfdfdfeff00f6U, 0xfd03fa0301f6f8fbU, 0xfef903f6000103f8U,
  0xf9f6f9fbfdf7fe04U, 0x5fe06030300fcU, 0xff00fd030404fe05U, 0xf60300f7f9f7fd01U,
  0x2f70705f5fd03feU, 0xfffaf50004f9f9faU, 0x201fc0104fa0404U, 0x2f6ff03fdf8fdfeU,
  0xfcf5f5f9fbfff803U, 0x2fdf6ff03f90000U, 0xfbf7fcff04f80302U, 0xfd04fcff00fdf5f8U,
  0x204fcfcfafb01fdU, 0x405fefc0004f8fcU, 0xf9fbf8f6f800f3f9U, 0x20dfc0904fafdffU,
  0x3f80302f5fbfc05U, 0x1fb0705f400fffcU, 0x200050afa0000U, 0xfdfd02f505f8f7fbU,
  0xf6fff803fefc0401U, 0xff02f6fbf90107ffU, 0xf9f6fafff70101f6U, 0xfafc02f6ff0100f8U,
  0xf7fe0002fcfef7ffU, 0xf6ff09f9fffa02U, 0xf6ff01f80205fef4U, 0x200f6ff05fafffdU,
  0x205fd04fffcfdf8U, 0xfff6fe01f604f9faU, 0xfafd01f5f702fcffU, 0xfe0407050705f6fdU,
  0xf7050bfff8f90703U, 0x3ff05fa0afcfa01U, 0xfbfa09ff0407fbfbU, 0x2fbf601fd01ff04U,
  0xfff7fef6f4fd05f9U, 0xf603f6020205f602U, 0xf8040303f3ff00f5U, 0xfd0305f9fffdfbf2U,
  0xfbfffb06fafdf9fcU, 0xfffffa01040302U, 0x2f208fc0a0b08fcU, 0xf90103fd01f7000aU,
  0xf7f9fa02fefb00f7U, 0xfb02f804f8f7fb03U, 0xfc05ff04020c05fcU, 0xfcfbfd03030308fbU,
  0xff04fffa01f90600U, 0x1f8fe02fefa04faU, 0x2fd08f5fb00f4faU, 0xfb02050509fb03f9U,
  0xf801fefefd07fbfbU, 0xf900fbf702fef5f8U, 0xfdfa0607000002f5U, 0xf9030700ff04fcffU,
  0x50300fafe05fdU, 0x405070508fafd06U, 0x703fcfffdfdfc03U, 0x30704010405feffU,
  0x7f906fe050205feU, 0xfdfafa00fefb0101U, 0xfdfe02070400fffbU, 0x504fc05040701ffU,
  0x4fefe0002060000U, 0x6fd0102fffd0606U, 0xfdfffd0407fa06f9U, 0xfbfb01000003fafdU,
  0xf9fdf9fafdfcfd07U, 0xfd0706fa04fd07fdU, 0x801fb01020705ffU, 0xfa0700f9060100f8U,
  0x50003fa06f806feU, 0x503fc02fd01f9feU, 0xf90704fe05fbfd04U, 0xf9050302f9fb07feU,
  0xfdfcfffffef802fdU, 0x206f9faf8ff05fcU, 0xfb02fcfd0701ff07U, 0xfbfb08000601fa05U,
  0xff04fafefcfefff9U, 0xfffdfd04fc03fcffU, 0xfbfc07f906fd0803U, 0x6fdfff8040207faU,
  0x105fb04fa060001U, 0xfffa0701fd0502ffU, 0xff01f802fdf805faU, 0xf9fcff01f8fc0202U,
  0x40104fc07fb0404U, 0xfd0100060803ff04U, 0x30107fcfa070303U, 0x201fafbfd0204f9U,
  0x4050407fef8fef9U, 0x3060207fffcfdU, 0x2fdff02fbfc03f8U, 0x60306faf9030103U,
  0x6ff07000400fffeU, 0x6f80406040001f7U, 0xf604f7fa05010305U, 0xf7f805f6f8f8f6faU,
  0xf9f800f8fe0605ffU, 0xfffc0005f8fdf9f8U, 0xff030001f8fefffdU, 0x2fefa04fd070304U,
  0x300f805f8ff05f7U, 0xfd0101f804fcfbffU, 0xf6f602f6fd04fb04U, 0xf6f8fafefcfafbfeU,
  0x1030002f7f90105U, 0xf804f7f8f7fef7f6U, 0xfcff01f705f7fef7U, 0xf70304fc02fbfcf9U,
  0x5fdf605f7f9fcfaU, 0xf7ff01ff0606ff06U, 0xf603fd02f7fc0305U, 0x2ff04f903fffffeU,
  0xfe0203f903000104U, 0xf901fcf900fcf8faU, 0xfdfcfffc04fc00f8U, 0x5fafd02fef701feU,
  0x3f9fb0004010600U, 0x4f8f7f9fcfaff04U, 0xfdfb03f603f7fcf7U, 0x3fffafc0302fcf8U,
  0xfafefd00f7f9fcfcU, 0xfb03fd01fffcfd00U, 0xfe03f8f404f903feU, 0xfcfc030500f902f9U,
  0xfe03040404030200U, 0x3fbf802fe00fdfaU, 0x204f7fa00f7fa00U, 0xfa04f8f8f6fbf8fdU,
  0x5fa01fb030402ffU, 0xfaf600fd050400feU, 0xfff8f8050304faf9U, 0xfcfdfe0300ff04fdU,
  0xf9fffef803fb01ffU, 0x502fe04fffefc02U, 0x3f6fafdfafffdfeU, 0xf901fbfdf6f503fcU,
  0x3f5fffefb02f703U, 0xfc01f7f8f907f7f4U, 0xf704f702fcfd01f8U, 0xfdfffd0afaf601U,
  0xf9f9fc04fc00f9fcU, 0x1fa02fcfcfffefcU, 0xfef80004f30204f7U, 0xfbfafb01f9fafafcU,
  0xf3f5fcfe0102f8feU, 0x1fef50401fefff5U, 0xfdfdfaf8f3fefb01U, 0x20102010300fdfcU,
  0xf700fd03fa00f305U, 0xfdf4faf80cfffcfcU, 0xf8fcfd03f7f9fb04U, 0xf7f3f9fcfc01f8f6U,
  0xfcf6f6fb00f8fdf5U, 0xf4f8f5f8f8f700faU, 0xfff5f907f8fbf7faU, 0xfff80302fdf70001U,
  0x20502fe01f902feU, 0xfd01f6f8f806fb03U, 0xfffbf9fdf7fa00fdU, 0xfaf6f704f7f6f602U,
  0x1fffa01fef3f8feU, 0xfefcf5fb01f300f9U, 0xf4faf9fefdfefdfbU, 0xfaf8f1f3f7fbfc05U,
  0xf904faf603fa0bffU, 0xf9fafefdfd02fbf8U, 0xfefef701f5fb02ffU, 0x1f6fffa01fff500U,
  0xf7fc00f90102fd03U, 0xfdfbfdf802fe0202U, 0xf502f7f8fe04fbf4U, 0xfefbf9f9fa02f2f8U,
  0xf6f8fcf9f7fcf8U, 0x200faf6f9f9fb08U, 0xfc0701fcff0405faU, 0x104f700fcf6fa08U,
  0x303fc0100010105U, 0xffff02fc0405fcfcU, 0xfaf800fcf70403ffU, 0xfa000002fdf602f9U,
  0xfbf6fe03fefafaf7U, 0xf600faff00f800U, 0xf8fdfefcf503f800U, 0xfd04f805fa02fcf6U,
  0xfcf90000fe0104fbU, 0x3fffd04fbf8f6U, 0xfb0401fd040304fdU, 0xfbf8fbfdf8fff9f7U,
  0xfef7fcfe02faf2feU, 0xf7040303f7f8fdffU, 0xfef4f605fcfcfeU, 0x202fc03fcf5f903U,
  0x3f4fb04f5f305f7U, 0xfff605fbfe02f3f8U, 0x1f604fc01fefdffU, 0xf7f9f8fffd01f6ffU,
  0x205f700fc0005ffU, 0x4ffff0001f8fafeU, 0xf705fa02f805f9ffU, 0xf5000500faf90502U,
  0xfff9fefe04fb02f9U, 0x4fbf7f6f9f401feU, 0xf70201f6f900faf8U, 0xfd00f8fd02f601f9U,
  0x4fcff010301f9f8U, 0xfdfcfdf801f6f502U, 0xf7fcfcfef605fef4U, 0xfb0101fbfc020103U,
  0xfbfbfffff8f800f8U, 0xf8fef6f5fa040304U, 0xf701fcf8f803f8fbU, 0x401fdf5fbfdf7f9U,
  0x202fef604fffb02U, 0xfb01f8faf9f9fff7U, 0xf805fbf705f906faU, 0xf9fff7fafe01fffdU,
  0xfbf800f805fbfc05U, 0xf801f403f9f8fffbU, 0xfff6f604fbf9f7feU, 0xf902f5f905f6fe01U,
  0xf6fc03fa0205f6feU, 0xfcfc040104fdf904U, 0x5f8faf702f800ffU, 0x4fa03ff01fd0003U,
  0xf5f60104ff02fc00U, 0xf9fafdf900fbfd01U, 0xfbfdfdf704f703U, 0x5fef6fcf8f8fb05U,
  0x2fff9fbfd00f901U, 0xf6020506f700fafdU, 0xfcfafa01fcfefc02U, 0xf9fbf7fcfcfff9U,
  0xfff70204f7fcf403U, 0xfff604f9fefef7f6U, 0x2fafffd05f7fdf8U, 0x4f5fcfbfcf5fb01U,
  0xf7fa02f9f6000400U, 0xfe05fc00fffa00f8U, 0x2ff04fff9fd02feU, 0xf9fefef6f7f705feU,
  0xfc02f704f705f6faU, 0xfe01f6fdfdfc01f9U, 0xfcf8fd0002fffeffU, 0xfbfffbf9fff904ffU,
  0xfd0100fffffa0502U, 0xf5fff8f7f6fdfeffU, 0xf605f6ff04fcfcfeU, 0x200f7f605f5fb06U,
  0x305fa0302f702feU, 0x2f805f601fe02feU, 0xf9fc01fdfd050202U, 0x2f8f6f9fb05f905U,
  0xf6020400fffffefaU, 0x30102fdf5f5fcffU, 0xfcfbf8f9f8fd03faU, 0xfd0203fafbfd03f6U,
  0xf600fd04fe03f9ffU, 0x2fdf9fffcfefdffU, 0x3f7020200fefdU, 0xff0400ff0203fbf6U,
  0xfcfffefe04f9ffffU, 0x5fef9fdfc0102feU, 0x30402050004U, 0xfdfbfef9fbfafaf9U,
  0x606ffff06ff0301U, 0xfe06f904ff01ff05U, 0xff0404fafe00f904U, 0x6fd0604fb0405f9U,
  0xfcfffafeffff05fbU, 0x2fe04fc0106fbffU, 0x602f907fa00fd02U, 0xfa0102f9f90403feU,
  0x8fffcfbfa03fafcU, 0xff07fb0408fc0207U, 0xfdf9fd040006faffU, 0x3fa040606020104U,
  0x20306fd0206fb00U, 0xfe030107050101fdU, 0x50300fefd05ff07U, 0xfd030406fa0603U,
  0xfb0005fb05fe04ffU, 0xf9f9fffb0707fc08U, 0x708f900ff00ff06U, 0xf8fefa0102fc00ffU,
  0xf807fefdf90102fdU, 0xfe030702f8030102U, 0xfafbf9fb07f902f9U, 0x807fc0700040601U,
  0x704050207fffdffU, 0x3fcf9fcfafbU, 0xfe06fd0202fbfe03U, 0x3fbff02fffd02fbU,
  0x9faf800fdfc00faU, 0xfdfcfd0100ff02f8U, 0x1fc0500fc0204fdU, 0x6fb000505010605U,
  0x3fbf9fb0705fc04U, 0xfe00fcf907fe0307U, 0x700fbfa05fc03fcU, 0x701fb04fe080601U,
  0x402ff0207ffff00U, 0xfd01fd02fc06f9fcU, 0x2fefc05fafdfe08U, 0xfb06fbfdfb04fd04U,
  0x7f9fbfe06fe0007U, 0xfefdfe02fb06ff07U, 0x5f3f3f9fd01fffcU, 0xfb0301f8fb01fb00U,
  0xf8f8fb0105080b01U, 0xfefafe01fffffbfaU, 0x7020202fffdf7faU, 0xfafe03fbfdff0202U,
  0xfcf9fa060301fefaU, 0x4ff02fbfd0006f9U, 0x8f600fefe0a01f9U, 0xfffd06fc0501fc03U,
  0xfd0102040403fb04U, 0x7080601f906f7faU, 0x705f9f707fa04ffU, 0x8fa000506fe0605U,
  0x304fa03fbfa05ffU, 0xfa000602fe060405U, 0xa00fff6f603fc09U, 0xfafefa0701f90305U,
  0xfffbfe04f70501fcU, 0x8ff0603050304ffU, 0xf90301f7fcfff904U, 0x9000004fafd0501U,
  0xfefc0005fd07f901U, 0xfdfcfcfff904f900U, 0x6fc04fc060402fbU, 0x3ff0805f90602fbU,
  0xfcfa02fe05fcfdffU, 0xfc030504fe05fe04U, 0xf6000300f80305ffU, 0x2fff60302040206U,
  0x5f801080504ffU, 0x50a04f9f800fdf9U, 0x8fbf6fbfffd04ffU, 0x60701fefc060500U,
  0xfcfa070301f90706U, 0xfc00f906f9f9fefbU, 0x1fc04fa06f9fe00U, 0x6fd00fbfb030507U,
  0x5fbfffb04fcfe02U, 0x602ff04fffb01f9U, 0xfafa080701fdf8feU, 0xf907fcfefe00f607U,
  0xfbff01f9f9fefff9U, 0xfa0705010703fd01U, 0x102fe02020601fbU, 0x30101fffafdfa05U,
  0x1fefdf9fb030501U, 0xfbf901ff050303fdU, 0x7fefb04fefefa01U, 0x7fdfafafd00fcfdU,
  0x4fb010501050204U, 0x7fffb00fe08f906U, 0xfffafff906fafefbU, 0x4fffe00fc0406faU,
  0xf9fe0102fe0603ffU, 0xfc02040507f9f9U, 0xf8fbff06fd050104U, 0xff05010302f908faU,
  0x6faff03000404fdU, 0x5f9f90400fafeffU, 0xfdfbff0704f90704U, 0xf8fc060606040601U,
  0x402000505070005U, 0xf90307ff01f8fdffU, 0x2fcfb01fcfeU, 0x2feff06070101fbU,
  0x50104010402f9U, 0xfa0006f9ff07fc06U, 0xfcfe05000402fdU, 0x1060803fd000204U,
  0x1fafa02fafaf901U, 0xf9fffe01fafd0300U, 0x50504fefc07fd07U, 0x702fdf9fefd08fbU,
  0x405fb06040704fcU, 0x706010802fc0804U, 0xfe04030200fafbfeU, 0xfd030302fa040105U,
  0x6fd06ff0604f9faU, 0x2fa06fafb04fd01U, 0xfd0004fffb0305f9U, 0xfffcfb000603fbfcU,
  0x3f904fdfafef9fdU, 0x307fb0004fc06fdU, 0xf4f805fe06fa07fbU, 0xf502fefe0001fd01U,
  0xf6f602f6f501f8f3U, 0xfa01000001f3f703U, 0xfcfb03fefafbf3fcU, 0xff01f4fbfaf9f5f7U,
  0xa00fffefafc0205U, 0xf90bf6f702fdfcfaU, 0x60507050801fdffU, 0x405fffe05ff0204U,
  0xfb05fdf6fdf70404U, 0x306fc06fcf5fc01U, 0xfcfdf7fafe0700faU, 0x80306fefdfff4fdU,
  0xf304fa04fffaf9fdU, 0x2fa060603f9f8U, 0xf50204fff701f5fdU, 0x3fef7f8fcfd03ffU,
  0xf9fd03faf5ff0105U, 0xf703faf8fc060101U, 0xff01faf60401fb03U, 0xfd03fd01fafaf502U,
  0x2fb02f8fafc06f4U, 0x7fff7f901f7fdf6U, 0xfaf902f8fcf3faf6U, 0xfbf8f3f8fef60200U,
  0x600ff03f90500f5U, 0xf502fbfafdf9ff05U, 0x2f8f8f709f80103U, 0xf6f7fafe0203fefdU,
  0x4fd0105f5f5f9f7U, 0xf8fff9f9fa00fbfaU, 0xfcfaff03fffbf602U, 0xf9f502fefff6f803U,
  0x4ff05fdfe0d03ffU, 0x40203fffe040301U, 0x500010afd02f6feU, 0xf3fcfa02fb08faf9U,
  0xf6f301f304f80303U, 0xf8f7fdf9f3f9fdf3U, 0xfefdfb01fef6U, 0xfe02fbf9fdfff9ffU,
  0xf7fffb0300fcfd01U, 0xf703fcfaf7fb0109U, 0xf8f7f3fb050302faU, 0xcf400f807fef7f9U,
  0xff0806f503f6f508U, 0xfafd01f600fcfbf9U, 0xfafffc01ff06f7U, 0x3f6f904fc02fbfcU,
  0xfd0002fff901f3fcU, 0xfd00030af8fc05f9U, 0xfe03fd070102fcfcU, 0xf7fb01fbf70008U,
  0xf6f801fafefbf50bU, 0xfbf9040403f8fef8U, 0x9fc07fff901f6feU, 0xf4f8fc02f3fffcfeU,
  0xfc0000f7030302feU, 0x202fef606f9faffU, 0x4fe0303fe00f9fdU, 0xfdfcf9f3f9fef7feU,
  0xf8ff00fe04fa07ffU, 0x400fb030500fa06U, 0x5fef602f6fd0205U, 0xfcf80105f802f8f5U,
  0x4faff07fb00f702U, 0xfd04f9ff060201f7U, 0xfafff6f60601fb00U, 0xf9f703fb00f7fef8U,
  0xfdf7fef7f4fa05f6U, 0xfb0301f4faf8f7ffU, 0xfd0403fafffffbfaU, 0xfaf9010100f6fc04U,
  0xfe05f70204fc0303U, 0x3f506f9fb07f8f5U, 0xfa0502fbfbf601f7U, 0xfafc03fb0308f9feU,
  0xf9fdf8f802fdfd08U, 0x1f6f6fefdfcU, 0x2f802040bfa04f9U, 0x302070100f604f9U,
  0xfe06fbfff8f6f902U, 0x3fffffb03fdfafcU, 0x8fcfe000002ffU, 0xf8f8f6fa0103f901U,
  0x1f9fc02f8f80005U, 0x4fbf801fa0402faU, 0xfbfcfd03fb0303f7U, 0xf6fc0002f702faf8U,
  0x4fe02f601faf7fbU, 0xf7fef9f701f5f502U, 0xf6fc00f6f7fafff6U, 0xfcf801f800fcfaf7U,
  0xf704fc00fcf6fefdU, 0x101fd05fdfcf9ffU, 0xf7fbfafcfaf5f6fcU, 0xf8fbfffbfcfbf8fdU,
  0x1f90302f8fb0401U, 0x3f7fbf70402f9f6U, 0xf60300f8f800fcfaU, 0x200fd01f6fcf603U,
  0x4fc02fdff02faf9U, 0xf9fef5fbf7fd03feU, 0xfd0404fdfc0400U, 0xf9faf902f9fd03feU,
  0xf9fcfdf8f903fef8U, 0x50002f6fc020300U, 0x202030303fffd02U, 0xf8fcff02f60303feU,
  0xff05f9faf6f902f8U, 0x1fcf6f801fcfafeU, 0x2f7f5f601faf8fcU, 0xfef802fafff9f7f9U,
  0xfd03fbfd01f8f804U, 0xf8f703f6f8f9f6fbU, 0xfcfcfd02f801fcfbU, 0xf900fafffb04f904U,
  0xf9f805fa0002f7fcU, 0x1f7fef6f6fffdf9U, 0xfbf80404fcf903f9U, 0xfdfcf703ff03fef7U,
  0x20300ff01f80002U, 0xfcfcfe02f8f6f905U, 0x3fdfefcfc020003U, 0xf704ff02f7f9f8f7U,
  0x304fb01fe0000f8U, 0xf5fffbf8ff04U, 0x30af7fd0408f809U, 0xb07f8fd03fa0604U,
  0x2f5faf7fc0a0103U, 0xfd05f8f8060400feU, 0xf8040005fef8f5f6U, 0x701fa07f9fdf9fbU,
  0x508fc0209040204U, 0xfefff8f90800f9ffU, 0xfc070602fcf6faU, 0xf8fdff07f7f6fa03U,
  0xff01f8fbfbfaf9feU, 0xf402fc0601fe07fcU, 0xfcfef7fb03f804fdU, 0x6f804fb0202f7ffU,
  0xfef8f7f7fcfffef6U, 0xfcfdfc02f701f3fbU, 0xfe030cfaf8010804U, 0xf60801040006ff03U,
  0x30005fc04fa02fcU, 0xf9fd02fcf805fb00U, 0xf60804f9ff04f701U, 0x503fbfefb03f7f7U,
  0xff01fffcfa0006f9U, 0xf90bfdf6fefcf801U, 0xff010007fffff601U, 0xfbfff8ff02f6f6fdU,
  0xb00fdfb03fff7ffU, 0xff0502f904fcfefdU, 0xff04f6fe00fdfff9U, 0xfef9fdfffe0402U,
  0x103f505fefbfdfcU, 0xf9fffd000003f6feU, 0xfcfdf40206010bf5U, 0xfb05ff02f8fcfe03U,
  0x803030100f702f7U, 0xf70003f706f6f705U, 0x3f90bfd01ff0700U, 0x3fef9f706fe0901U,
  0xfbfa03fe03f909faU, 0xfa020201fd0401U, 0xfd04ff03fef8fd02U, 0xf7fe03fd04f90503U,
  0x2ff02fa000000feU, 0x3fbf80503050204U, 0xf8fe04fb01fff900U, 0xf602fcf50600f800U,
  0xfaf7fbfcfd01f5faU, 0xf500020004ffff04U, 0x301f6fcf5fafaf5U, 0xfdf8f9f700fc0001U,
  0xfff7f6f801fbfbffU, 0x4fbfbfdfd00f9fbU, 0x1f40406f8ff00f6U, 0xf7fff603fe03fdU,
  0xf8ff00f7fdf9fefcU, 0xf9fe05fb03faff01U, 0xf803fffdfafff600U, 0xfe01fe06fa0106f7U,
  0xf7f9f7ff01f9f8f9U, 0xfc00faf6f802fff8U, 0xfcf9fcf503f8f9faU, 0xf6f7fcfb00fafeU,
  0xf7fbf702f900fcfdU, 0xfafc00fff6fd04fdU, 0x4faf8050306faU, 0x5fef7fef9fcfdfaU,
  0xfffd05fcf800f7ffU, 0xfdfafdf90201fc02U, 0x4f9fff9fb0403fdU, 0xf805fa0104f9fc04U,
  0xfdfbfc0405f8fa00U, 0xfeffff05020305faU, 0x30107f902f6fbffU, 0xfe0300f8f6f7fff7U,
  0xf9fc03feff02f704U, 0x4f603fbfef90402U, 0x10000fd02040003U, 0xfffc040304fff602U,
  0xf703fafdfdf90301U, 0xfef800fe04f80006U, 0xffff05fafff9fcfdU, 0xfafdf8fafef9fc00U,
  0xfd01f9fdff000002U, 0xfaf901000302fafcU, 0xf8faf6fafdfef7fcU, 0x2fef9fef901fdf9U,
  0x7f8faff040bf9U, 0x705f8f90a00fc03U, 0x806fb0305000307U, 0x305ff05050302faU,
  0xfefefafef8fbfc07U, 0xf8fa03fbf9fd02fbU, 0xfdf70806fbf90102U, 0x3fffaf901fc0703U,
  0xfd02fe0704fefefbU, 0x2fe0403040407U, 0x1fffafe0401fd04U, 0xfa05fe0208fbfff6U,
  0xfdff01fcfffcf604U, 0x6fb070003f9fdfeU, 0xfdf8010306fe040aU, 0xff010501fe01f807U,
  0xfe00f906fa01fffcU, 0x2000201f9fbf9ffU, 0x8fffd07fd02fbfcU, 0xfc07010304fafe01U,
  0x2fdfcfff6fc07f9U, 0xfa0202fbfa03fefcU, 0x4fdfbfc0800ff00U, 0x404fefb03faf903U,
  0x5fefcff000003faU, 0xafdfbfafc04fdfaU, 0x5020504fbfa04ffU, 0xfbfa04fd02fcf9U,
  0xfefcfc03000505fbU, 0x10503f50102fef9U, 0xff07fd020606f9f8U, 0xf9fefb0005f900U,
  0xfa0603fcfaf8ff05U, 0x3fef905faff03ffU, 0xffffff07f90800feU, 0x106f807fcf9f9f8U,
  0x609fcfdfafa0607U, 0xfa04fff902fffe06U, 0x400fd000404fbffU, 0xf9fff6f6fefbfafbU,
  0xfdfa04feff010408U, 0xfef901f8ffff01fdU, 0xf704fbfef5f7f704U, 0xfe03fafff9f60103U,
  0xf8fc03f7fefd01U, 0xf5fcf800fefdfef8U, 0xfdf5f804fdf8f6fcU, 0xf80300f9f8f70403U,
  0xfefeff02fff6ff02U, 0xfafaf703020203faU, 0xf8fbfd02ff0003fcU, 0x2f6faf6fef70404U,
  0x20401f801fafafcU, 0xf5f904030403f703U, 0xfffbfbf8fcfe06f8U, 0xfb0403fb02f9f505U,
  0xf7fb00fcf504feU, 0xfdfbfdf8f5fa01f7U, 0x100fe0100f503U, 0xfaf8fdfef9f6fafaU,
  0x1f8f7f8f8f8f5fdU, 0x1fbf7fafb020303U, 0xfc03f5f9faf9fff8U, 0xfffd03fff5fa02f7U,
  0xf9f9f9fbf50103fbU, 0xf6fbfd0001f9fdfcU, 0xfe010102fdfc01fdU, 0x4fbfd04040003f9U,
  0x401010202ff02fdU, 0xfff7f7fafafcf600U, 0xfbf50402f804fbfbU, 0x3fd03fffff801fbU,
  0xf8f7fffafafeffffU, 0xf90303fef60404fdU, 0xfaf8f5fbfb01fbf9U, 0xfbfafdf8f602fc01U,
  0xf60200f7fbfd0003U, 0xf9fdfafd010000f9U, 0xfe0401f800020405U, 0x1fcf904f8fbf904U,
  0xf605fdfbfefffbf9U, 0x4ff0200010500fcU, 0xfafe04fc03f9f9f7U, 0xfef8fdfff6fcfcU,
  0xfa03ff00fbf80400U, 0x705ff05fa040702U, 0xfef8fffbfff704feU, 0x101000c01f9fa01U,
  0xfffb0107000304f4U, 0x2f803fc06fe0204U, 0x202ff00fd0703ffU, 0xf8f7020609faf702U,
  0xf3f5f801060102fbU, 0xfef8fdf8f7f5fe00U, 0xf9fbfc02fffb0302U, 0x2040903f7f702faU,
  0xf90102f905fcfa09U, 0xfaf604fafd05fcfbU, 0x302ffffff08f703U, 0x6fbfbf802fc08fcU,
  0xf8f6fdf8f6010102U, 0xf905040204f90302U, 0xfff50102fe0003f5U, 0x5f7fefbfdf6f8f2U,
  0xf5faf4fcf701fff9U, 0x2f9fe02fe01fbf4U, 0xfbfd0503fdf9f707U, 0x5fbf7f70bfef6faU,
  0xf6f50007fafd0705U, 0xfcfc00fdf6fcf807U, 0xfb0403fb0206fefcU, 0x3fd00fcfb01f7ffU,
  0xfa08fe02fbfdfbf8U, 0xfe0204f7faf9fbf6U, 0xfdf801f604f207ffU, 0x3f90703f6080102U,
  0xfcf5fcfb02faf9f9U, 0xf9fdfe00f5f50606U, 0xf802fdf6fefcfbfeU, 0x100f6f503f7f405U,
  0x9fcfbf604fc04faU, 0x4fb00020603ff0aU, 0xff06fff7f6faf7f7U, 0xfd00fcfefcfbfbfaU,
  0x4f806fa08fdfeU, 0xfbfd0600f604f9f4U, 0x30100fc0101f702U, 0xfa040707f90505f9U,
  0x2fbfa040203fafcU, 0xf8fd010705fc00f9U, 0x10306f8fcfe0708U, 0x60301fd0003fbfbU,
  0x50401060204f808U, 0xfb01010805fcfd02U, 0xfeff01fb03faff00U, 0xfd0002fe0403fdU,
  0xf907fd04fbfd06U, 0x407fcfffbfb06fcU, 0xfe07f90501fbfcffU, 0x7f9fbfafdfd0708U,
  0x202fb01060103ffU, 0x607fbfcfcfa08faU, 0x100010102fd02faU, 0xfc0100f8fafbfb04U,
  0xf9f9ff08fd040706U, 0xfaf9050604fc0608U, 0x70504fa060506f8U, 0x2fb03fc020205ffU,
  0x3fefafc0308fbU, 0xfd050404fb030006U, 0x30306020503fcU, 0x6fafe00fa0703feU,
  0xfb010605faf903U, 0xf8fd05fb06f90003U, 0xf9050604f902fdf9U, 0x2fb08fe06fefa03U,
  0xfffb03ff07fcfbU, 0xfcfdfcfd000105feU, 0xf90807060606f900U, 0xf902f9fafe08fef8U,
  0x302fa010600fa02U, 0xfc0506fdfffbfeU, 0x4fbff0304fc0202U, 0xf8f9f903fb060205U,
  0xfdfa04fb0301fbfbU, 0xffffff0300fffe06U, 0x5fffc07fa04fe08U, 0x6fdfb0708ff06ffU,
  0xf9020605fff9fbfaU, 0xfcf6ff03f700fefbU, 0x200f5f8f6fcf6faU, 0xf9f8fa0001f6f802U,
  0xfd03fdf800fd05U, 0xf6f900fa04020002U, 0xfbf6f901f704f9fdU, 0xfa03f5fe02fb04f9U,
  0x302f7fb00fc00faU, 0xfcf9f5f5f5fefbf8U, 0x1f800fbfff8f7f6U, 0xfffcf6fafefcfdfeU,
  0x4fbfdfa01f7fafcU, 0xf9f8f7fdfafdf9faU, 0x3f8fdfbfb02f805U, 0xfa02fe00fcf9fefdU,
  0x1f8fb00020001f9U, 0xf7fd04f8fefbf604U, 0xf5f8f8f9fdfcfdf7U, 0x4fbfdf7f800f602U,
  0xf6f5f603f7fdfefdU, 0xf7fbf8f801f90301U, 0x1fdf6ff04fff903U, 0xfaf9fb0300fc02fdU,
  0xfdf800fd00f7ffffU, 0xfefff60002f5f7ffU, 0xf804f603fe02fc02U, 0xf6fef901f5f9f7f9U,
  0xfbfbf60001f6ff01U, 0xf9f701fffb04f9f8U, 0x203faffff00f5fcU, 0xfef602f500fb03U,
  0xf7fd01fe04f6f5ffU, 0xfd00ffff00f901f5U, 0x3f704fdf700f700U, 0x2fefdfbf7f6f700U,
  0xfdf500f8f7f702fcU, 0x400fbfcfff6ff03U, 0xfef8fc05fcfb01faU, 0xfcf9010005fafaf5U,
  0x2fe0001fcff0001U, 0x502fa0504faf6faU, 0xfefbf604f70402ffU, 0xfef7fef9faf90400U,
  0x3fb04fcfa01ff01U, 0xfb0301f703fff901U, 0x1fcf8f704030002U, 0x100f5fefd02fb04U,
  0xfcfffefbfcf7fffaU, 0xf803fcfcfcfc0002U, 0xff02f9fe0201f7f7U, 0xf90201fefff6f6fdU,
  0x40101fe00fcfd01U, 0xf8fa00fb0000f601U, 0xfcfcf60001fbfe03U, 0xfa0402fffffe02fbU,
  0x203fa0301fa0400U, 0x4fef5f9fffcfa03U, 0x4fefdf7030001fdU, 0xf5f9fef901f9fbf9U,
  0xf8f501fb02fbfdf6U, 0xfd02fa00fd02f804U, 0xf9030101f6f7fcf8U, 0x4040300f900fffbU,
  0x4f7fefe04fefbffU, 0xff03fbf4f6fdf904U, 0xf4fafcfdf7f7f5fbU, 0x4f5f8f9fbfcf9f7U,
  0xf8f904f7f5f9fcf9U, 0xf9fbf7f504f900feU, 0xfafefcfdfcf9f501U, 0x2fefbfaf7000402U,
  0xf90401fbf8fefafeU, 0x1f80303fb01fbfaU, 0xfdf8f5fb0401fff6U, 0x4f7f902f5fdf6fcU,
  0x200ff00f6020300U, 0xf7f5f8000103f9f9U, 0xf603f9fa03f9f8f4U, 0xf8fd02f5fdfafaf6U,
  0xfff702f802f9f5U, 0xf6fffffbfafdf700U, 0x2fefefdfff8f902U, 0xf5fcf701fe03fef6U,
  0xf703fa04fb0602ffU, 0x2f9fbf7f7fff700U, 0xf502fc01f9fd03U, 0xfff50304fff5faf7U,
  0xfaf8fef9fe03fcfaU, 0xfcfd03f6ff00f504U, 0x3f8f701f9010204U, 0xff02fcfbfefffef8U,
  0x2fff9f9f6f9faf6U, 0xfffef901fffd0002U, 0xfcfcf704f80301f9U, 0x2f6f6fc04fffeU,
  0xf6fe010201f902f7U, 0xf704f5f6fef9fffdU, 0xfef8f6f6030000f8U, 0xfcfff5020001fef8U,
  0x10201f50003fff9U, 0xfd01f6f5f703f500U, 0xf904f9fdfd00fff5U, 0xfb03f804ff03fafaU,
  0xf602fc00f8f70004U, 0xf6fbfdf9ff01fcf9U, 0xfdf6f80301f7f8fbU, 0x4f703f601f504f6U,
  0x301fefcf602f7faU, 0xf7ff030300f7f6fdU, 0xfc01f502f5f9fcf6U, 0xf7f9fafef801f7f8U,
  0xfffdf504f8fdfaf6U, 0x3fff9fafef601f6U, 0x2f6fbfbfd0402faU, 0xf7fd0102fff7f6fdU,
  0x2fffd01f90001ffU, 0xfffffd01f7f904fbU, 0x2f5f7fdf5000103U, 0x400fb02fcfcfbfaU,
  0xfd00f503f9030202U, 0xfc0303f8f900fff9U, 0x2f803f602f7f901U, 0x2f9f6fff7000000U,
  0xfbfdf6f8fcfbf9f6U, 0xfd03fcf60302fffcU, 0xfcfc01f5f700f504U, 0xfbf503ff03ffffU,
  0xfa0301f9fbf5fcf6U, 0x304fafbfe01f602U, 0x1fff7fc02fdfefcU, 0x202f8f603fdfb03U,
  0xfffb01fdfbfdfafaU, 0xfcfb01f7040203fbU, 0xfc03f802f5f804fdU, 0xf7f80202fff602feU,
  0x301fc030202f800U, 0xf6fd0401f700faf7U, 0xff00f8f6000003U, 0xfc03f7fef5f901f6U,
  0xf7fafa01fff9fd00U, 0xf9f600fffaf5f604U, 0xfcfcfdf9fdfafbf6U, 0x1f6fbf9f6fefeU,
  0xfef6fbf9f902f5feU, 0x4fdf9f7fff60204U, 0xfefbf60102ffff01U, 0xfff80203fef5fcffU,
  0xfb04fcf6fb0004fdU, 0xf8fff5f7f6fcf9fbU, 0xfc030300fefa0001U, 0x3f7fefdf801fdf9U,
  0x301fd02fdfaffffU, 0xfbfffcf5fef7f9feU, 0xf6f9f9fff6fbfeffU, 0xfd0003fe0302fbfcU,
  0x1f9f704fcfffe01U, 0x100ff01fafefff7U, 0xfcfefaf5faf700fbU, 0x3f7f602fff6fdf5U,
  0xf8faf5fff702fefdU, 0x2fb02f8fdfbf9f7U, 0xf8fb04f5f704f5faU, 0x2f9fdfcfdf903f6U,
  0xfbfcf901fef5f604U, 0xfdf7f7ff04fafafeU, 0x3f902fdf8f6fcf7U, 0x2f7fcfcf504f6faU,
  0xfffafafcfe000000U, 0xf5fdf903f6f8fbf7U, 0xf5fcf9fbfef5fefeU, 0x6030106fefa0503U,
  0x4f8fc060502fa03U, 0xfafbfe050607fa07U, 0x7fc04fcfe0106fdU, 0xfdfa00000506f8faU,
  0xfffc05fbf90504f8U, 0xfdfa01ff02fcfc05U, 0xfd03fafdfcfffff9U, 0x7fa020704f9fa02U,
  0xff0604f8f9f80106U, 0xfa0703ff030800fdU, 0x800f901f905fa01U, 0x4fd06fe00030602U,
  0xfe040203fe0704fcU, 0xfcfb03fa02f8fc01U, 0x20202fb07fa08fbU, 0x1fdf90604030301U,
  0xf800f90600fffeU, 0x1fa0304ff02fdfbU, 0xfcfffe00fb080605U, 0xf9fdfdf9fd0700f8U,
  0x4ff030404f9fc06U, 0xf9f9fd04fbfdfa01U, 0xff0003f9fa08fe01U, 0xfefc020207fdfb02U,
  0x4fe0104010501feU, 0xfe07010606ff0102U, 0x7fdfc040703f807U, 0xfc03030702fff9feU,
  0xf906fe050805f9feU, 0xf906f9020004fefbU, 0xf904fafdfff90506U, 0xfc04060504f90205U,
  0x704050003fefbfeU, 0x502000401faff00U, 0x401fa070602ff01U, 0xfe0305fff9ff02U,
  0x3fc060303f8f9fcU, 0x2fb02fc0404fe03U, 0x201fc0206fa02faU, 0xfc03fb04faf9fb08U,
  0xfeff0604fa050100U, 0x2fd0005fdfd06f9U, 0xfdf9030106fafb03U, 0x50100010400f9U,
  0xf9060103f904fefeU, 0x1f50402fdfcf9fcU, 0xfffd0707fc01f9fbU, 0xfa0207ffff000602U,
  0xfe00f7fb0704fafaU, 0xfc0803fffbfef9fcU, 0x5f804040304fef9U, 0x3fbfe0200fbfcfeU,
  0x1040000fe0505fdU, 0x8f9f5fbf7faf502U, 0xf903ff0608fe07fcU, 0xf7f7030003fbfe04U,
  0x6050606fff9f5faU, 0xfefafaf9f9faff07U, 0x1f7fc0704ff07fbU, 0x7060706ff050500U,
  0xfdfa05fd04030300U, 0xfafcf90303000507U, 0x105fcf9fbf806f8U, 0x2f902fcfafe0400U,
  0x6f8f90600f80002U, 0xfb07fe03f9040701U, 0xfbf504fa02fbfe01U, 0xfdfc01fbfeff0304U,
  0x80102fe04fd0707U, 0xf9ff01fd00fc0007U, 0xfcf7f6f90405fdfcU, 0x103fc0607010406U,
  0xfc05f9f804fa0705U, 0xfcfa060506fef806U, 0x30602fafc000005U, 0x1fefe0703020800U,
  0xfd0103f9f504ff06U, 0xf900fbfb02fafaf8U, 0xf504fbfe020105f9U, 0x30301ff0000fe08U,
  0xfdff06fefb03f5f6U, 0xfb0205fcfd000703U, 0xf9050107fefe0707U, 0xf9ff0102f9fb0604U,
  0xfdfc02fffb020600U, 0xfd0506f903fd0802U, 0xfe010700fa04ffU, 0xfb0404fdff02fef9U,
  0xfe040001fa0106fdU, 0x602f9fcf5fb0503U, 0xfc06f90703fc04f8U, 0xf70207fff90502f5U,
  0xfe08fafefd0104fbU, 0x4f90104f901f9f9U, 0xf804fef8fb030100U, 0x2fffcfa010500U,
  0xf60502060404fff5U, 0xff00f5ff04fe0503U, 0x208070201fa0108U, 0x306fafbfd070506U,
  0xf9ff0401fcfa06ffU, 0xfd030801fe06f9fcU, 0xfe0404fd08060704U, 0xfefbf9fc03000106U,
  0xfafafff9fafdfd02U, 0x3f9fbf9fbfd03fbU, 0xfaf9050305010502U, 0xfefafff9fb02fd02U,
  0x3fe02060601fb04U, 0xfffbfaf90207fbfcU, 0xf9fefbfcfb0102fcU, 0xfc07ff0006faf8f9U,
  0x303050103f901f8U, 0xf805fdf507070307U, 0x303fb0104f9fdffU, 0xf9f9fcfc02faf4feU,
  0x603fafd000205f9U, 0x6070406fb08fef9U, 0xfa0200fe0104fe01U, 0xfcfcfbf905fbfaU,
  0xfbfffb06000302fcU, 0xfcfb07fff90407f9U, 0x6fb0507fcfd00fbU, 0xf8070203fafd04fbU,
  0x3fcfa04fa080504U, 0x808fafbf906faf8U, 0xfafafa0508fd03ffU, 0x7f9fdfe01f6f5ffU,
  0xfbfd04f601f90002U, 0xfcfd00fafff808f9U, 0xf80602fbfaf905fbU, 0xf7fafb070001fcf9U,
  0x2feff00f7f9f9faU, 0xfbfe07fefbff0205U, 0x10600f6fafdfd04U, 0xf1fe04fb0203faffU,
  0xf2fcf6fb0607fff6U, 0x201f8fc02f8f8ffU, 0xf70401fbf9f8fe05U, 0xf905040001030004U,
  0x4fe04fd0404f603U, 0xf9fcfb06faf8ffffU, 0x201fffff8f900U, 0x305060402feff01U,
  0x50004fbfffc03ffU, 0xfdfdfb04ff000200U, 0x7faf50702f9fa06U, 0x7040204fb03fc02U,
  0x1ff010307ff0100U, 0xfefefff60704f9f7U, 0xfd06ff05fcfef9U, 0x3fcfdff07f9f9f9U,
  0xfdfcfe04050201f7U, 0x304fefef8fef9fcU, 0xfaf400f4fbfefefcU, 0xfef500f8fcfef4fbU,
  0xfb01f9fdf7000102U, 0x2f9f8fdfbfff7f8U, 0x303f6000404fffbU, 0x308fdf9f9fe0303U,
  0x3f7fbf5fa00f905U, 0x1fd0207fefc0701U, 0x2fb020102fefefdU, 0xfffb0503fbfb0300U,
  0x1fcf7fd03fb0202U, 0xf6fdfb04f6f602faU, 0x6010004fa00f803U, 0xfb0403fdfcfefcfaU,
  0xfbff0200f60203fbU, 0xf904f4f9fafcfdffU, 0x1f8f6fffafaf7fdU, 0xfcf6f903fff7f6f6U,
  0x3f7f8f6f8faf9fbU, 0xfafffbfbfff404f9U, 0xfef9f7fafbf8f6f6U, 0xfff7f8f8f9f9fdfeU,
  0xf6fbfffdfdfafb03U, 0xf5fbf60202f9U, 0x3fff9f200fcfdffU, 0xf8fffd00f9fff9fbU,
  0xfbf9f8f7f3fdfdfaU, 0xfcf5f8fefefcf6f5U, 0xf6f2fbf802fa02f3U, 0xfaff03f9f8f8faf9U,
  0xf9f6fe01f901f5fdU, 0x2f6fef7f4fafcf8U, 0xf6fffa01fcfefffaU, 0xf3f7f8fffa0100fdU,
  0xf9fcfdfdfafafff4U, 0xfe04fcf5f8fa01U, 0xf6f7fefdfe0104fdU, 0xf703fbfb02fefdffU,
  0xf600fff2f2fff4feU, 0xfffefdf7f9f8f5fdU, 0xf8ffffffff01fd03U, 0xfbfefbf700f9f203U,
  0xf9f7fe02fdfef6f5U, 0xfff5f9fffbf5fdf7U, 0xfbf8f303fcf503f5U, 0xfefafffdf8fc03f7U,
  0xfafcf4fbfdf800f6U, 0xfef901f3f7f7fdfaU, 0xfe08f7fc010503faU, 0x1f6fff602f702f6U,
  0x3f5fcfef9f6f6f7U, 0xf8f301f6fdfcf8fbU, 0xf800f500fcfdfff2U, 0xfaf90101f60401ffU,
  0x1f7f6fbf6fef5f9U, 0x10103f700f6f8f5U, 0xf7f802f70205f904U, 0xf804fcfe01fefd00U,
  0xf5f601fe02fd02f8U, 0x203fef901f70103U, 0xf9fff9fbfdfa01f7U, 0x4fb02fff9fff7f8U,
  0xf801f5f60301fffeU, 0xf70401f70401fb03U, 0x3f8fcf4f9fdf503U, 0x101f7f80103f701U,
  0xfdf9f7ff00fc0100U, 0x4fff904f7f9f8f8U, 0xf8ff0400fffafdf7U, 0xfef8fafefdf500f7U,
  0xfbfe03fc00fbf904U, 0xfdfef900f8f9f904U, 0xfef60402f702f9faU, 0xfa030101fbfc02f6U,
  0x2f5f804fafcf902U, 0x204fffb010200U, 0xf900fff902fff5fcU, 0x4f5f903fff8f8f6U,
  0xf90203ff01fef5f6U, 0x104f604fbfdf8U, 0xf7fa0400fbfffefaU, 0xf9f8f7fafd01f7U,
  0xfffdf903fdfcf8fcU, 0xfaf9fdf6fa0403f9U, 0xf9fefaff00f5fcfeU, 0x3f703fcfa020400U,
  0xf8fafbfffdfefd03U, 0xf6f5fafb04fdf501U, 0xf7fff9f6fa01fbffU, 0xf602f8f504f4f7f7U,
  0xf9fb02fafbU, 0xf8fffffaf7f7f903U, 0xf6f9fcf6fff7fef6U, 0x103ff0302f9f9U,
  0xfff5f8faf8000003U, 0xf7f8fa04f803fa02U, 0xfafbfc03fef7f501U, 0x100f7f6fef7faffU,
  0x2f6fb04ff0200fdU, 0xfafaf5fdfcfbfc00U, 0xfafff5fb020003faU, 0xfdfcf6fc01fefbfbU,
  0xf8faf8f7f5f8f5U, 0xfef804fb04fe0202U, 0x1fcf5fe02f5fef9U, 0xff01fb04ff0301U,
  0xf8fcfd0200f8f5ffU, 0x30201f800030301U, 0xfafafffef8f6f503U, 0xfbf8f801f6f7fff5U,
  0xf7fefbfdfbf5f9f8U, 0xfc0601fe04faff00U, 0xf6fafd03f6f8f9f5U, 0xfbf402f9fd00fffbU,
  0xf60104f8fc03fe02U, 0x40102fdfbf5fcf4U, 0x4f602f500f902faU, 0xfef5f6ff01fafcU,
  0xf8f504f4030302f4U, 0xf8fff8f502fe01f5U, 0x2f5fe01f9ff03faU, 0xf9ff04fdf8f9ff00U,
  0xfff7f6fbfe00fa00U, 0x2f5f6f6f500f9fcU, 0xfdfaf9f603f5fafbU, 0xfdfbf600fdf9f9f7U,
  0xf6fdf9fdfbf803ffU, 0xfffe02f80304f7ffU, 0xf6f5fc00fc04f602U, 0x1fbf8fef6f5fff5U,
  0xf7fcf5f604fdfcfbU, 0x3fd02fffdfdfdfeU, 0xf5fdf704fcfcfff4U, 0xfa01fd01fbf901fdU,
  0xff01fc030104fcfbU, 0x2fcf8fb0000f600U, 0xfefdfcfb0302fd01U, 0xfa03fafa08fe04fcU,
  0xf6fefdf5f5f8fcf7U, 0x8f6f5f5fcf6f9fcU, 0xfe03fa01fa00fefeU, 0x4fdf704fefa03fbU,
  0x303fa07fbfc02f6U, 0xfbfdfa01fcfafafaU, 0xf904fff8fcf7f9ffU, 0x1f6fef7fdf5fe05U,
  0xfa0203f7fdf8f700U, 0x1f9fd04fefef903U, 0xfafefafc0101f6f8U, 0xfffbf6f9f9fefff9U,
  0xfdf9fbf902f5f7f6U, 0x1fd02f801f70501U, 0xfa01f8fdfb01f8ffU, 0xfcff0601fdf703ffU,
  0xfaf7fe01f800f601U, 0xfdf6fbfa04f6fef6U, 0xfef8ff04fefff501U, 0xfbfaf7f90004fdfcU,
  0x203fefa02faf701U, 0x803fd03faf6fcfdU, 0x2fe03f9f5fffbfcU, 0x103050601f9f5U,
  0xf9fc02fefb0102faU, 0x2f507f8fdfbf902U, 0x2fcf6f9f7fb02U, 0xfbfb0204fff9fef8U,
  0xf902fdfaf9f8f9fcU, 0xfdfcf70402fffafeU, 0xf7faff03f6fdfbf8U, 0xfe04010301fff6f7U,
  0x4fdfefb01f70105U, 0x2fbfefefcf90101U, 0xfc0407faf6f9fcfaU, 0x4fafdfef7f70201U,
  0xfdf6fcf8fef70203U, 0xfe00f707fd02fef9U, 0xfbf5fdfbf603f703U, 0xfa0602000103f603U,
