/**
  ******************************************************************************
  * @file    network_data_params.c
  * @author  AST Embedded Analytics Research Platform
  * @date    Fri Apr 26 16:03:32 2024
  * @brief   AI Tool Automatic Code Generator for Embedded NN computing
  ******************************************************************************
  * Copyright (c) 2024 STMicroelectronics.
  * All rights reserved.
  *
  * This software is licensed under terms that can be found in the LICENSE file
  * in the root directory of this software component.
  * If no LICENSE file comes with this software, it is provided AS-IS.
  ******************************************************************************
  */

#include "network_data_params.h"


/**  Activations Section  ****************************************************/
ai_handle g_network_activations_table[1 + 2] = {
  AI_HANDLE_PTR(AI_MAGIC_MARKER),
  AI_HANDLE_PTR(NULL),
  AI_HANDLE_PTR(AI_MAGIC_MARKER),
};




/**  Weights Section  ********************************************************/
AI_ALIGNED(32)
const ai_u64 s_network_weights_array_u64[48197] = {
  0x9e62e33c6e7deaaU, 0xe1f7656a663464dfU, 0xbe2d2704e1abd7d5U, 0x8187fd3b6b152435U,
  0x19facba18bbb8ce8U, 0xdf91fc5a646b1f0aU, 0x2459aed3beafd7adU, 0xa185fbcb5a510d35U,
  0x5a311029c8e4b9c3U, 0x4310fb33036d6666U, 0x1475f7310e301800U, 0x2e362802af0b7a14U,
  0xec134fe75dd4fad0U, 0xa9e42c08a4d3b218U, 0x30200c5b4d3ec2dcU, 0xcf92add007bab9e3U,
  0x8c7a72441737eec5U, 0xc9a3d08192ffcee0U, 0x9a173b0cf7cdfd2aU, 0xedf4d431b21fbb22U,
  0x8fe5d2416810ef49U, 0xf919d2d5e6a598e9U, 0xeba887ed1d446d04U, 0x2d5cdf3303bcdfcaU,
  0xc8f3b99afa6a7357U, 0x1f064542ebd90602U, 0x19f5a9addca43067U, 0x432d0312340a1e18U,
  0xc29b1c818fb8e47fU, 0x1a45d4ba14eb010fU, 0xf4b9e688a1dd0d0fU, 0xf4efe5c439adcfbaU,
  0xbce2e5f1b5d4b0b0U, 0xd6d6120d36fb56f5U, 0xff26d55a371719b1U, 0x17e1f47d24487d0fU,
  0x346f3e371a413642U, 0x27001451586d0229U, 0x3351003807e828f2U, 0xf46b0156fe3216U,
  0xe3414238f0534954U, 0xa3731280351cdb2U, 0xa6be020fe40f0fbdU, 0xeff7483f37e7489dU,
  0x9e06b1a9d0fbb5f2U, 0xcdc50c1ff149ec1aU, 0x8dab8a81a6c6e6c8U, 0x42ccbeab091f1e04U,
  0xd8798dc11059a484U, 0xa0ecb141cb6f2513U, 0xcba40fd737af6382U, 0xdc51b4fc8188663aU,
  0x964a8f7c6cda3ee6U, 0xdae4ebb48107c809U, 0xd198d7e8c6c4dff3U, 0xb9e1f64ac35a2834U,
  0x31d400003934U, 0x5d200001992U, 0xfffffa66000039caU, 0x5e7f606dffff8dfcU,
  0x9884656335a19b7U, 0x990407eccae3e5fdU, 0x17250ef4cf06e4d9U, 0x292213aff1619b3U,
  0xad200eb2f5a898caU, 0x4b18e942ec28d9dfU, 0x1cbdcae5c5190607U, 0xf2cf33e8f2ecb805U,
  0xcacae408f81ebbd1U, 0x3dbbae5d00e04e3U, 0x31f3f94106b724f3U, 0xb3723471755c3fbU,
  0x1c0607ea3916fe17U, 0xe2000601e0133503U, 0x134b714ce5f7e522U, 0x143361c722c273bU,
  0x27e209eb121c182aU, 0x13733458141ffffaU, 0xf330144761611c3eU, 0x4c3b210901353f63U,
  0x27453157140d5252U, 0xec254a5d3168dd47U, 0x111bed1a667f7149U, 0xcebd2e7fa1f3f43U,
  0x94014e7d001fceaU, 0x43ebf076f4bce6e0U, 0xdfc6d2cc1366d9ceU, 0xf577d5d0ebd60c09U,
  0x3ded057ff1ca0cceU, 0xe4e60bd8fe54fad5U, 0xfd6622e335070c58U, 0xf03136012ee2ae9U,
  0x150e0fef043026e3U, 0xff5e411a10ff136dU, 0x2d05f6532e0d1f00U, 0xf71d521aee122801U,
  0x28a5f6384d372dcfU, 0xe803d4b44144151fU, 0xef1a2411e4cd291bU, 0xebbd4a366444dde5U,
  0xedfdf6924e45d42aU, 0x3e683823dbce31beU, 0x10a8367f645827d1U, 0xebbe0eae09f5cfe9U,
  0x604b0651d91e058aU, 0x29b43f71fd4ce4a9U, 0xfe13dbdadcacb0cfU, 0x41646e66ef16f1c8U,
  0x14df56776d65f61bU, 0xd911f6ff311fccfaU, 0x66726065eef10c1fU, 0x140a614c4d3300d8U,
  0xee0fea2201e9db10U, 0x7f763b52ee16e8dcU, 0x2e237512c40fadaU, 0xe3d00e22fcd0d6f2U,
  0x6c54042aec1fdaedU, 0x10b2123fd0a07e8U, 0xc6d109f5ccd0deecU, 0xcf45031fff4ebc5U,
  0xed01ee22512a1b3aU, 0x23e51e11083f4a20U, 0xe6e734f2fefa04e6U, 0xf0280e71752b1f67U,
  0xf215fe40505d40U, 0x7e0f2fdea1a2b2eU, 0xef4a38657c52fe44U, 0x4f3dfe2c46737f59U,
  0x4401e90ae8393a35U, 0xfce0642d114ce145U, 0x4416180f6d5b5f55U, 0x1138562618194d57U,
  0xff71f0aff3b207d4U, 0x7151f26ecaa3f8c1U, 0x31593243f2d41650U, 0xe86f1ee4fee7e220U,
  0x4e460b6b1eeff7e7U, 0x1759372f01df2d7bU, 0x1b78f30836dbf859U, 0x5f55fc7de9d725cdU,
  0x202c683c1dcf3c5cU, 0xfa7f06356540ed73U, 0x4211053a21345634U, 0x4248544901cf2346U,
  0xe8713c512108fc1eU, 0x634ae3551e244115U, 0x2e371519fb20457fU, 0x1325604843590955U,
  0x184ae843605d1b28U, 0x202e033907293e65U, 0xdf0656403936ff29U, 0x14f70035425f0307U,
  0x62221d091647fa16U, 0x1b394c2e0604f6eeU, 0xefe0df30362bdaf1U, 0xfed6f201de09190dU,
  0x71ecfcfe602e4d1U, 0x6e41fc55e1a8dde0U, 0xf7bbbc07ea70e768U, 0xf331f4c8c6d9e2c2U,
  0x4e52dc7ff9a723bcU, 0x1f32412dc47fa61U, 0xe546faa3d6d3fa11U, 0x142a07333dc3e2caU,
  0xe72a340cf4de0b31U, 0xfc08f8d7e71de722U, 0xe9f2f0df2296bdafU, 0xe2b3bcda04234128U,
  0x225bbbe1f70a1756U, 0x3d22013ee4346933U, 0xe2aafec1ed450017U, 0x94fc5b110d50c72U,
  0x7f171b5cf4253a21U, 0xe7a7faefe114e855U, 0x5690ece0ebc055dU, 0x7323024b25331c05U,
  0x139cd9bddf1a3e5fU, 0x24411f7ddcdf444U, 0x383f1f2e5a57331fU, 0x4b657359ee0a3f59U,
  0x24c3306ff9fe02c3U, 0xc1cfffda1e01da2aU, 0x707f1454d9f2f0e8U, 0x2c62b4ff43b1dcdU,
  0xcb0e0ce4e6c2c9f6U, 0x1633fe17ecedd3c6U, 0xd4d9e7c6c1cf0506U, 0xfb1bffdfb4ecc8e4U,
  0xe5db0103f536ee05U, 0x615bff9cfd205fbU, 0xe2fa0130cad401ceU, 0x240353000d3fdf5U,
  0xdd3712f816390132U, 0xebe7dc28f20c110cU, 0xe1937f7f4f71f33U, 0xef77d93d4711f46dU,
  0x204dea56e0636d31U, 0x2e1a45eceeec1027U, 0x105c0516340ff66dU, 0x4d6be4550d3f6651U,
  0x151f2531e329176fU, 0x73634302c1f1a20U, 0x74650f41582b3929U, 0xbed09d4ee13417fU,
  0x1b0f11517f52fc75U, 0xad1ebe3395f2f2bU, 0xe9bb06be0818f0efU, 0x1c4f265a7241ed73U,
  0x5d3de5fc0840696eU, 0x37e715f41926f915U, 0x4016c795a6b114cU, 0x382f0cf364416969U,
  0x171b07f909184d4cU, 0x15f36461553ef61fU, 0x4834f81b5a4e3037U, 0xd8f8150012ec022dU,
  0xfa2a082803df194cU, 0x171c180f120b4620U, 0xeb06ddf41b14ea3fU, 0xec6c1826f5eb0e24U,
  0x460b0e523d3b5022U, 0xe1c1b1409ea2c49U, 0xe466ffec2c07fd61U, 0x7f58e475f8536810U,
  0xf3eeeff3e8150b5cU, 0xe5682eea23f9de65U, 0x7e6f1c5d2c154bffU, 0x23e4867e9156674U,
  0xdfa807e8db42f5afU, 0x1b50219bd81ef64dU, 0x5d390dfe2ecf2715U, 0xfc8b1cc0d0facda5U,
  0xaaec339d2ce3eeefU, 0x49bcaee038c54c35U, 0xfbbdf92b000e209fU, 0x20cd5f72f1da2f2U,
  0xbcbf94e198f168bU, 0xec1626bff0332ad8U, 0xe81fff9a1dbd0a11U, 0x6f0fae6eb923281U,
  0x964ee4d3a25125aU, 0x5f150947e3657466U, 0xffaf7f1fcf60628U, 0x1d3a3b094a1bf96dU,
  0x7772f61e25756c50U, 0xfcddfc1612f54971U, 0x132202313090f7fU, 0x6f31ed305040494aU,
  0x19202f19042d3266U, 0xecfd41501f341567U, 0x4d1a180157613c2fU, 0x351a07f33c63U,
  0xbcffffe206U, 0xfffff895000024c8U, 0xfffff451ffffebf1U, 0x23abffffecadU,
  0x2e5900001b63U, 0xfffff199ffffe304U, 0x3eddfffff2a0U, 0x303fa04fffff04cU,
  0xfa0100fdfefff9f7U, 0x3f8fbf90002fa05U, 0xfc02fe02fd02fbfdU, 0x5f9ff040104fd05U,
  0x205fdfaf702feU, 0xfb03fbf9040402f8U, 0xf601010005fdfbffU, 0xf8ff02fbfdfaf704U,
  0xfffbfaf9fa03ff01U, 0x404fefe040406fdU, 0x6fa0002faf6fefaU, 0x103fffbf8050204U,
  0x402fcfdfa03f803U, 0x1fd00f9fb0302ffU, 0xfb0405fa010504fdU, 0xfe010200fa04fcfeU,
  0xfc0100fafaf9f904U, 0xf7fd040403fff6fcU, 0xf6fe03fe01f7f704U, 0xf9ff040500030405U,
  0x3f9f802f9fbfcf7U, 0xfe0204fd02fbfc03U, 0xfd02fe0202fe02faU, 0xfef7f7fd04fef701U,
  0x4fefef9050403f9U, 0x8030202ff05fd02U, 0xf8faff000101fc04U, 0x30501fd010600fcU,
  0x3fefe02fcf8f7f9U, 0x3fc00050505fafeU, 0x107f706f8fbff01U, 0x500fffa030700U,
  0x5fc06fd060206f9U, 0x30203f800fffdU, 0x406fbfaf70302ffU, 0x200fffdfefb0907U,
  0x902fe0604ff0705U, 0x2fffef8070603f9U, 0x1fffcfe06f8fe04U, 0x701f9ffff04fcfeU,
  0x6fefa0302ff03f9U, 0xfcfe06fcfdfd00feU, 0xfffc0506030304U, 0xfe01f9fdfefa01fdU,
  0x2fbfdf9f9080602U, 0xfffe080507fffffaU, 0x1f802fd04fe03ffU, 0x1ff0505fafb06fdU,
  0x204000709fe07feU, 0x6f903fdfdf9f9f9U, 0x2fffa0105fcfbf9U, 0xfe06fd03fafd05U,
  0x5fb01fefefefafcU, 0xfb06000007fffdfaU, 0xfd02fafffb02f907U, 0x40106fc0506fefeU,
  0x206040202070705U, 0xfb0103060406fffdU, 0x40704050707fffaU, 0xff05010206fefcfaU,
  0xfcfdfb0701fff9fdU, 0x502000303f90203U, 0xfc0505f9fe05f9fcU, 0x3fe01fd06f903faU,
  0x6fc03fe0104fb06U, 0x6ffff0102070303U, 0xfb0206fefffbffffU, 0xff0004fc04fdfb04U,
  0x4fa02fef902fafcU, 0xfcfafbfc03feff00U, 0x701ff06fbfefd03U, 0xfcfffdfdfdfafdf9U,
  0x502020000fb02fcU, 0xf5f500fdfa00f801U, 0xf500fbf6fffff700U, 0xf9f9f6fafb00fbfcU,
  0xf7fbfe03fa00fef4U, 0xfd01f801fefb0101U, 0xf8ffff00f8fdfff5U, 0xfcf7fef403fefeU,
  0x2f8fdf9f9fffcffU, 0xfdf7fdf8fafff6f6U, 0xf9f8f9fdf5fe00fbU, 0xfe00ff03fbf902f5U,
  0xfefdfcf405f9feU, 0x2fdfcf702f8f8f8U, 0xfcfafafb02fafa02U, 0xfc0101f9f7f6f902U,
  0xfffafffcf9fb0004U, 0xf501fcff03f9fdf8U, 0xfaf905f8fefa02fdU, 0xf9f700fdfef904fcU,
  0xf7f9fffef7fe03fbU, 0xfff9fc020103fa02U, 0xfd0302f8f7f9fcfeU, 0x30100f8fff4f7faU,
  0xf502f6fcfa030103U, 0x30304fd01fbf400U, 0x4f5f9fdfd0203U, 0xfd05ff040201fbfeU,
  0x303fb02f90100faU, 0x203fcfd0602fc00U, 0xfbfffb00fdfcfcf8U, 0x30104ff00fa0401U,
  0xfafb06fafbf6fdffU, 0xf9f8040003030201U, 0x2fc0106fafbfaU, 0xf804fefc020403f8U,
  0x504f8fdfefbfa03U, 0xfb0308f7fd04f701U, 0xfbf602fd03fbfc01U, 0xfaf905f8fcfcff00U,
  0xfafa0004fe0200U, 0x60302f9fefbfb0aU, 0xf8fef6ff030301U, 0xfffe01fdfd0500fbU,
  0x2fbfbfd040301feU, 0x60602f9fd0203feU, 0x406fd00fefcfcffU, 0xfa01fe06fdfafdU,
  0xfc000300fdfefafeU, 0xfb0205fef8fdfe06U, 0xf905feff01fb0607U, 0x40506fafaff05U,
  0x5fdf90605060705U, 0x4f9fd0603fd06faU, 0xff07fc0401fa04U, 0xfc000201fbfefeU,
  0x203fcf9fb06fcffU, 0x20704fd010404U, 0xfe0902ff00fc0600U, 0xfafa03fd02fdfb06U,
  0x5f9fa01ff040204U, 0x1020706fe00fb01U, 0x704fbfdf70505U, 0xfd06fffefa02fafbU,
  0xfd0604fff9fefefbU, 0x202fe05fcfb04f8U, 0xfffa02fb07fcfbfdU, 0x701f902fc02fcfdU,
  0xfdfa070207faff00U, 0x5fe0200fefdf905U, 0x1f905fc04070700U, 0x1fc07ff0606fbU,
  0xfefefcf905fafdf9U, 0xfe000607ff020003U, 0xfaf8fdfdfb0000feU, 0xf9f70500fb05f803U,
  0xfef7fbfcf9fa0104U, 0xfbf9f7f9fe0105fdU, 0x205fc03fefaf8f7U, 0xf7f801fb0306f9f9U,
  0x6fbfc030404fff7U, 0x1fef9f8fbfdfbfeU, 0xfcff0303f80304fbU, 0x6fcff02f8ff01fbU,
  0xfb01fafdf702f9fcU, 0x50000fefdfaf7fcU, 0xff03fffd020203fcU, 0x60405f9f9f80005U,
  0xf9fbf800f8f8feffU, 0xfb05fdfd03f8ff02U, 0xff0102ff01feff03U, 0x204fdfdfe03fd01U,
  0x4f600f903fbfcfbU, 0xfc0401fc03fbfeffU, 0x30303fcfbf8faU, 0xfffc00030502fbffU,
  0x2fa0105fffe0502U, 0xfff8faf6f9faf901U, 0xfd0305fbfcfef7feU, 0xff010302fffcfefaU,
  0xfb0005fffb04fd01U, 0xfd04f9fefe05fcfcU, 0xf900fc060104f9ffU, 0x707fd06fa0005fbU,
  0x1fe0400fc07fe02U, 0x10003fafe000603U, 0x3f902fffcfcfcfcU, 0xff020604fb07ff03U,
  0xfcfaf9fd0006fbfeU, 0x3fdfd06fe020200U, 0xfdfe000401fbfc00U, 0x2f9f9ff0100fffdU,
  0x3030000f8f709fcU, 0x4fcfdfe00fcfbfaU, 0x6fffc000006ff02U, 0x10508fffd00f9fcU,
  0xfefbfafd020702faU, 0x4fef906fcfbfe00U, 0x204fc04fffc04fcU, 0x6fcf9fefe050301U,
  0x201fafefa01fe03U, 0xfdfbfd03f9f90203U, 0xfa02030107fb02faU, 0x2fffd02fdfe0202U,
  0xfef7fa01fc0102U, 0x1f803fafef7ff00U, 0x105fefcfa05fc04U, 0x2fcfaf7050404ffU,
  0xf6030003fb04f900U, 0x20104010006faf7U, 0xfafff7f8fcf8fa04U, 0x4f9fb02ff03fa06U,
  0xfa01fefdfcfeff04U, 0xf705fc0601f9fff8U, 0x2fff9010103fd03U, 0xf8fffb03fbf80600U,
  0x1fd0303010600U, 0xf80004fc040101fdU, 0xfffe0206fbfa01fbU, 0xfdf9fefef9f6f9fcU,
  0xfef7fd05f9f8f9fbU, 0xfdf8f8fffff70003U, 0xf800fffb0000fff8U, 0xf9f8f9fcf9020300U,
  0xfcfd01f8fe0405fbU, 0xfb02fe010301fefaU, 0xff00f9fdf70204feU, 0x2f901faf8fcf800U,
  0x50503fcfb02f702U, 0xfdfbfafffefd01fbU, 0x5000303fffbfeU, 0xfcfd03fef7f9fffaU,
  0x2fbf8fa06fb00f8U, 0xfefefd0202f7f9U, 0xfd01f8f8fe050001U, 0xfa00fbff04fdf800U,
  0xf9020104f901fdf8U, 0x4fe040604fefd03U, 0xfcf8fbfd04020006U, 0x40503fa02fefeffU,
  0xff04040205fd01feU, 0x2fd000105040206U, 0xfffffe01030302fbU, 0xf7fb0500fe04fb01U,
  0x5fefeff05fd01ffU, 0xf704f603fb00fefaU, 0xfc00fc0300fefaU, 0xfdf7f9f701f900fdU,
  0xfe04fcf8fbf6f7ffU, 0xfc0102f7faf9fa05U, 0x305fd0204fbf7faU, 0xf705fb00fcf8f8ffU,
  0xfa01fefbfffaf8ffU, 0x2f6fe0204fc01f7U, 0x4f8fe030203fffdU, 0x403040400f8fd03U,
  0x3fafbf6f902fcfbU, 0xfff602fdf8f6f901U, 0xf7f8fe00fcfef9f8U, 0x3fdf702fe0204feU,
  0xf902f9faff0501fdU, 0xf8fc0301fefcfbf9U, 0xfa04fd02fbfffbfaU, 0xfc05f9f7f8fdfffaU,
  0xf705f7faf8fc04faU, 0xf7f804fffff9fefcU, 0xff0403f8fff9fafdU, 0xfffa01fcfe04faf9U,
  0x20305030301f7feU, 0x30101fffbfaf901U, 0x3fcf9ff00000204U, 0xf9f8fbf601fdfcfaU,
  0xf904ff040202f8fcU, 0x20300f9f701f8f7U, 0x3f902f704fd01fcU, 0xf8f6f704f8fafdfdU,
  0x2fffe02fcfe04f9U, 0x5fa0708f905ff03U, 0x5fbfd0205fa0405U, 0x6fcfbfe04fc0203U,
  0xf60306fb05fa0501U, 0xff02fbfbff070706U, 0x6f8f905ff03fcfcU, 0xfe0906fe00fafd01U,
  0x209050307fefafdU, 0xfcfa000006fe01faU, 0x300010109010507U, 0x7020803030a0705U,
  0xff06020109fe0004U, 0x10800fcfffe0302U, 0x4fef900fb010702U, 0xaf90607fa08faf8U,
  0xfe04f802fb0208feU, 0x90400fe00fe03feU, 0xfdfcfd0001fe07fdU, 0x20701fb03fe01f8U,
  0x30304f9fcfd05feU, 0x600fefa080005f9U, 0xfe0600fefffd06fcU, 0xfffc02fc05fa070aU,
  0x604040804fa03f9U, 0x3010004fd08fdffU, 0xfdf8fbfcf7fefafcU, 0xfc00f6fc0001fe02U,
  0xfb08fa04fe0203ffU, 0xf9fe06f7fff6fbU, 0xf5fefd05fc050202U, 0x20606010005f804U,
  0xfdf900fefbf9f805U, 0xf407fd090001fef7U, 0x1fc05fd01fffa05U, 0x50103fa0300fb09U,
  0x2050502fe0204ffU, 0x40508fe0404f800U, 0x8fd040503f9f8U, 0xf901ff010002fa01U,
  0x9fe0001040509ffU, 0x7fff60308000408U, 0xfe06fc0102fefd00U, 0xfffcfafefffdfbU,
  0x1f90702ff010106U, 0xc040afefb03fd00U, 0x3fcfafd03080007U, 0x601fffa04fbfc02U,
  0x7010103f8fc09ffU, 0x8fd0201faff0502U, 0xfbfd07f7fdfbfdU, 0xf9000803070107ffU,
  0xfa06fbfe06f9f602U, 0xfd05fff9fc01fffeU, 0xfe0200fa05fc0201U, 0x70304fa00f80204U,
  0xfafbfefa07ff08ffU, 0x5fd070504fb01f9U, 0xf9fa000201000403U, 0x1fe020000fcf702U,
  0xfa060402f8010708U, 0xf9fa00040705f9U, 0xfdf9010af6060006U, 0x3f904fc0504fdf9U,
  0x8fc06f70803f8feU, 0xf904ff03fcfd03feU, 0xfefcf9fa0404f900U, 0xfcfe05fdf7fef905U,
  0x8020500010400fbU, 0x7fe08fc0401f905U, 0x1f903ffff05fbfbU, 0xfbfffdfe0402f8fdU,
  0xfcfbfafe01fd0604U, 0xfc05060304fafbf7U, 0x4f70003fcfe0106U, 0x2fdfc000202fd02U,
  0xfafdfffbfafc03fcU, 0xf802fd00f9f8f7f9U, 0xfffbf9f7f6fcf702U, 0x201f8f7f8f7f5f7U,
  0xf80003f6f6fafcf9U, 0xfefef7fbf9030200U, 0xfa03f5f5f901fefcU, 0xfafdfef7f9f8f8f6U,
  0xfe02fdf602f904ffU, 0xf7fcfefffe0003fbU, 0xf70000f6fafdf702U, 0xfa03f7f6f8fa02feU,
  0x5f703fafd00f7f7U, 0xf9f503f5f6f7f8fcU, 0x2faf901fbfaf8f7U, 0xf6fcfa00fffd0002U,
  0x4fefdf9f8fbfdfaU, 0x1fdfdfb01f7fc02U, 0xfefc0204fdfcf701U, 0xf700f8fbf70004fcU,
  0xf702fffefeff0301U, 0xf901f7fa02fefd04U, 0xfcfaff00f4fcfa03U, 0xfbfd06fc030306fcU,
  0xfa06ff0002ff0506U, 0xfafffcfc0404ff01U, 0x202fe020502fa02U, 0xf9f9fd0507fefdfeU,
  0xfbfd00fefc0001f8U, 0xf905fb0100f9fafbU, 0xfaf907050201f8ffU, 0x90001fcf906f9faU,
  0xfdff0303f9fef901U, 0xf90802ff02fef9fbU, 0x109f9fb0901f9fdU, 0x40402f903040500U,
  0xfafbfa05fa0608fcU, 0xfcfe00060006fb08U, 0xfefc030407f8fa04U, 0xfb010302ff060200U,
  0xfb030402fc03fbfbU, 0x8060108fafc00feU, 0x4fa0607060607fdU, 0x7ff0904fd04fe01U,
  0xf904fd07ff010603U, 0xfdfb070100ff05f9U, 0x507fafefdfcfd01U, 0xfefcfff807fe02fbU,
  0xfa0204f7fb0201f6U, 0xff02f7f9f8fb05U, 0xf7fc04fb0402fbfbU, 0xfe02f6f8fc0000f9U,
  0xf600010103fefcU, 0xf802fe00fe0500fbU, 0x300fcfaf703fc04U, 0xfc0002ff01f9fe04U,
  0xfc04fafcfc02f7fcU, 0xf9030100fefd00f9U, 0x3f7fa03fbf9fbffU, 0xf6fbff01fcfcff04U,
  0xfdf7fbfdf8fcfefbU, 0xf705fd000400f6f7U, 0xf8f7f7f8f804fefaU, 0xf8f9fffafe04fefaU,
  0xfe04f800f9fb02faU, 0xfbfdfaf7fbfcfc00U, 0xfbfdfaf705fdf903U, 0xfafef9fa0302fefeU,
  0xfcf8fe03fcf6fef9U, 0xfdf703fcfffcfaU, 0xfc0501fafdff00faU, 0xfa02fc0105010100U,
  0xfffa02fbfc0302fcU, 0x403fb06030101fdU, 0x5fd04060304fa06U, 0xfdf7fbfdfcfefffcU,
  0xfd0607fffbfcfff9U, 0x405fcf8fa010306U, 0xfefdf907fb0103f8U, 0xfe040302030600U,
  0x4f701fc010602ffU, 0x2fefbf8fc0301fbU, 0xfd0204f801fa0702U, 0x40501fcf9fffeffU,
  0xfa0401f90200f9faU, 0x601f700fa0303fdU, 0x206f804f903fdfdU, 0xfc06ff07fe0504U,
  0xfe0703fb0203U, 0xf700ff07f901fa03U, 0xf6fffefd0604fdfcU, 0xfafb03ff06fb0604U,
  0x6f806f7fd00fdffU, 0xfa060002fe00fffdU, 0xf9fef9fffdf803faU, 0x3f90607050004fdU,
  0xfcf90100fff9ff05U, 0x4fd0502fbfafa02U, 0x1fd07fa02fefbfeU, 0x6fe0102fb0703f9U,
  0xfafdfb05ff0207faU, 0xf9fd01f9fffffbU, 0xfcfd06fffc070102U, 0xff0300fbfefb02fbU,
  0x1f9ff0002070000U, 0xfa0202000401fffbU, 0x6f9000607ff0503U, 0x4f9fe0506fffafdU,
  0xfeff030405050300U, 0x707feff00000105U, 0xfc0200fafc040603U, 0x50600fafbfdfc02U,
  0x3ff03fb03050206U, 0x4fafaff0304fa07U, 0xfbfe03fcfd0305feU, 0xfa0500fb00fa0007U,
  0xff02fafc00fefbfaU, 0x2fd00070105fb06U, 0xfd06040501f9feffU, 0x306ff03fef9fd01U,
  0xfa0205fa05fbfd00U, 0xf8fcf7f7fa0501f8U, 0x103f601f903fb02U, 0x2fb00fafc0204fdU,
  0xf7f701fe030102fbU, 0xf90205ff00f7f8U, 0xf9fbf9f703fdfffeU, 0xf8fbf8fefefbfb02U,
  0x3f700030302fc03U, 0xfeff0002f600fa05U, 0xfaf7fefcfdff00f8U, 0x2fcfbf901f70303U,
  0x2f7020302fcfcf9U, 0xfa01fe0100fa01fdU, 0xfbff02f7f8fcf8f6U, 0xf7f804fbfff9fcfeU,
  0xfe06fff7fb00ff02U, 0x1fc04ff010001fbU, 0xfe030301f7010504U, 0x1fe0501f8fcfdffU,
  0xff07fafaf704ff02U, 0xff01f7f700fd0206U, 0xf8ff01faff01fe07U, 0xf9fafa04fbfefdfeU,
  0xfefb0200fd040002U, 0x4fcfdfffafefbf6U, 0xfc01fc06060203U, 0xfdf7f9f8fb0001faU,
  0xfefefb04fd00fdfbU, 0x2050204fffaffffU, 0xfafdf804fdfc03fbU, 0x3f7fc00fafffefdU,
  0xfd03f9ff030006U, 0xffff0205fd0204fbU, 0xfbf9f6ff030502feU, 0xfc00fa02fb05fb00U,
  0xf7fcf7f900f7fd01U, 0xffff00f9f8050406U, 0xfff9fbf9fbfdf9faU, 0xfc0307f8f9fb0400U,
  0x400fef9f904f7U, 0xfbfbf70003f7fcffU, 0x6f602fe00fdfe04U, 0xfaf701f603f90405U,
  0xf9fe010202fd0304U, 0xfa00fe04fff9U, 0x5f8fbfcfafffb02U, 0x4fbfafbfcfaf9fdU,
  0x7fa0404fcfb03faU, 0x40104fb06fffafdU, 0x20403fd020305U, 0xfbfc03fd05fb03ffU,
  0xfffa0707fa020507U, 0xfefdfc03fa010301U, 0x3f9fafc01fe0502U, 0x206fffb07fff9faU,
  0xfe070707f9fdfd02U, 0xfdff0702fa0103ffU, 0x2fc06fe05ff06U, 0xfcf9fb05fd00fcU,
  0x3fcfcfaff03fa02U, 0x2ffff010507f904U, 0x2fdfd0404f90504U, 0x2fe010102f904ffU,
  0xfdf90000fd00fef9U, 0x50204f90706fcfeU, 0x3fe0304fdfc0101U, 0xfd0503fb0002fd06U,
  0xfc04f907fd00fafdU, 0xfd00fcfd050002fdU, 0x2fc02fbfb070702U, 0x1030007fe060703U,
  0xff04fc0301050502U, 0xfe07ff060404fcfeU, 0x205f6f600fefd07U, 0xf702f8000102fcffU,
  0xf90304fef7fdfafcU, 0xfcfbfb05f804f7f9U, 0xfb04fbf804fe02U, 0xfffc02f9f7f7f7f8U,
  0xf8faf6fffa00fa00U, 0xfbfd03fcfe0403f7U, 0xf80004fffcfaffU, 0xf8fef7f7fbfd04f8U,
  0xf7faf7020300feffU, 0xf9fe01ff0301fc04U, 0xf9fefcfaf9f804f9U, 0xfffdfbf9fdfbfafdU,
  0xf9020200fe00fd05U, 0xfbfbfaf9f700f7f6U, 0xf9fd00fef900fb01U, 0x2f6fafdfffbfbf9U,
  0x5feff050201f7f7U, 0xf9f700f8fb03ff01U, 0xf8f9feff0400feU, 0xfa04fafafe0003f6U,
  0x2fa02fbfffb03fcU, 0xf9020000fe02fffcU, 0x2f6f704ff0201fdU, 0xfb02fd05ff050301U,
  0xf9f905fd05fc02f9U, 0xfb06fd02f90100fdU, 0x6050001fe03fefcU, 0x1fe07ff0702fb01U,
  0x4ffffff0305f9f9U, 0x504fefa030401faU, 0x1f9030201fd0403U, 0xf9f9fd0306060505U,
  0x3fff9fe07060306U, 0x4fd030302fb0705U, 0xfb0402fef907fffbU, 0x704fa02fefefafdU,
  0x70105ff04f7fdfaU, 0xfd010106feff0305U, 0x6010103fcfd0004U, 0xfcfffff9fbfefe01U,
  0xfd05fc07020605feU, 0x4fa020504fcfdf9U, 0xf9fdfafb0303ffffU, 0xff0706fa00fa0705U,
  0xf903050102ff01fdU, 0x6f9f90703060101U, 0xfe0004fb03040706U, 0x105f900fdfffb03U,
  0xfef7f9fff7f7fcffU, 0xfafef7fe030103U, 0xf7f9fdfe0004f904U, 0x2f9fdf7fdf9fbf9U,
  0xfffefafffffefdf6U, 0xfdf8f7fb0301fdf8U, 0x2fcf7fcfaf9fd02U, 0x504030003fff9feU,
  0xf703fff8fb010102U, 0xfbf703fc0400f800U, 0xfdfafe02f9fdfaffU, 0xf7fa04f8fffc03fdU,
  0xfc04f9fdfbf9fc02U, 0x400fd0401fa0002U, 0xfbfe0404f8fb0103U, 0xfd03f7fdf8000204U,
  0xf8fffbfffa00f7fbU, 0x3050004040004fbU, 0xfdf7fa05fa04feffU, 0x203fffaf8fdf7fcU,
  0x302fff7fdfbf7U, 0x402f7f6f9fbff00U, 0xfdfe00fef7f9fa00U, 0xff02f7fc04fdfbU,
  0xfcfb04fcfc04fff9U, 0xf6f904f9fe020300U, 0xf7f902f703f80302U, 0xfe02f9fe04f7f9faU,
  0xfbf9f905ff02fe04U, 0x500f8fbfc03fbfaU, 0xfc04f9f9fcfd0502U, 0x10300f9f7fe01ffU,
  0x1f8fe03fc03ff02U, 0xfd03f80301f9fffdU, 0xfb03fbf8f9fd01f9U, 0xff01fafe00f8fefdU,
  0xfffbfeff0200fcU, 0xfc0201fbfffa0301U, 0x3fbfc03ff01f602U, 0x4f9fd02fcf703ffU,
  0xfcfdfd01fe01fb02U, 0xf6ff03f903fff803U, 0x2f8f7f7000302f9U, 0xfc04f600ff04f9U,
  0x4fcf70205fafc04U, 0xf7f8f7fefbfdf8f8U, 0xfefb02fefafc02f6U, 0x2fc03fd01fcfb00U,
  0xfafa00fc00fffeffU, 0x3050202fcfdfffaU, 0xfcf8fd03fef9fa02U, 0x3fd010500fbf7feU,
  0x1fafbfef7f800fbU, 0x504fffd0304fdfaU, 0x101f801fbfbf7U, 0xf703f6f6f804fc02U,
  0xfdf8f6faf7fffcfcU, 0xfbf8fbfd03fefeffU, 0x4fc04f80304fef8U, 0xf904fd04f9fafeffU,
  0x202040501f803feU, 0xf7fc03fef901f8fcU, 0xf6000002010000feU, 0xfffbfef6f80302fcU,
  0xf8f803f7fafff8ffU, 0x104fcfdfdff04f7U, 0x204fa02fffe04ffU, 0xfefdf903f9fc04f9U,
  0x3fb01fefaf70104U, 0xfcf70105fdff00fdU, 0xfff800fe05fe00fbU, 0xfcf704fbff0404faU,
  0xfcfa00fd0204fb03U, 0x1fffb04fb0203f8U, 0xfefa0605fb00fefcU, 0xfffdfcfefc0502fdU,
  0xfef7fb01fcfa0200U, 0x500fc0106000403U, 0xf9f6fb00030405ffU, 0xfafefbfdfe00f7U,
  0xf70402fbfb02fa02U, 0x5f705fbfffcfb01U, 0xf9fd0302fe00fbfeU, 0xff04ff0001fc00fcU,
  0x7f900fcf7f6fcffU, 0x10401fcfd01f902U, 0xfafb02f700ff0202U, 0xfff90200fd01fc00U,
  0xf9fc0502040404fcU, 0xf801000300f7fafaU, 0xfbfbfbfafbfb04faU, 0x4fb0302f8fb0404U,
  0xfbf7f8f80104fd00U, 0xfcfc02f6fafefdfeU, 0xf7f8fb0201fefc01U, 0xf8f800030103fb01U,
  0xf900f702f8040201U, 0xfe00f80401fcfe01U, 0xfbfefbf9f8f9faU, 0x2fe01f9fbf7faU,
  0x3f7fbf901f900ffU, 0x50001fafe030005U, 0x3fef9fa00fd02faU, 0xff03f7fbfafafffcU,
  0xf902f801faff02faU, 0x2f904fb03fd01f9U, 0x1f601ff02fff802U, 0x3fd01f7fefcfa04U,
  0xfdf9fb04f700fafcU, 0xfc010102ff03ff02U, 0xf6fd04fcfb01fff8U, 0xfffe07fe0203fcfbU,
  0xfdfff80703f90107U, 0xf900ff05fbfd00fdU, 0xf9fafffefdf9fbfbU, 0xf70302f7fd0404feU,
  0xfdf90404faf90404U, 0xfcfaf804fdfafaf9U, 0x40400000205fe02U, 0xfcfc03fdfdfb03feU,
  0xfc0204fe01fb0103U, 0xfffd020402fe0205U, 0xfdf9f8ff05fd02feU, 0xfcfd01f90102fcfaU,
  0xf9f603fe01fc01f8U, 0xfc01fcf8fb03f9U, 0x5f801fc0504fa02U, 0xf900ff01f9f7fcf9U,
  0xf8fffe0000fa00faU, 0x401fdfcfa00f8f9U, 0x3fcfdfc01fd04fcU, 0xf6f90404fdf7fdfaU,
  0xfefdf901f70302f8U, 0x2f90101f9fe04ffU, 0x2fdf702fe02f9faU, 0xf7f7f6fbfef9fdf7U,
  0xfdfb03fa0105fc04U, 0x2f80203ff0404feU, 0x3fd0204f9fcfbffU, 0x2f9fbfefe0402fdU,
  0xfbf7fffafb03faf8U, 0xfc03fa03fdfa01ffU, 0x1ff0403fcfdf6f9U, 0xfefff805f6fafffeU,
  0x204fa0004020300U, 0x4f8fefcf7f8f9feU, 0xf804f804f7fffbfbU, 0x4fffb0103fbfd02U,
  0xf8fbfcff02f6fdfcU, 0xf7fefcf702f9f8ffU, 0xf9fa00f6fefffcf8U, 0xfc02fafbf700fe04U,
  0x302f70403f9fcfdU, 0x3fa04f6fc01ff00U, 0x4f6f805f903f8f7U, 0x30400f7ff0203ffU,
  0xf8ff03fe05fe0300U, 0xf9f705f7fc02f7fcU, 0xfe01fdfe01fdf701U, 0x400fcf7fefbU,
  0x3fffcfefdf9fbfcU, 0x2f7fe00fbf902faU, 0x400f806f6fd00U, 0xf9fcf702fdfaf9fdU,
  0x101fe03fd00fff9U, 0xf703fa03f80501f9U, 0x1fbf9f802f70201U, 0xfcfe0100f7f704faU,
  0xf701f9fbfefcfaf7U, 0xfb00f7faf9fefb03U, 0xf80504fc03fd05feU, 0x7fffff9fc07ff03U,
  0x5fdfafb06fb04fbU, 0x2040707fe050600U, 0xfffafe02fdfc00fbU, 0xfe050401fe03fafdU,
  0xff030302f9fc03f9U, 0x70006fbfcfefd06U, 0xfc02fa03fd030102U, 0xfd0207fa02fcfd02U,
  0x10706fafdfd0504U, 0xfcfc03fcfd0705f9U, 0xfbfd03070101fc00U, 0x103000704fffd07U,
  0xfe03fe05040201faU, 0xfb04fefa0404fcfbU, 0x70104fd03fdf902U, 0xfe01f90704fdfb02U,
  0x5f9fa0306f904f9U, 0x10405fffcfa0103U, 0x1f90502f9fcfa03U, 0xfcfc06fdfcfffa02U,
  0x40002fbfd0701U, 0x30707f903050203U, 0xff01ff0106fdff02U, 0x4fd000900010403U,
  0xfff60402fa01f5f7U, 0xf1f5f207f4ff000dU, 0xf91210f0f8f5ecf7U, 0xf5000206050dfd03U,
  0xf80cf8f408f9fc07U, 0xfe010ddcf510fe15U, 0xf70c030504051df6U, 0x1502fdff03f3f514U,
  0xc16f4060009fbfbU, 0x3f00bf00df70406U, 0x5fa1011140af707U, 0xf20204ea1aff0a08U,
  0xdf6ea1bfc1b100bU, 0xec140c020fea0f10U, 0x70a0912ea19edfdU, 0xef2e513f6f80400U,
  0x1f8fe050700e818U, 0xfbeb1503f21cfbfdU, 0xf40105ebf7f11d07U, 0x60b0ef30513f60aU,
  0xfd05fd11081a0cedU, 0x1404edf004f8fc09U, 0x707f4fdfbfef809U, 0xffde0b02f4f0fc0cU,
  0xe0d6e9fdeaeefaeeU, 0xeffa02f5f7ecefe4U, 0x301f9dff7080aebU, 0x3faf6fffe03fe14U,
  0x1b220f03feeafd02U, 0x11509f403fb0819U, 0x16151209f2070317U, 0x1d12f4210dfc0407U,
  0xefd0e0c00f80510U, 0xefe1103fc120716U, 0xfc0801f9f7e80010U, 0x180107f4fe16fb07U,
  0xe07f2f1f105f8feU, 0x917f1fafd06020eU, 0x5131300f300f6feU, 0x6ff1617f9080914U,
  0x190018211014170fU, 0x200e07fc0d191716U, 0x1fff05081a1b1327U, 0x1527110503fc0c0fU,
  0xeef20109fdf5090bU, 0xfe0602080a02f7f8U, 0xfbfbf4d4f3e9f4f2U, 0xd0a030407f502U,
  0xcd8f1de1601010bU, 0xfbf50cf9dddbef18U, 0xd3082b1edb1202fbU, 0xebf6ddf30cfef7d9U,
  0x4fee9de1243fae6U, 0x1f0cfbfaece201deU, 0xe0cec07fcf1fb30U, 0x2121935d60ff7e2U,
  0x1c3fb3312fd13fbU, 0x140e1225e52ae9feU, 0xe3ed30ece0dc04ffU, 0xe4ffe0010efdeb15U,
  0xcfffe1f53c1bed04U, 0xffe90bcfef1318faU, 0x3313eb02e5cd0f29U, 0xf906f2eb0f12dbefU,
  0xef21e340f2804f3U, 0xfed0cf9ffdaf508U, 0xf104f2d415372e19U, 0x2cfa0c030eecf8e2U,
  0x5dabdd312e4ea22U, 0xfa0f1fe711f5081cU, 0x40408f4cdd6cee7U, 0xb040d001afb1907U,
  0xe05040a00f9f80dU, 0xecf4f9eef8f7f6fdU, 0xf2fdf4f3f4f2edfcU, 0xedefebf2f411e8feU,
  0xf407fe01f6f801feU, 0x1df6f305f0deec07U, 0xe017ec0df7fe0305U, 0x10a1200f4f7fef1U,
  0x111ee1df300f600U, 0xf90404f10b0003f5U, 0xf31b0b090f15f3U, 0xa0bf3f8f9ef0c01U,
  0x61efaf9f614db16U, 0xe6f7de0afffaf6e5U, 0xf50afc09f010df1fU, 0xe00f14edc901fcf0U,
  0xfaf8f40dfbf30a00U, 0x110be808080ade0dU, 0xf006f80409f312deU, 0xee2f20a11e7ff1fU,
  0xf41905f3fb01ff22U, 0xe6081feeeff10bffU, 0xfafff501fcf5fb06U, 0xed01e6c9fb05e2dbU,
  0xf0eaec04fffbf403U, 0xedf9f5f6f0dfe4ecU, 0x1eaeaf5e8eaebe2U, 0xafdee07eefcf2f9U,
  0xe6f70be9dfe8cfebU, 0xede3031bed0cf406U, 0xf80202fc21f0fc05U, 0xea0b0adced1ee918U,
  0xf2120001140c3504U, 0x20ea06070ff7082eU, 0x330f700f8fa04ffU, 0x7e50fec011523fdU,
  0x1a1216232f06e700U, 0xecf4f4d82f06fcd9U, 0xf4f8f91efa050419U, 0xc70df8f701e71916U,
  0xf706fbfed8300807U, 0x1001df1ce7eef6edU, 0xee906f121ffef01U, 0x17ef35330d1bf7faU,
  0xfe040f0e10ef1b0aU, 0xf40121ed00390e08U, 0x200f800fd1e25d9U, 0x1bffd5e80f1c0d25U,
  0xfd13fa01ee01c3e5U, 0xfab8ebf9dee3fc14U, 0xd8c9dbf5e5e603f7U, 0xfcf209f8fdf2edf1U,
  0x60cfbf0ed0e12ebU, 0x4080302f508ff10U, 0x141d0a0a0c02f314U, 0xf0efc0404040eU,
  0x110f1e23fefd0511U, 0x1723fb1a0cef10fcU, 0x6040011f703fb0eU, 0x14fb0e12f9111506U,
  0x1020806fff3f00bU, 0xf624f5fefb1009edU, 0xf0cf8e4f7fae20bU, 0xf319f401f9f8f901U,
  0x8122407eee10bf7U, 0x16f5fb13f1080e16U, 0xb18fd1b0a130116U, 0x1a090e05140e0317U,
  0x1f10ef08132bff2bU, 0x62a0e0a0605fc11U, 0xf1eafa14f4f00222U, 0xf709f70c01f4f404U,
  0xf0fb08dcd60afeeeU, 0xfdfffb0e06fcfbfcU, 0xf2d5f8010efcf505U, 0xebffedf0e9dce402U,
  0xf1041dfee905e8ecU, 0xecf6fa04ffffeee8U, 0xffedf4ef1d18feffU, 0x8fcf8fd060405f2U,
  0x10a040d12fe0f03U, 0x14170afced0a01fbU, 0x2e6f81411fe150eU, 0x1513060bf305fbf8U,
  0xeff4f8eb011b0defU, 0xf3fd07f905f90400U, 0x303f2eb09ff0d09U, 0xfef015e818ff05fdU,
  0x12fbfc02fae50ff1U, 0x91501f403fb051bU, 0xdfd1c13050507ecU, 0xfff7030405f11107U,
  0x140b06002613100dU, 0x3fa09ff02fbfdU, 0xfced01fb15061101U, 0xc09fd04f8ecfb06U,
  0xe2f9f8efe9ecfa06U, 0x4fff903ef03fdf3U, 0x3fc04f90206fd02U, 0xebe1e3ebf3e7f5f8U,
  0xfef6fef8e1efeef6U, 0xf2f6e9de01fe01f8U, 0xffcf5ffecf2e9efU, 0xa090dfb01e90406U,
  0xf90afa08fcfcff03U, 0x6161d100e060effU, 0x3091a1d0af70a07U, 0xf407101122fffa12U,
  0xd141bfc0a111405U, 0xc15fbf5010b04fdU, 0xfe2009f4f61907ffU, 0xcf40809faf9f0e3U,
  0xf0ec0a130bfa0d11U, 0xb081000f9f8f803U, 0xfcf30402fc050cfcU, 0x1c10090c1a0bfaf9U,
  0x1a0613fa0dfe120eU, 0x170c14131f170e1fU, 0x621110a0207f717U, 0xf8fb2005ff061612U,
  0xff050a2003fdf3faU, 0xf8f7fee7f410f9e8U, 0xfdf0fc0c09f9fe05U, 0xfa03eb0803f0fcf5U,
  0xfdf8f6f200f60805U, 0xf6f226fbf303f00aU, 0x8ecedf910030cf8U, 0x10fef4e11f0ef9e5U,
  0x28d7f303f7f409f6U, 0xfbfbf3fff7030bU, 0x16050606f0fd0805U, 0x3fc0d0f15e13101U,
  0x16f214050a13f4f5U, 0xf90afee1f91502f5U, 0xdfeb110bf4fb16f8U, 0xee0411efedf3fff5U,
  0x10ea03f01cff0bffU, 0x2105ec1919e40a06U, 0x90404de27fef016U, 0x16eb1d06200d1ef1U,
  0x2f2ee1110e615e9U, 0xf80b0cf40b041711U, 0x16fc0702e41300f4U, 0xf9f9e8f610e60d0cU,
  0x80205ee02e6ea13U, 0xe1f618f9e9edfdf8U, 0xf2fdf5fa07fefd02U, 0x906faf903f9f0e8U,
  0xf0e7f5090be8f6ffU, 0xec030cf203f6fdf7U, 0xbfb06f2e3081a05U, 0xf0e0af3e9f3f203U,
  0xf70807f80504ebf4U, 0xdfa0a1e08fce6fdU, 0xf805f500fdfef607U, 0xf30a18002b090108U,
  0xfa04f3ffecfce90eU, 0xf200fb12f9fe2007U, 0xef3fdf4ecfaddedU, 0x306fa04f9fc05feU,
  0x11fc00dfeef8ddf1U, 0xcaf11e05f5f9f3eaU, 0x7f6031107ea0af7U, 0x14f6d6f60af6fb01U,
  0xfa11faf90efc1702U, 0x20120ff8d108fe09U, 0x31bf2f2f011fefcU, 0x1f7151007ebdaf9U,
  0xf9fbf816fae2e108U, 0xe8ededf3fdfdfce8U, 0x1f7060be2fa12edU, 0xfdf601fef601fff1U,
  0xf80cfdff0102fbU, 0x5f3f2faf6f5f5f0U, 0xf6f4f602ed010402U, 0xfef8ffeef6edeeeeU,
  0xf8ec0209fa0afa07U, 0xff0901fe0ef9fcf9U, 0x702d6ff0dfc0aU, 0xeb14fc0e03190cf6U,
  0x11fee5ee04fcfa10U, 0x925dffc050018fdU, 0xbfa0df3130cfefaU, 0x1af0141f1809f309U,
  0xf0ff09e928f2f9ebU, 0xf1ece908ed281514U, 0xeb03ff0018e923f2U, 0xf609f200f619f9efU,
  0xf9e4da0aff0408faU, 0x1a00f8fc10f80016U, 0xf2ea1d02fd1afef8U, 0xf3fd0eeffbea18fdU,
  0xa0606ea0211050aU, 0xfd03f90b0c1b1df0U, 0x1f00e4eb050afe0bU, 0x605eef5e90de9f9U,
  0xf4e9f805f4ec01feU, 0xe0d5dff3f8e4f5f9U, 0xf1f402f5f0edecefU, 0x6fafef0e90510f6U,
  0xa0608f9eaeafa0bU, 0xf1b0c08fdfdf904U, 0x17001106fafe0813U, 0x150b0c0708fe0805U,
  0x1815141217040e03U, 0x4ff0309faf5fb0aU, 0x7ef0412080f070cU, 0xfefbf9fc05e6ebffU,
  0xf10f3f80cfc18f3U, 0xb0ff8eeeffce1e4U, 0xebf80afeeef108f8U, 0x11042005ffe70002U,
  0x11faf7040210090cU, 0xc1906130c10170fU, 0x2717150700090916U, 0x1b0ffdfd1d20141dU,
  0xd1c16090601f3fdU, 0xffe0fc1201fdfd13U, 0xf4ff0b0c0a070102U, 0xf8fefde5ed020af1U,
  0xff0204ff0002f904U, 0xe8ebfef610040bfdU, 0xffffdfdcc7d6e4f3U, 0xea0efcedfcfefbf7U,
  0xe3fa031a060805efU, 0x2fcdc10090bfcf0U, 0xfafd051a1b260a0aU, 0x5fc0b1af6030d14U,
  0x1c0008f514170a1eU, 0xf10604130b2a031eU, 0xfd0f110010f60307U, 0x1f4f20d06010926U,
  0xf90dfdf3041101f7U, 0xfd01e901f41601f1U, 0xe319ec0b1d12fdf1U, 0xfadf0ef4e617fcffU,
  0x4fdfe1607081c21U, 0x1f2415121fe9e80dU, 0x20c0c0d0421fb14U, 0xb2af323181a0f02U,
  0xa04080b2211e704U, 0xecef0723fe2b100bU, 0x704f908c9f5191dU, 0xe410efeef115081fU,
  0xf800fcf406fec5U, 0x8fbf008edf5fcf9U, 0xeddfdaf204daeafbU, 0xecee0af1f2f2f1feU,
  0xb0108f6e9f719f8U, 0x141b07ebebfa090eU, 0x21f1f0a04fdf302U, 0x2502190a02fff5fcU,
  0x1004070a13040d14U, 0x3191508160dfe08U, 0xfdf9110cf2e40704U, 0x9f9f110fd0410f9U,
  0x16efe8fbfdf4eef2U, 0x120affee060113f9U, 0xfc1104f1ee04e8e2U, 0xedeb1403f8ec06fcU,
  0xfef1e0308ed1100U, 0x19f5ea010c0c0a09U, 0x120b0a100a051c0dU, 0x1f151703f6ff081cU,
  0x1715fd0308190b0eU, 0xc182c0107fdf000U, 0xf1e9f10710ffff0dU, 0xf0efff0003ff01f1U,
  0xeff3ffe9f301f8f4U, 0xfcfc080ffdfa01U, 0xf5f8fb041104f807U, 0xfcf4fbeff1faf7f0U,
  0x1fa00fdfbfd0103U, 0x60b05f8fcf9fe05U, 0x102030506fefb06U, 0xfffe0c0002f7fcf6U,
  0x50001e9f5f00a00U, 0xf1f8ff0a1104f9faU, 0x1008fa040200f3fcU, 0xfe0af1eef9060affU,
  0x5ff0dfbff050c01U, 0x1b0b0707feff0f01U, 0x6fcfff9fcfeff19U, 0xe00fb0303010214U,
  0xedf3f0fff6000bf7U, 0x6fc0a02ecff0409U, 0x4f0fbf6edff0d12U, 0xfb0af703fd030202U,
  0xfcff0afc03fef703U, 0xfe08fd08fafd050bU, 0xf8001102f803faf7U, 0xfc02f0fd02091201U,
  0xf3f5e9fbfd060705U, 0xfdfffffafefde1feU, 0xe8eef3e9eff1f3f8U, 0xdec4dcf6e1dcfeffU,
  0xfafcfff2ee03e9e1U, 0xf7fbf2dee1160ae4U, 0x14fdfcf6fdee050eU, 0xb230e0203fee7feU,
  0xfe040a0907f4f611U, 0x1c12111e0f05051cU, 0x818130729fd05fcU, 0xfbfe0d1a060af900U,
  0xfb0b0821070a1903U, 0xfb0e0a02fefef0faU, 0x11500f0fb19040fU, 0x14fcfbecf6fbdee9U,
  0xc80a081b0003f9fcU, 0xdfe1518fce0fefbU, 0xfeeef0108f8080fU, 0x21d06fe1d0a03fcU,
  0x261a1af8fe12fd12U, 0xb23f8141119f524U, 0x121190207faf505U, 0xd5e51618ebfa052aU,
  0xe80404040f0102fcU, 0xf7fbf8dae51501f5U, 0xf8f5000704f4fff4U, 0xfdfe05040f09e900U,
  0xf7fdfcff0202fdfaU, 0xf7f7f701fef900faU, 0xf80404faf7f8fc01U, 0xff0300fff804fe01U,
  0xf80005030102ff01U, 0x1fbff01fa010300U, 0xfffaff050200fa03U, 0x201fc03fd02fafeU,
  0xf904fefc01fa03fdU, 0xfbf901fffdfafcfaU, 0xff02050001f701faU, 0xfafafd01fd04fc00U,
  0x403fe000004fdf7U, 0x4f7fb05fb05fc01U, 0x1fcf9f800faff01U, 0xfbfe0000f7f802f7U,
  0x2fdf8f7fff903ffU, 0x1fafefd0103fdfbU, 0xfffdfeff00fffc03U, 0x105fffffdf8f8fbU,
  0x102fe0304fbf705U, 0xfe01050402fbf804U, 0x505fefafb03U, 0xf902fcf705010300U,
  0xfbf8f9fffc00fa00U, 0x3fa00fefcfbffU, 0xfdf90405f8f9f8fbU, 0xfcfff803f80002fcU,
  0x305fdf7fefefaffU, 0xfa0300fe00fe01fdU, 0xfcfef8ff02fa0304U, 0x3f8fb01fafc00f8U,
  0xff01faf8ff03f9fcU, 0xfdf9fc0200fefefcU, 0x4fc00fdfa010300U, 0x5f9f703030405faU,
  0xfefcfd00fb0200f9U, 0xf8fcfbfcf700fcfdU, 0x2050400fff90400U, 0xfc02f8fd00010201U,
  0xfd00fd03fafd02faU, 0x703fafffdf9feU, 0x2fdf8050201faf9U, 0xf9fdfffc0405fefeU,
  0xfb03fb01fb02fdfcU, 0xfb0204fd04fcfcfcU, 0x4fdfaf7fef8f700U, 0xff020300fe07fdf9U,
  0x4fb05040203ff04U, 0xff02fc0504fa0703U, 0x3060007fdfefd02U, 0xfbfbfffafaff0603U,
  0x200fa02fbfe06faU, 0xf9fc06fc0205fffdU, 0xfef902000603fb06U, 0x3fe04fd02fa0000U,
  0x501020507fefafdU, 0xfeff070203f9fcfaU, 0x5fc030306050401U, 0xfcfeff070403fb00U,
  0xfb00fbfaff02fbf9U, 0xfafcfefcfe01fc00U, 0x100fb0507f90705U, 0x70407f902fdff02U,
  0xfefd040302fc07fdU, 0xfafe02fa00fbf9f9U, 0xfaf9fc0103fcfc05U, 0x3fdfa030403fffeU,
  0x7fbf903fa03faffU, 0xfd03fd0102020100U, 0xfdfb0502f90300fcU, 0xfcfb04ff00fb03faU,
  0x5fa02fe01ff0505U, 0x204f7fdf9fcf7fbU, 0xfdfa00f7f8faf705U, 0xf9ff00fbfa05ffffU,
  0xfef7fff7f8030105U, 0xf7f9fffa030004f8U, 0x4f8fb02fd010204U, 0xfb01fc02f7fc04fbU,
  0xfc02fe02f903f704U, 0xfd0002fdfdfff9f8U, 0xfff9000205f801U, 0xfdfaf7fbfcf7fff9U,
  0xfa03fa03f802f9fcU, 0xfffe0101f702fe05U, 0xfcf7fbfb05fa0304U, 0xfbff03fd05ff04ffU,
  0x4f70505fa04fdf9U, 0x5f8fff9fbf8fcfdU, 0xfefefbfc0001f702U, 0xfc03040303fffd04U,
  0x20002fe05f7f8fdU, 0x1fff8fc01050204U, 0x1fb01f900fbfaffU, 0xfffc01fefbfb0505U,
  0xfbfffafcf7f804feU, 0xf9fe0205f9fd00faU, 0x3f904fdfcfc0503U, 0x1fa01feff01fc02U,
  0xfcfb01fb01fcfc01U, 0xf7fefdfafaU, 0xfff8020404fbf9U, 0x1fffc050203fb04U,
  0x101f8fc0101fcU, 0x4f8f70503fe00f7U, 0x4ff0404fb02f8faU, 0xf8fff9fffb05fe04U,
  0xf8f7010400f8ff04U, 0xfd01ff05fa0205faU, 0x1faf703fa0402faU, 0x3fa0504fb0503f9U,
  0xfafcfd02fd030403U, 0xf705fd00010202f9U, 0xfe07f804fa03fbfcU, 0x401fef9ff01faU,
  0xfefafd0400f90301U, 0xf9fcfaf702fffcU, 0x5fbfaf7fcfdfcfbU, 0x5fd01f9fffff7fbU,
  0x1fdfcfc05ff05faU, 0x1fcf9f7fefff7U, 0xfd0504fcfc050403U, 0xfbf9ff03faf9fc06U,
  0xfb01f9f9fafbf9ffU, 0xfaf9fd0204fd04ffU, 0xfc01fafb0602fa03U, 0x707fd050007fcfaU,
  0xfc0402fa07f902fcU, 0xfdfc070103fefbfeU, 0xfefef9fdfb07fe01U, 0x300fd06ff03fd03U,
  0x40701f906fd0505U, 0x506fd02fefffcfeU, 0x507020105050404U, 0x3fcfdf9ff040405U,
  0xf9060302fefc0501U, 0x6ff06fd0206f903U, 0x105fa0202020704U, 0x5fcfb030301fd06U,
  0xfbfb01fa00020600U, 0xfefafa07fd02fa07U, 0xfe0600fa07fffe02U, 0xfc0503f9050507U,
  0x5060605f900fafdU, 0x704fb0402fef904U, 0xf9f700f807ff0404U, 0xfd0501fcf800f7feU,
  0xfd0100f902fa0001U, 0xfcfff8fdf703faU, 0xf902fd01f70004f9U, 0xfbfdfaf901fef701U,
  0xfa0200fe04fa0500U, 0xfe04fefe05f7fcfeU, 0xf9f7f7fbf70505f7U, 0x3f903040405f904U,
  0x100f7fef900fcf8U, 0xfeff010102fafe00U, 0x5fafc04fa02fb00U, 0x303fb0105040404U,
  0xfc00f7fa03f7f9f8U, 0x102fcfe01f9ff02U, 0x400fb00f70300f7U, 0x102fbf8ff05fdf8U,
  0x3f8010303fefcf9U, 0xfefb00fcff03faf7U, 0xff0401030200f7fcU, 0xf7f9fefcfd00fcfeU,
  0xfafffffd01f9fbffU, 0x40004fcff05fd00U, 0xfaf9fd0200fcfcfaU, 0x50205fa000700fcU,
  0x306f905fb0506fcU, 0xfffdff0504fffdffU, 0xfd00fffbfafb06f9U, 0xfcfc06f9070305U,
  0x700000703060104U, 0x2faf9fb05070203U, 0xf9fd020500fdfbfaU, 0x70103fafcfcfe02U,
  0x3fdfcfcf9fffd00U, 0xfd05fcfb05000607U, 0xfffd0406ff0103fbU, 0xff0403fb030202f9U,
  0x5fcfb0504030204U, 0xf9fd05fe06030306U, 0xfafe010007fefd06U, 0xf9ff06fb00fd0104U,
  0x5f9fdfb06060303U, 0xfffdf9fc0704fefbU, 0x4f90306f9fa03fdU, 0xf9fe0102ff040306U,
  0x20206fb010106feU, 0xfe01fafefcfefafeU, 0x2fffffefbfafd03U, 0xf9fff70306fc04feU,
  0x5fbfefefafffb01U, 0x104fa0002f7f7fcU, 0xf8f803fc05f9fcfeU, 0x1fcfb00f90003f8U,
  0xfdfdfcfaf8fffb01U, 0x2f7fffffe010300U, 0xf80504f9f704fdU, 0x2fbfb02fbfcf7U,
  0xf9fdfafbf803fdfaU, 0xf7fdfa0400fafa01U, 0xfcf80304f901fd03U, 0xfffcfe000200fc01U,
  0xfafe0002fefaff03U, 0x104fafafcfd0103U, 0x20305f7fc010305U, 0xf7fb04fcfefbfd05U,
  0xfdf7f705fdfb02f9U, 0xfef9fdfbf9fc04fdU, 0xfcfc05fc03fdf903U, 0xfffafbfb020404ffU,
  0xf70100fd05f8f701U, 0xfffefaf7fc010300U, 0xfb03040105faf8fdU, 0xf8f9fff9fbf7fcf8U,
  0xf8fcfffef903f8f9U, 0xfefefbfdfbfc04fbU, 0xfb01f9f805fcf9f8U, 0x4f8f9fbfffbfa05U,
  0xfef8f7fefef801fdU, 0xf903fb0505f9fd01U, 0xfefdf9040504fcf9U, 0x3f902fffbf8f9f8U,
  0xfd020502fbf7faf9U, 0x4fe00fdfe0001fbU, 0xfcf9f9fafef9fb05U, 0xfc02fffafcf8fbfeU,
  0xfdf7f9fb040500f7U, 0xf7f702f7fdf7f902U, 0x404f800fffcf7fbU, 0xf700fcfb0000fe02U,
  0x302fe04fbf70303U, 0x4fdf7fbf9fb00feU, 0x405fff7f90304feU, 0xffffff01faf8fff7U,
  0xf8fb0500f9ff03f9U, 0xfdf9f90300f9fd02U, 0xfdf8fff9fb03fc00U, 0xf9f905fffc05f8f8U,
  0xf9fcf9fb01f9fcf9U, 0xf7f7fafaf7faff04U, 0xfdfbf8f7fdf7ffU, 0x4fdfb01fe05fbU,
  0x5f80200fe050301U, 0x2fefa01f80201f7U, 0xf8fafefbff03fcf9U, 0xfffaf90002f904feU,
  0xfdf8f7faf9fcfbffU, 0x2010504f800f9fdU, 0xf9f8f704fb01fdf7U, 0x3f7fd04010402feU,
  0x3fafe05fbfe0303U, 0x4fefafcfbfb0103U, 0x302fa00fb00fc04U, 0xfe02fb01fffff904U,
  0xfffffdfa05f8fcU, 0xfe0200f9f8fef7f9U, 0xfa020001faf8f9f9U, 0xfff7f9fcfbfafafbU,
  0x101fff8f8fdfefcU, 0xf80304f9f800faf7U, 0xfffeff05fafbfa05U, 0x10305fbfefffc05U,
  0xfdfe040101fafc02U, 0xf8feff01fb0104faU, 0xfffcfbf7020502faU, 0xfbfa02fbfc040303U,
  0x403fffa040303fdU, 0xf9fbfd01fafdfd05U, 0xfcf9f801fcfe01fbU, 0xfeff00fcf7040205U,
  0x1fffbfef9ff00ffU, 0xf8f7f7f9fcfbf7fcU, 0xfe02fb04fb01fefcU, 0xfd01050103fcfbfaU,
  0x3020301f805fafaU, 0xff0403f9030201U, 0xff02fff7f801f9feU, 0xf7f9f9fdfafbfe03U,
  0x7fcfa02f8fd0302U, 0x4f7ff0201fdfc06U, 0x4fd04fd04fcfef7U, 0xfd050000f906fffbU,
  0x7fe03fcfa03U, 0xfefdf900fbfa00ffU, 0x300f907fd0407feU, 0xfd01fb05fcfd0302U,
  0x301fa04fafefa00U, 0xfffbf80305fe03f7U, 0xf9fefdfef80105fcU, 0x3f702fff90403fbU,
  0x10003f702fefbfeU, 0xfe040201fa030300U, 0x104fafcff0505U, 0xfff70201fdfdfbf9U,
  0x205f802fa0003ffU, 0x3fdf900050402faU, 0xfc03fa0401fa0404U, 0x20307fcfc01fefeU,
  0xfaf9fff7fb04fc00U, 0x6ff02fbfe00fbfaU, 0xf905f8fefaf9fa02U, 0xfafa07f702fbf7feU,
  0x304010202fdfeffU, 0xfbfa0203fb020404U, 0xf8faf70200fc0302U, 0xf9fd02fbff0303f8U,
  0x2fc020100fbfe06U, 0xfc03fef704040700U, 0x50206f9fa04fbfdU, 0xfb03fbfffa03faf8U,
  0xfefb03fd04010507U, 0xfb01f9f9f9f9fdfeU, 0x2fafdfe0001fcfaU, 0xfc01fbfefd00f804U,
  0x401040105040003U, 0xf705fbf8f7f9f9fbU, 0xfdf80305fbf902fbU, 0xf8fcfbfef8fe0202U,
  0xff02fafc0503f8U, 0xf9f7ff0401f702feU, 0xf9fcf80100fdfcffU, 0xfe0103f80001fef8U,
  0xf9fcfbfaf8fdf905U, 0xf904fafb0404fc03U, 0x300fdf804ff03fbU, 0xfcfefefff701fe01U,
  0x4f7f8f8fdfefefcU, 0xfef904fef9fbf805U, 0xfc04fbff0504ff00U, 0xf7f7f8fd0302feU,
  0xfdfefa0102fd03fbU, 0xf80401020100fef9U, 0xfb05fefff9fafefcU, 0xfbf703fafbf805faU,
  0xfef9fa00f90204f8U, 0xfe0705faf8fcf902U, 0x3f70404fa01f9U, 0xfa03fefd01fbfffbU,
  0xfaf8f8fefef804faU, 0x1f8050400f8f8fcU, 0xfb02f70005faf8f9U, 0xfc0001fefb03fcf9U,
  0xf7fd01fd01010501U, 0xff0403fefe0004f7U, 0x2fff7fe03f802f9U, 0xfe04fcfef9fe0503U,
  0x2f8fc03faf801fdU, 0x501f9fdfffa00f8U, 0xf905fafe01f7f8faU, 0xfdfafbfdf900faU,
  0xfb04fa02faf902f9U, 0xfc05fe03fffafcfbU, 0xf901fc01f8fa02faU, 0xf7fcf7f9f7f905feU,
  0xf9fbfcf8ff030403U, 0xff01ff0404fb0303U, 0xf8f803f8fef7ffU, 0xfbf8f8fd0003fff8U,
  0xf8f800fc00fefefaU, 0xfcfdfcfb0203fb02U, 0xfdfc01fcfc02ff00U, 0x2fe0106fd0303faU,
  0xfbf9ff01fcfa07ffU, 0xfa05060002030505U, 0xff0006fdf9fd0203U, 0xfe06fb05fefcf903U,
  0x20504fafa0602ffU, 0xfa0204fb03040102U, 0xfe0100fe0101fc07U, 0x403020701fe0402U,
  0xff0300fdfd04fcfdU, 0x1fffd01fefffd03U, 0x406f9fc010207f9U, 0xf9f9fd0103fdf906U,
  0x4fa01fe00060300U, 0xfc00ff0506030200U, 0x305f9fe0700ffffU, 0x2fb0005fa070606U,
  0xf9fc010500fb04fdU, 0xfefcfa0404010307U, 0xfb05ff01f9f9fdfbU, 0xfc00020106feff02U,
  0x2fbfffa02020202U, 0xfdfcfa0404fc03fcU, 0xfffa01fdfe0203U, 0xfb03fa02fb040404U,
  0xfbf8fb01f603fafaU, 0x5fb01fbf9000105U, 0xf9f804f9fcff00fbU, 0xfdfef7f701f7f9f7U,
  0xfbfbfc0304f701f8U, 0x4fc05f90300f704U, 0xf8fb03f801fcfe01U, 0x203fbf804f903fbU,
  0xfc00fffb04fbfcf7U, 0x30504fa04fdf7feU, 0x3fefc04fb00fd00U, 0xf8fd03faf800f7feU,
  0x5f803fc04fbf8ffU, 0xf7ff02020303fe02U, 0xfe00ff03fcfef7fbU, 0x4fd03fa05fa00f7U,
  0xfa04f900fe02f903U, 0xf80300f9fffbfb04U, 0xf702ff02ff02fc01U, 0xfe01fdf8f8fff7feU,
  0x4fff705f9f700fdU, 0xfafef702fdfafd01U, 0xfafc01f703fefc04U, 0x4fafbf900f700fcU,
  0xfe020208fefff804U, 0xf802010400fff9fbU, 0x2020500fa06fc01U, 0xfb0405fffaf704faU,
  0xff01fd04f8f70604U, 0xfdfe000606070401U, 0x10304fd0404f6f8U, 0xfcfd0503030404feU,
  0xff0404f8faf701fcU, 0x4fb02fdfd02f8f9U, 0x8f9020808f7f7fcU, 0xfafcf70201fc0301U,
  0x40402fcf7fdfff9U, 0x1ff070603fefdfeU, 0x3fb060300f8f6f8U, 0xfbf7fefc01fcfb01U,
  0xf8020200080904faU, 0xff0405fd05fb02ffU, 0x803fffd03fdfbf7U, 0x5fdff09f9050208U,
  0xfdfd03fefa030300U, 0x300fc010600ffffU, 0xfc00010301000402U, 0xfc04fbf9fe08U,
  0xfbfb020103fcfbfdU, 0xfdfe03faff060600U, 0x50404faf905fdfbU, 0xfc06fd0001fe0602U,
  0xf905f9fd03fa06fbU, 0x3fcfefe00050202U, 0x2fdf902f9fffefbU, 0x307fe0603f9fbfcU,
  0x7010002fa05ff07U, 0xfafc03fb03fa0306U, 0xfcfa0204fdfb0700U, 0x405fd02f9fbfb04U,
  0x4fc07fc010206faU, 0x50207fe07fefdffU, 0x5fb04f90704fa06U, 0xfeff04fefbfc07f9U,
  0xfbfafdfdfcfbfd01U, 0x602fc010603fcfeU, 0x2ff00fb0402fa07U, 0x6fdfef9fffa04ffU,
  0xfefc0104fa050700U, 0xfafd0003fffbfefaU, 0x3fb03fe04fa0302U, 0x406fdfafa01ff03U,
  0xf9fd060407fafffbU, 0x2ff00fdf7f9f7f8U, 0xfb030002f9f7fefdU, 0xf900f9fafafbfaU,
  0xf901fd0401f80403U, 0xfdfa01fffbfbffffU, 0xfa01fbfdf7ff0003U, 0xf90301fb04fa04f7U,
  0x3f7f6fffafe0200U, 0xfcfafe02fa00fffeU, 0xf80100f6fefdfdf7U, 0xfd030500fffdf7fcU,
  0xff00fe02fbfefcfbU, 0xfaf7f9fcf9fff900U, 0xffff02fafb010203U, 0xff06f909fe05fefcU,
  0xfcff00fa01fdfeffU, 0xff03fcfefff9fff7U, 0xfdfb04fcfa020303U, 0xfcf7fb02fcff0504U,
  0xfd05f7fffefdfdfaU, 0xf901fb0303f9fffeU, 0x4fdfd0705f801fcU, 0xff01faf7f902fbf9U,
  0xf804ff05070800f7U, 0xfff604fcfa04feU, 0x404fc020708fd0aU, 0xff0802fff8fd0806U,
  0x506f903fefb02feU, 0xfc09fe04fbff0904U, 0x30303fbfdfb0a05U, 0x100020000fbf6f8U,
  0xfffff6fd050304fdU, 0x504fff9f8090008U, 0xfaf601fdfdfdfd07U, 0x506f7fbfefc0409U,
  0x4fbfdfdfbfd0503U, 0xfa080004f705fcf7U, 0xfd00fdfffa020203U, 0x1fc00f6fef60104U,
  0x20000fb03fdfb01U, 0x4070202020404fdU, 0xf8fbf8fc0404fa09U, 0xfff700fdff04faf6U,
  0xfcf7f805f8fefef8U, 0xfd00f9f9fdfdf804U, 0xfafffd01f7faffU, 0x4fa01fcfd0302fcU,
  0xf60003f80502fbU, 0x70904060609f9f7U, 0xfcfafffbfa05fe00U, 0xfb010500fe010707U,
  0x507fb07fd030604U, 0x40301fc07fc05fcU, 0xfcfb010604faf9U, 0xfbfa00fe00fd04ffU,
  0x105030607fe01fcU, 0x102fdfdfcfa0600U, 0xf903faf9fa05f9fdU, 0x7fd04fa04fdf802U,
  0x30204010703fd03U, 0x701fffc02fa0505U, 0xfffa02fefd010006U, 0x3fa0202fb02fafaU,
  0x1f902fc07fbfdffU, 0x706fd0603fbfe01U, 0xfc02f80701fc0700U, 0xfdf9fdfffafdf901U,
  0x602f70102fff9fdU, 0x100fbfb04fd0503U, 0xfbf9020300fa0402U, 0x4fa05fa07fbfa04U,
  0xfd0707fdfefc0302U, 0x7050004fa000000U, 0xf8fa04fc000305fbU, 0xff0401fdfffffaU,
  0xfc020203fafe01f8U, 0xfa0502fe000103ffU, 0x2fffb02ff0000fcU, 0xfcff0202fff7ff03U,
  0xfdf7fdf9fbff05fdU, 0xfc00fb00030502f9U, 0xf9f80202fffff7f7U, 0xf8fefdfefcfb0204U,
  0xfdf80303fefffffdU, 0xfbfcfafffdf70403U, 0xf9fd04040002fffbU, 0xfefef702fbfcfff9U,
  0x2fff8f9fff90304U, 0xfdfafdf7fb04ff01U, 0xfe01fefafef9fa01U, 0xfffefdf8fb010400U,
  0x4f7f9fe0404f8f9U, 0xfd01fe01010101ffU, 0xfcfefe04fffbfaU, 0xff030105fd0103fdU,
  0x4fafb03fcf90303U, 0xf800f70203f704fcU, 0xfffcfb0003fafb04U, 0x40202fafe02fd00U,
  0x5fa05ff0506fe07U, 0xfdfffcff07fc0500U, 0x202fd04fb03fff9U, 0xf902000602fbf603U,
  0xff0700fe07060004U, 0xfdfb030407fc0305U, 0xfc050703fefa00ffU, 0xfdf906fdfd000403U,
  0x3fc0603050601feU, 0xfb05fa0501fd04U, 0x6fffb0300060207U, 0xfa02f9030403fbffU,
  0x4fc0007fb000504U, 0xfbfd0104fbfaf907U, 0x40503fbfc0207feU, 0x1040201fefd01fcU,
  0x70405fafa07fafbU, 0x5fff902ff00f901U, 0x30704fd0000fc02U, 0xf900fdfdfafb0305U,
  0xfb030702020401fdU, 0xfb05fa00ff0504f9U, 0xf9010104f9fb0007U, 0xf8f8fafd00fefbf9U,
  0xfff9f9fef7fe00f8U, 0xfafdfcfeff02f8f8U, 0xfb01fb00ff00f800U, 0xfefd04f9f805fdfbU,
  0x30000fcf8f802f8U, 0xfafcf6fafc010003U, 0xfcfdf9fdfbf90401U, 0xff03000403fef801U,
  0xf6fa000301fcf903U, 0x1fe00f7f8fffbffU, 0xfdfbf7f8fa01f801U, 0x3fdfc0501fb0005U,
  0x2fa0102fc0000fdU, 0xfd00f7f705ffff00U, 0xfaf900fef704f803U, 0xf6fefbfbfb02fd00U,
  0xf70202fdf6fd05feU, 0x4fafb0402ff03f9U, 0x205fe0004fb03fcU, 0xfcfd02fefd02f8feU,
  0x1fafbfbf7faf704U, 0xff050000ff02fa04U, 0x30204fefe0204fbU, 0xfffbfcfbfefdf6f7U,
  0xf7f6f904f7fef7f8U, 0x2000403fdf9f7ffU, 0x201010001f8f9faU, 0xf6f7fb00f70100fcU,
  0xf9fdf902ff0303f7U, 0xfcf8fbf8f7f7fffcU, 0xfefbf9030002fafcU, 0x1fb03fffaf901feU,
  0x2000002f703f800U, 0x400f7fbfaf70002U, 0xf8fb01fd0000fd03U, 0x1fa0404fb03f8faU,
  0xfdf600f8ffff0300U, 0x3f8f9f904f902f7U, 0x1fafbfcfe00f903U, 0xf6f9fdf7f604f9faU,
  0xfefffdfbfafa00fcU, 0xfaf8fe0500f8fcfcU, 0x104ff01fd0201faU, 0x2f9fdf800fffb04U,
  0xff02f9fdfb010402U, 0xf9f802fd03fe0205U, 0xf704fa00fa03fc03U, 0x5fdfc0401fefff6U,
  0xf903f8fa02fbfa04U, 0x1f904fcf7fefaf9U, 0xf9fd0005f7fcfafdU, 0xff0303fefef8fb03U,
  0x403f9fdfdfb0001U, 0x4f8fe0000f9f6fdU, 0xf8020101f901fefdU, 0xf903fdf703fc00feU,
  0xf8f8fc03f7fb0304U, 0xf90102fff9f7fe03U, 0xf6f8fef6f6f9f903U, 0xfc04fef6f7f6fffcU,
  0xfd02fd02fa020404U, 0x400fb0504000103U, 0xfbf9f9fefcfcf8ffU, 0x1fcfafd010304f8U,
  0x403f7fa04faf801U, 0xf7f6fdfd00fd00fbU, 0xfcfa02f9010303fcU, 0x2fa04f801ff00f9U,
  0xfafbfd01fff9fc04U, 0xfbf7fa01f8fffb03U, 0x1fc03fcf7f804fdU, 0xf9fd04fffc04fdffU,
  0xfcfef7f90102f8f8U, 0xfaf70100fff8fdfdU, 0xfa01fb05050402f8U, 0x30104f6fa0203feU,
  0xfffcfcfa0004fefcU, 0x3fb04fd04fb04fdU, 0x1fcf903f703fcffU, 0xfff8f7f703f703fdU,
  0xfdfffbff02fe00fdU, 0xfb03fcf9fb0003fbU, 0xfbfdfb02ff0102f8U, 0xfdfd05f700fbfaU,
  0x301f8010300f8fcU, 0x100090405fe05f7U, 0xfff8fafffa030002U, 0x300f7040104f8fcU,
  0xff020500fafff8ffU, 0xfc04f703f7f9f7fcU, 0xfc02fcfafaf90403U, 0xfd0002fd000100U,
  0xf60304f9fe02fbfaU, 0xf8fc030104fe0305U, 0x2fef700fd020000U, 0xf9fe02f903fafef9U,
  0xf80200f8fbfc01ffU, 0x1f701fafffdf800U, 0x4030002fefc0000U, 0x3fdfd01f9fa07feU,
  0x802f704fb0100ffU, 0xff03080802f80009U, 0x5000609030100feU, 0x4fcf90100fbfd01U,
  0x402fb0600fd01fbU, 0x30205fef9000802U, 0xfefbfff6fd08fc08U, 0x8faf8f803f9fff8U,
  0x2fe00fc0302ff02U, 0xfe0102fcf704f9fdU, 0xfc0102fff7fbfc04U, 0xf9f70303fcfd03faU,
  0xfe0603fbff0000feU, 0x2f7fff905fe0803U, 0x8fd04fefb0200f7U, 0xfc03f8080405f802U,
  0x4fcff01fbff0201U, 0x10302f704fcf9faU, 0xfd07faf904fafbf7U, 0xf702f90507f804feU,
  0x206f90000fbfdfbU, 0xfdfe05f9fc00faU, 0x3fffbfefdf70005U, 0x1f80101f704f9fcU,
  0x1fbfdf600fb01fcU, 0x8fe03fdfbfe01f8U, 0x3ff0500fffdf9f8U, 0x404f90503f8fcfeU,
  0x5faf8fdfb020000U, 0x3fa04f8f7f7f701U, 0xfdfa05f601010200U, 0xf7f9040301fbf9feU,
  0x6fcfdfbf801ffU, 0x4fcfffc02f8f8f8U, 0xf90000fefcfc00faU, 0xf803faf7fc0407faU,
  0xf704010a06fefbfeU, 0xfb0302fef7fefd04U, 0x3fbfc01fcf7fcf8U, 0xfe03010202fa01faU,
  0xf9010304fbfcfef7U, 0x100fe02ff03fc03U, 0xfa04020205f7f900U, 0xf6f9fb02f6f7f9fcU,
  0x3ff02fc0303fc04U, 0xf90202fbfff9f801U, 0xf6fbf9fcfaf7fbfaU, 0xf7fefffafdfbfefbU,
  0x3f702fef8f9fafbU, 0x4fbf600fffafdfaU, 0xfa0002f802f7f802U, 0xfd040004fbfbf900U,
  0x3f9fefff90203f9U, 0xfa0000f7fef9f804U, 0xfdf7f7fd01fc0202U, 0xfcf6fcfe010403fdU,
  0xfefb0202f8f802f8U, 0xfefffafdf6fa0205U, 0xfdfbf90003f704faU, 0xf601fcf801fffaf6U,
  0xf7faf9fffc0303feU, 0xfafafdfdf90403fcU, 0x30200fcffff0002U, 0xfdfbfffdfffcfffeU,
  0xfd04f7fc04fafafaU, 0xfdfaf7fbf6fff900U, 0x4020200fcfafef9U, 0xfbf804fffcfa02U,
  0xfbff01fd000701U, 0xfafcf9fefdfefafdU, 0xfffef805f9f7fe01U, 0xfb04060301fafe01U,
  0x1040002fafa0305U, 0xfd010104fa010207U, 0x403faf9040204U, 0xfa06fc01ff00fc02U,
  0x20706fc07030104U, 0xf904fcfa03fff900U, 0xf90501fbf9fd04fcU, 0x1fe07fbfd02ffffU,
  0xfc0006fc03fafcffU, 0x605fc060600fffcU, 0x104ff0103fd07fcU, 0xff05fe03faf905fcU,
  0xfc03fffa0000fb02U, 0x2ff020406fefd03U, 0xff0602fbf90706feU, 0xfa0106070505faU,
  0xfcfc00fe0200f903U, 0xfbfd06fc06fb06ffU, 0xfb0001fb07fe03faU, 0x7050706fe0200faU,
  0x2f9ff02fafcfafaU, 0xfbfbf901fb0202fcU, 0x5fbfc01fc06ff05U, 0xf7fffe020002fc00U,
  0xf900f9020205fef9U, 0x304fbfdfefefaf9U, 0xfaf9fbff04fd0003U, 0xfb0301fcf9fff9fcU,
  0x503f7fb03fb05feU, 0x20304ffffff05f7U, 0xfff9f7f9f8f8f902U, 0xfff8fef6fe01f8feU,
  0x204fbfefef6ffffU, 0x404ff030004f7feU, 0xf6f903f8f8fd03f7U, 0x1fffafdfa0001fcU,
  0xfcfe0302fb00faffU, 0x5f7fcf90300fefdU, 0xf8f6f9f9fa01fd03U, 0xf9fefc0400f6f8faU,
  0x5f903f9fa0005f7U, 0x4fafc0500fafa04U, 0x3fcfdf7fd04fef9U, 0xf702fafb00fdfdfaU,
  0xf90004f8f704fe02U, 0xfdf6f8fc00f7fe03U, 0xfdf70300fcfafff9U, 0xf7fe01f9f6f8f700U,
  0xff0107ff05fcfdffU, 0xfbfffb0104fc0405U, 0x600fefdfdfc01f9U, 0xfe02fe00f9060207U,
  0xfdfaff06fa020401U, 0xfb000402fb03fffeU, 0x5fefa01fdfff801U, 0xf7fef9f8fef7faf9U,
  0xfd0202fc03fffdf8U, 0x3f8fc01fa04fdffU, 0x1f905f7fafff7feU, 0xf8f9f7fc00fe01fdU,
  0xf903f902fffcfbfeU, 0x301fdfd02030403U, 0x2fefa010000fb02U, 0xfafffcf801fff903U,
  0xfa01f9010200f7fcU, 0xfa02fdfbfcf7fbfbU, 0x202f8f8f7f90403U, 0xf70104faf8030501U,
  0xff01f6fe05fef9U, 0xf602f9f8f904ff01U, 0xfcff00fa03fe0304U, 0xfbfcf8fc04f8f904U,
  0x700fefcfb000101U, 0x307faf90701fe06U, 0x6f906fc02040605U, 0xff070401fafdfb00U,
  0xfafcfe05fdfc07ffU, 0x206010206fefd05U, 0x10007fffbfbfe00U, 0xf907fffc05020604U,
  0x7010605040602U, 0x7fc060501030006U, 0x30307f903fefe07U, 0x207fefb0503ffU,
  0x3fe050102fcfafeU, 0x60703ff01ff03fcU, 0xff050501050206fcU, 0xfe06fb000200fdU,
  0x706020706f9fb02U, 0x20502f90002fa03U, 0xfdfd0104fafa03feU, 0x300fef9ff010506U,
  0xfef9f901feff0401U, 0xfbfb040401fffc05U, 0x2fdfcfa0202fb07U, 0xfefd0505fe04ff00U,
  0x201fcfdf902fa04U, 0xf7030000f9f9fb02U, 0xfef9fffe01fcfbf7U, 0xfc00f805fbfc01faU,
  0xfafcffff01fcfcfcU, 0xfefcfef7f9fffff9U, 0x305f9fefc00f9feU, 0x20103fffd00fa00U,
  0x302010200010303U, 0x5f9fefc01fe0402U, 0xfdfa0100fffb0207U, 0xf8ff02f9f7f90300U,
  0xfcfdfa03020102fbU, 0x3060004fefe01feU, 0x1fef7fafbf9fafeU, 0xffff070604faf7U,
  0xf902fcfbf801fbfbU, 0x2fffd05fc00fffaU, 0x6f9fbfe04f90200U, 0x4f7fd02fe0305faU,
  0x5fc0405fa01f8faU, 0xfefe03fcfdfc0005U, 0x1f9fb01fcfbfdfaU, 0xf7fefbfff901f906U,
  0xff02fc0501fbfe05U, 0xf9fcfefe00fb0303U, 0x6fe05fafc04fbfcU, 0x4fd0005f9ffU,
  0x504fe02fd000603U, 0x7fbfcff03fa07faU, 0xf6fc0603ff0405fdU, 0x504fb06fd01fc00U,
  0xfbf9fdfefaff0503U, 0x7fd060201040106U, 0xfefa05f9fcfa04fbU, 0xfd03fd01fdf8feU,
  0xfa00fa0200fd01feU, 0x5fc06fafd040000U, 0xfdffffff00ff04fbU, 0x5fe01fb05f80001U,
  0x5050603f90201fbU, 0xfffefc070304f904U, 0x7f70604fc01fd00U, 0x3fa06fffffefbffU,
  0xfb00ff030102fcfaU, 0xfd010501fcffffU, 0xfc04f906fdfff802U, 0x6ff00f90207fcfaU,
  0x60201fdfcf90405U, 0xf9fc07fd06070402U, 0xf903fdfd030301fbU, 0x2fafafb01fefe02U,
  0x602fc0702f6fe06U, 0xff020201fe04fcfeU, 0x303fefbff03f8fdU, 0x1f802fefefbfcfeU,
  0x4fefb020501fdffU, 0xff04fffbfbf8fbfaU, 0x100060105fe0002U, 0xf8f701fffc00f7U,
  0xf7fa00fe0507fb05U, 0xfb04fffd02fefd01U, 0xfc0202fa03fe02fdU, 0xfe06f8fcf8f70501U,
  0x2fbf9fef7fafafdU, 0xfcfcff01faff04f9U, 0xfdfdfafd02fe04ffU, 0xf601f9030400fc02U,
  0x304fbf905ff04ffU, 0xf700fafffe000702U, 0xff02ff03fbf7fffeU, 0xf7f9fdfbfcfcfe00U,
  0xff000100fb06f9f7U, 0xfa020204fb01fd02U, 0x2fc00f9ff020303U, 0xf8fdf80304030302U,
  0xfb05f7fbfb02faU, 0xf8fefefcfbfa0201U, 0xfefd0000fa020004U, 0xf8fe0103fff8fb01U,
  0xf9fbfe04f7fcf7f9U, 0xf7fefa010403feU, 0xfbf7fcf6fcfbf6faU, 0xf800f90003f604fbU,
  0xf8030102fafff9f7U, 0xfefefb05fb03fb01U, 0x100fd0300fcf900U, 0xf9fdf702f7fef800U,
  0xff05ff04fdfcfbf9U, 0xfb01f8fafffafaffU, 0xfbfd01fcf701fe05U, 0x3fd01f8fcfef802U,
  0x4fdfcfbf8fcfaf6U, 0x2f9fd0100fc0004U, 0x3fcf90500f9fcf9U, 0xffff0006fafbfff8U,
  0xfafb01f9000304f7U, 0xf705fefefbfbfef8U, 0xf701fefd02fdfaf8U, 0xfa0600fafdfcff04U,
  0x5fdfc0604010302U, 0xfafefe07fefc0000U, 0xfefffef9fbfa00U, 0x2fff9010303f9feU,
  0xf902fefef90505fcU, 0x50700fff9fc02U, 0x303fefb02f8faU, 0x500040401010203U,
  0xf9fafb050301fdfeU, 0x3fafd070007f9fdU, 0x5fa0106feff06f7U, 0x6ff04fafdfdfc00U,
  0xfbff0603fdf904feU, 0xfa0501fbf9030102U, 0x30405f9fb06f800U, 0xf7f802fff9fd01fbU,
  0xfb00f804fb0500ffU, 0xfff9f900f70402f8U, 0x4f7ff0203000402U, 0xfefbf90401fcfafbU,
  0x4fd04fd0105fd03U, 0xfd01050505fffc05U, 0xfafb04fdf902f703U, 0xfff701020701f8fcU,
  0xf6fafdf801f604U, 0xfbfb0402f900fbfdU, 0xfcf9fdfa05ff0202U, 0xff01fb0400040006U,
  0xfaf704f7f80400U, 0xfcfc00fe0406ff06U, 0x4f7fffef701fdffU, 0xfdfb02fff7fffcfaU,
  0xfc0203040406fe04U, 0x4fa03fefb000500U, 0xfa03fafafbfefdffU, 0xfa020205fffcf906U,
  0x600fcfc01fb04fdU, 0x50504fcfff8fef9U, 0xfdfa04010700fafcU, 0xfc00fffa01fffefdU,
  0x202f9f9faff02feU, 0x605fefaf9fef605U, 0xfefef6fff70302faU, 0x7fdfc04fefa05fbU,
  0xf9ff05030204fffdU, 0xfe07fc00010400f9U, 0xfff906f9fd02fdfbU, 0x3fc01f7fa05fa03U,
  0xf801fefc01f9fefaU, 0x1fffa0005fafb00U, 0xff02f8ff0100f801U, 0x6f9fcf9f7fa00ffU,
  0x3f7faf703fefafcU, 0xfa0203f9fbf90303U, 0xf9fa00f904fef703U, 0x2fff8fbf7ff01f7U,
  0x4f8f8fff8fefaf9U, 0xf6f7fc0401fe0103U, 0xf8fd0002fbf8f7ffU, 0x2fffdfa0200fef9U,
  0x201ffff05010000U, 0xf8000403ff06fc01U, 0xfdfafcfbfdfa0004U, 0x30105fa01fa02f7U,
  0xfcfcfef903fe0400U, 0xfe0000f60001U, 0x404ff0003fffd04U, 0x5fc010203030004U,
  0xfd02fbf8ff0502f9U, 0xff0203fd0703faffU, 0x7fdfdf603010104U, 0xfa01fc04f604f704U,
  0x303fffbfa03f900U, 0x4f70102fd03f700U, 0xfdf9fa0303fafc01U, 0x2f8fe03fe0102fdU,
  0xf7fc00f8f7fbf902U, 0xfcfcf6fd04fafefdU, 0xf70400fef70303fdU, 0x1020400fffdf9U,
  0x1fbfcfff6fc02f9U, 0x30100f7fc01f8ffU, 0xf7fef7fd00fa0306U, 0xf800ff01fffef7fbU,
  0xf8fa02fb03fcfdf6U, 0xfd01fafe050101f8U, 0xf9040005f9fcfbU, 0xf703fcfefdfef8ffU,
  0xfd00f9fafe00fafcU, 0xf7fcfb01fff8fbffU, 0xfffa040403f606U, 0xf9fe01fe02fffcf8U,
  0x2fffbfaf9fef8f9U, 0xfcf602fef7fbff00U, 0xfefbf905fdfef800U, 0xf701fd04f80300fbU,
  0xf8f7ff01fef8f900U, 0xfafd0000fefcfc04U, 0xfefa0300fbfcfd03U, 0xfd0506fcf7040400U,
  0xfafd03fa00f90001U, 0xfafb00f9f904f7ffU, 0xf703fdfafefb0507U, 0x6f90503fd05fe00U,
  0xfff704fcff0104ffU, 0xfe00f901fff8f9ffU, 0xf6fdfe04fefef903U, 0xfe03fdfcfe0103fcU,
  0xfef9fafff9f8ff01U, 0xfafdfb00f7f8fb00U, 0xff01fafb0200faf9U, 0x2fcfbfef902fe01U,
  0xf8f803fcf7f904f9U, 0x1f802fd00fcffffU, 0xfefafe03fcf9f6feU, 0xf9fbf903fdf7ff05U,
  0x4fb01fe01020404U, 0xfd01fcf803fbfefdU, 0xfb03fafb05010501U, 0xfbfefefefe0003fcU,
  0xfefc0102030002fdU, 0xfcfcff0301fd0305U, 0x3fa04f9f802f9U, 0x3fafaf904f8fff8U,
  0xf9fefef8fcf60303U, 0xfbfffefb03fffdfaU, 0xff020600fdf7f9f8U, 0x30203fffb01fcU,
  0xfa04fcfefe03f6f9U, 0xfcfefbfafff6ff03U, 0xfc00fdfef9f80407U, 0x5fdfffcfa040001U,
  0xfdfb02f902fdfbf9U, 0xf70404fa030002fbU, 0xfdfcfdf7f7030203U, 0x3f7f70104fd04ffU,
  0xfffe01f8fcfcfaffU, 0xfc030002020404fdU, 0x5fff7f902f6fb04U, 0xf9f7fbfafb0304fbU,
  0xfc04fa04f7f604fdU, 0x3ff0301fcfc0202U, 0xfa0303ff07fefffaU, 0xfafb000201fa02faU,
  0x101fcfd05010702U, 0xfd0504fff6fa0200U, 0x4fffc02fe03fc04U, 0xf6f70302fcfbfd06U,
  0x101fff7f8ff03faU, 0xff00fffefcfbf9ffU, 0xf80002fc03f700fcU, 0x403fef9f7010406U,
  0x1fdfefbf901fdfbU, 0xf7fbff030404fd02U, 0xffff01f8fef9fdffU, 0x1f7f8fc02f7f8ffU,
  0xfcf9f70102f9ff03U, 0xf7f9fff600fbf7f8U, 0xf7f8f9f7fdfa00f9U, 0xff00fb00f8fbfaffU,
  0xf7f804fdf7ff0401U, 0xfc020400fc01fffdU, 0x301f905f902fdfdU, 0xfd03f8f8f9fc05faU,
  0xf7fcf801f7f60104U, 0xfefef70402fcfd02U, 0x20005f7fffb02f8U, 0xfb010003f900f8faU,
  0x2f803f9fffef800U, 0x102fe00040000feU, 0xfffbf9fdfef802f7U, 0xfe04020502fb0204U,
  0xfcf7fef70001feffU, 0xfcfb0402fb03f7U, 0xf70202000305f703U, 0xfdfafdfc03fa01f8U,
  0xfef7fbfa00fafefaU, 0x3fc04fffef6f901U, 0xfefcf6030400fa00U, 0xf8f9fa03f9f6fcfdU,
  0x2fafcf9fb01f901U, 0x2ffff0100f8f9faU, 0xfaf8f900f8fefbfaU, 0xfef7fe0503020500U,
  0xf9f8fb01f800fefbU, 0x100fffeff04fc03U, 0xfc0500040503fff9U, 0xfd00fa06fafdfcfaU,
  0xfe00fd00f7f8faf8U, 0xfef9fd03fd05fffcU, 0x5fa0405f903f8f9U, 0x10700fdfbfefcfbU,
  0xfcfefefcfbf9fc07U, 0xfafe06f8fdfcfffbU, 0xfcfdf8fef8050106U, 0x202fb07fdfc0307U,
  0xfa070604feff0506U, 0xfdfdfc02fdfe0004U, 0xfefb030405000007U, 0x6fc070004f904U,
  0xff04fbf8f803fdfcU, 0xfcfc02fefb0701fdU, 0xfffafefcf6fffff8U, 0x20207fefefdf9f9U,
  0x3fb0000f9fdf701U, 0x1fc02010004ff00U, 0xfef7fd00f9fffefaU, 0x1fefcfffa02fc03U,
  0x207fffb01fefcfaU, 0x4f8040004fbfaU, 0xf6fe02fbfa020101U, 0xf9fcfafbf903f7feU,
  0xfd03fffbfdf8f7U, 0xf6f9fa01fdfcfcf9U, 0xf600f9f9fbf70603U, 0x1fcfb0004fbfefbU,
  0xf702fbf8fcfcfdf7U, 0xf7f8ffff00fefafaU, 0x302f900fbf8fffeU, 0xf901fefa06faf9feU,
  0xf8fbfc05000403feU, 0xfcf700fffd0004U, 0xfff7fb03fbfd03f8U, 0xfcf9fbf8fa01f7U,
  0xfe03fbfe00fbfa01U, 0xf9fa04f70004fb05U, 0x1fdf90100fbfaffU, 0xfa0404fef8faf8U,
  0xfffefc0402f9f901U, 0xfef900fcf7fdU, 0x1fb05fffefff601U, 0xfcf9020102fbfc00U,
  0xfef704f7f90303f7U, 0x1f70303fe0505faU, 0x202f601fbf905ffU, 0x300f8fbfbf7ff01U,
  0x3fe04fcf9f8f8faU, 0x201fcf703f704U, 0xff04fcfd03fb0401U, 0xfa00f8f8010101f7U,
  0x30300f9f70000f6U, 0xf601fffb01fef7faU, 0xfdfaf7fcfbf7fff8U, 0x40402f6fdfaf900U,
  0xfb0405fafa0201U, 0xf60704f7f6030405U, 0xfdf9fa0400fe0204U, 0xf902f90101fcff05U,
  0xf8fffcfcfbfdff07U, 0xf9fe020303060405U, 0xfe020203fd01fff7U, 0xfdff0107fff6f8feU,
  0xfafb02fa0402fcfdU, 0xf7f9fefbfffef8U, 0x203f9fc02020001U, 0xf9fefc0002fafefaU,
  0x3f8050803080400U, 0xfbfefafffeff02feU, 0x102fcfafefb0904U, 0xfcfef8fc09fafefcU,
  0xfdfa000405faff05U, 0xfc0504f9fbfdf901U, 0xf702fdfef9f90007U, 0xfc05fa0503fefdfdU,
  0xf9fffa0704fdfc07U, 0x100fb0103f9fdfaU, 0xff0003050504fafaU, 0xfd010504fe0202faU,
  0xfefcfd01fc06fb03U, 0xfd02fffcfb010607U, 0x504f9fe040002fbU, 0x4ff05fb07fcfc05U,
  0x3070003fe02fcf9U, 0x202ff00040006f9U, 0x1ff07fe0705f901U, 0xfefc02fdfb0100fcU,
  0xf9010306fbf901f9U, 0xfcff000107050400U, 0x1fa0203fd04fc00U, 0x6f9fb06faff02fbU,
  0xfef902fe0207fbfcU, 0x7fbfbfe07fe00faU, 0xfe050204f90101faU, 0xf907fc0500fa0503U,
  0xf903f9fe07fffcfaU, 0x104fdfafbfdfd06U, 0xfaf9040203fefcfbU, 0xfbfc01ff02fbfd03U,
  0x4ff02020201fd02U, 0x5fb04ff020205f9U, 0xfefbfbfd0501ff07U, 0x4fffdfb04ff06feU,
  0x4f9fb0301fffbfaU, 0xfd01fdf8f80303f6U, 0xff0303ff0004fd01U, 0x3f8fffdfaf8f8U,
  0xfcfdfdf7fdfcfe01U, 0x3fcf7fb00fff7U, 0xfa01fbfcfdfbfbffU, 0xfc07fbfbfefa0408U,
  0xf9fafafaf70304faU, 0xf9fdf702fcff01fdU, 0x405fd00fbfdfbfeU, 0x302fa0302ff0600U,
  0x402040703040703U, 0x4f804fff80209faU, 0xfb0104ff02fd01feU, 0xfe05f701f7030400U,
  0xf7040601010008U, 0x405ff02f6fd0201U, 0x205f9fafa0009f9U, 0xfe0000fc02f904f7U,
  0xfe05f8040000ff00U, 0xfaf9f7fbfa05fc03U, 0x101fbfdf8fe0402U, 0xfafcfcf8ff000404U,
  0x106000503f900fbU, 0x404fe0303fbf6U, 0xfc0001f8fa09fc04U, 0xfbfff803030afeU,
  0xf8fc05fb04fdfbfeU, 0xfd0001fffdfb0208U, 0x4fdfd04fcf7fbffU, 0x4f7f702fbfcf600U,
  0xf60103fb0309feffU, 0x2fffe0504f9ffffU, 0xfd010205f803fd01U, 0xfb0003fbfdf6fcf7U,
  0xfb010108fd02fbU, 0xfefc00f905fa00fbU, 0xfcf7fcfc040301f8U, 0xf9faf9fafcf8f702U,
  0xfffbfbf7fdf9faffU, 0xf704f800fbfafeU, 0xf8fffcfe01ff04faU, 0xfdfbfcffff0203faU,
  0xfc00f8fe03fb05U, 0xf7fdf8fcfff9fdfcU, 0xfe03f703fcfbfbU, 0xf8f903fcfcfff901U,
  0xfb03faf8f805fdU, 0xfffff90501f6fa01U, 0xf904040103fcfa01U, 0xfafb020004fcfdf9U,
  0x404fa010403fafdU, 0xfaf90001ff05fd02U, 0xfa0501f90507ff02U, 0x1fdfffbfe0604feU,
  0x2fdfb00fa00fbfcU, 0x5f9fffe05fc03fbU, 0x3fafe0704070000U, 0xfe0204ff01fefcU,
  0x5fe06fa00ff0006U, 0x1fafe04ff04fdfbU, 0xfc02f9070503fbfcU, 0xff060701010607fbU,
  0xfe0100f9fefd0401U, 0xfd01fa060603f900U, 0x406fb07fa04fa02U, 0xfe0601fd03fe0201U,
  0xf902fd0605ff03fdU, 0xf90500000102f906U, 0xfe0105fcfdfffd00U, 0x6fdfffbf904fafeU,
  0x10604fe00fb0505U, 0x3ff05fdfa06fd00U, 0xf8fc000203ffff06U, 0x2ff01fffeff04fdU,
  0x3f7fe02f7ff01feU, 0xfdfdf9f805fd0400U, 0xf7f90103fbfb01faU, 0xfbfcfe04ff05f901U,
  0xfb03fbff02ff0300U, 0xf804f80203faf7U, 0x3fdfb00fcf8fcfdU, 0xfefefe040502faffU,
  0xfffdfa00f7fbfd03U, 0xfdfbf70100f9f801U, 0xfcfa01f7f6fcfdU, 0xfcfa03fffe030504U,
  0xf7f9fcf8ff04fb00U, 0x2f6fbfd01fcfc03U, 0x3f7fafcfbf704f9U, 0x304f803fe0401fbU,
  0xfa04fa040401fff9U, 0x4ff00f8fc00f8U, 0x2f6fcfbf7f9fcfcU, 0xff00fcfafd0202f9U,
  0xfb03040505fef7feU, 0x2fdf9f8f9fb04feU, 0xf702fafdfffa00f9U, 0xfb01fc07fbfe04fdU,
  0xfdf9020701ff00U, 0xfaff01fef90301fcU, 0x20503fd000001feU, 0xf900f9fa010704f9U,
  0x403faf9f9ffff00U, 0x4fb06040106fdffU, 0x2fafbfcfd020507U, 0xfc0607fc03fa00U,
  0xfe01fb07f802fefaU, 0xf9fcfbfffafe04fdU, 0x301f902fefcfd00U, 0xfffffdfd05fafe02U,
  0xfa02f9f902fd00U, 0xfffefd070207ff06U, 0x306faf9f9fe0504U, 0x201f8fbfafb0603U,
  0xfc060705f900fefaU, 0xfcf9fefcfc0105fdU, 0x305fefc0601f7ffU, 0x606fefa070504U,
  0xfd060504f90504fbU, 0xff03f9fb0707fffeU, 0xfefc01f90606f902U, 0xfc0005fffb06f9fdU,
  0x2fbf7f8f703U, 0xfbfd0005fffefcfdU, 0xfbf9fff7f8f904fcU, 0xf900fbf9faf705f9U,
  0x1fd03f9fd0003f7U, 0xfafd01fbfe040000U, 0x4f7f8fe02fbf7faU, 0x5fbfffbf902fc00U,
  0xf90300f7fa0005faU, 0x10303fdf6fd0304U, 0x104fafc05fafaf9U, 0x401000001040201U,
  0x3f8fc00f9faf9f9U, 0xfcfef602f8f700U, 0xfdfcf6fcfeff0405U, 0xf90303f8fb0402fbU,
  0xf7fdfa0400fefe04U, 0xfffffbf900fdf9fcU, 0xf8f8fefef7f6f7f9U, 0x103f7fdf8fbfef9U,
  0xfafefcfb01ffffffU, 0x5fcf6f8faf8fb02U, 0xfef9030202f9f904U, 0x10201fafb0104fbU,
  0xf600f702fcfefa00U, 0xfffafaf7ff02fdf9U, 0x1fb02fc01f904fcU, 0xfbf7f704ff04faU,
  0xfb02f9f7fdf7fef9U, 0x40203f7fbfc03f9U, 0xfb000300fb05f8fcU, 0xfbfa00f8fdf8f7f7U,
  0x5fc010001ff03U, 0xfdf8fd01fff802f8U, 0x4f703f7fafd04fcU, 0xfef8fbfc0403f7faU,
  0xfe01fd03f8ff00ffU, 0x4faf701fffbfcfaU, 0xfbfbfd030402f8U, 0xff04faf80004fa04U,
  0x3fcfbf8fc0304f9U, 0x3f802f7fd02fbU, 0xff03f901fef701fcU, 0x2f9f903f8fc01fcU,
  0xfff7fafbf9fc0000U, 0xfffdfafc02fcfa00U, 0x1f9f7fff6fb01f9U, 0xfdfff7f8fcfb03fdU,
  0xfbfcfffa0100f9feU, 0xf70301010300ff02U, 0xfffa03f9ff02fcfeU, 0xf9fbf9fdfffc03fdU,
  0xfbf802f9fc05fcf6U, 0xfcfe0303f9f7fc04U, 0xf703fa0004f9f7ffU, 0xfffbfdf8f9f803fdU,
  0xfafc040004fc04faU, 0xfefcf7f7f7faf9f8U, 0x2fcf70104fbfeU, 0xfc0303f90004fdfcU,
  0xf9f8fd05fdf9f7faU, 0xfb0104fefcfcfafcU, 0x501f9f802f704feU, 0xfd010301f905fafbU,
  0xfef804fdf7000201U, 0xf804fd0004f701fdU, 0x5fafb00f7fc03fdU, 0x5fcf7faf7f803f9U,
  0xfffc040201f7f9fcU, 0xf7fefb00fbfbf8fbU, 0x4ff03fdfefc03U, 0xfe0305f9f803fd02U,
  0xf8fbfdf9fafe05fcU, 0xfe01fafff802fe00U, 0x2ff03fa01fbfdfeU, 0xfbfb0301fdfffc01U,
  0x204f9ff00020404U, 0xfe02f902fafdfc00U, 0x103f7fffa00fd04U, 0xf9fdf7f800f7ff04U,
  0xfbfdfaf903f90002U, 0x5fdf7fc00000005U, 0x102fd04fb02faf7U, 0xfb01ff0404fd0205U,
  0xf9f7fb04fffbf903U, 0xfefdfdfb09fbfbfbU, 0x302fd00ffffff02U, 0xf7f705f6fbfd0206U,
  0x4fbfcfbff03fa00U, 0xfef700f90304fef9U, 0xfefbf90102fef9faU, 0xf8f8f9fd05fdfb05U,
  0xf702050506f900feU, 0x1f9f70103fbfefeU, 0x403fbff02000607U, 0xfc05f9f7fe02fffbU,
  0xfd0503f70403fbfdU, 0xf603fefffb0103fcU, 0xf7fe02fef8fe01ffU, 0xf80600fb00fef8U,
  0xfc03f60101fffbfcU, 0xf903f9fd00fdf6f6U, 0xfbf8ff0103f80100U, 0xfbfd00fef6fb0006U,
  0x1fefcf60409fdU, 0xfbfef70304010300U, 0xfffc04fa0500fbf7U, 0xf805faf704fc0001U,
  0xf900fdf70205f600U, 0xfffffdfd010307ffU, 0xfffd04f8fbfffe04U, 0xfc0701fb00fdfa03U,
  0xf905f7f7fafcf6f9U, 0xfb03030704fd0501U, 0x403fd0304fff8fcU, 0xfd050201fdfdfcffU,
  0xff01ff05fbf7fdfaU, 0x6fcf6fd05fbfefaU, 0x3ff04f9f9fcfe01U, 0x8fd020a01fbf7fcU,
  0xf7fcf8fcff08f701U, 0x300fd0204fdfafaU, 0xfaf60100f905fffeU, 0x2f7fefafef90203U,
  0xf7fb0100f90305fdU, 0x4fafefcfdf8fafdU, 0xf9fcf800faff03fcU, 0xf8fffcfff70403f7U,
  0xfffd02f903fb0004U, 0xf903f7fcfe05fbfaU, 0xff0304f8fb0404U, 0xf900fdfffd00f9fbU,
  0xf8fd00fc04fef8fdU, 0xf8fd04f9f8fffcfcU, 0xf6f70101fc04ff00U, 0x1fffefdf700fef7U,
  0x204fc03fe01fcfeU, 0xfdf9ff02fcf7fdfaU, 0xf8f90302fd0703ffU, 0xfffc0203f9f9f8fbU,
  0xf7fcf9fcfaf7fbfdU, 0x1fa02fdf900faf7U, 0x1fa000303f9fb01U, 0x2fa0004fd02fefaU,
  0x5f7f900fcf8f703U, 0x501fefe06fefbffU, 0xfcfc01f901faf904U, 0xfdfc03f704fff801U,
  0xf8f9fdfdfb01fef9U, 0xfffdfc00f9f8fcf7U, 0x403f8fe01fef9U, 0xfffcfff7f9f6fbfeU,
  0xf8f7fa0301fd04fcU, 0xf8f80404fcf8f7U, 0xfcfffcfbfbf803ffU, 0x1fcfff801f7f704U,
  0xf7f803fe0afffafdU, 0xfbf7fcf703000205U, 0x2f7fc010300ff03U, 0xfcf903fbfd00fa04U,
  0xfffffafbfdfffa00U, 0xfffaff0002fe00fdU, 0xfbf7fb0002fcfaU, 0xfbf7000304010101U,
  0x101fb01fafdf905U, 0x4f8f701f804fefaU, 0xfaf80101f9fefcfbU, 0xfaf90204fd03fbfcU,
  0x1f902f602fafbf9U, 0xfdfbf70403f9fef9U, 0x1f8fcfefe06fbf9U, 0x2fefb0204ff0604U,
  0x3fd03fbfefc0600U, 0xfe040301fe0407faU, 0x4f9f900fc010501U, 0xfe0004fffff90001U,
  0xfd0300040206U, 0x4fe070202000507U, 0xfd05070507ff03faU, 0x4020101ff06fefbU,
  0x6fefe05fe04f902U, 0x30707fefc07ffU, 0xf907f9fdf9ff04faU, 0xfcfefb060002fafaU,
  0xfdfc02f906070107U, 0xfb0703040601fd03U, 0x6fd06060505fbfbU, 0xfa070601040606U,
  0xfdfe0102fefcfdfbU, 0x4060703fa010102U, 0x3fcf90701040601U, 0x50307fffbfdfe01U,
  0xf9ff0604fa07fa06U, 0xfcfb04fef9f9fd03U, 0xfafe04fafafafcf9U, 0xfcf8fcfe020003ffU,
  0xfbfcfbf6fafcfb00U, 0xfb01f705fff9f9f7U, 0x4fffa0401fdfdfbU, 0xfffcf903f903fdf9U,
  0xf7fdfd05fbf8fa01U, 0xfa00fcfd0403f9f9U, 0xf7fbf8f8f9f703f7U, 0xff0505f904000003U,
  0x305fc030300f7ffU, 0x204030104fff8faU, 0xfd00fefafa05fe01U, 0x2f7fd02fdf8fdfdU,
  0x3f8fd00fd000200U, 0xfdfcfbf9f7fbf802U, 0x4fdfb02010102f9U, 0xfdfd0005fafa02fdU,
  0xf7fafdf8f903f900U, 0xfafc05fe040101f9U, 0xf9fc0504f7fafcf9U, 0xfe04f7fbfdfbfbfbU,
  0xfd02fffdfefcfa04U, 0x1fcfafd0400f7f7U, 0x100fcfb010501fdU, 0x1fbfafff9fe0202U,
  0x700fafcfd010701U, 0x4f803fe03fc0303U, 0x201fffc020600ffU, 0x30401f705ff0000U,
  0x3030101fafa02f7U, 0xf900f800fb02ff02U, 0x7f9fefafbf9fc04U, 0xf9fc00fbfd0200ffU,
  0xfd03fefb03fbfcf8U, 0xfff704fbfd00f804U, 0xf7fdfff8f9fc0102U, 0xfe04fdfef9f8fef8U,
  0x1f7fdf9fbffff00U, 0x20700f7ff0500faU, 0xfd040102f6f9fdfeU, 0xfcf7fcfdfbfbfff9U,
  0xff05fafdfdfdff03U, 0xfcfeff0005f9fd01U, 0xfe01fe0102fd03f7U, 0xfffefffffe020704U,
  0xfe05f8f7fe0204U, 0x1f90504fe05fb00U, 0xf9fc06000105fffcU, 0x6fbfafa04fb0302U,
  0x30705ff05020101U, 0x2fcfc05fb0605faU, 0x5ff06fbfaff01fdU, 0xfe0707fc000101faU,
  0x50304f903030304U, 0x10203f90203fd04U, 0x5fdfffb06ffffU, 0xfc07000600fffa05U,
  0xff0507000304fdfaU, 0x100000404030606U, 0xfa010105fe05fbffU, 0x4fdff00f9fcffU,
  0x3060207fa05f9ffU, 0xfbfdf9fffffefd05U, 0x405fcff03050502U, 0x2ff02fdfcfe0503U,
  0x2030607f9010000U, 0xfbfdfe0201f90403U, 0x2040400fafefbffU, 0xf9f904fbfd0105f9U,
  0x4fe060603000706U, 0xfcfc0407fbfd01fbU, 0x4ff02fc07fafcfbU, 0xfb0305fd03fafb04U,
  0xfffcff00050407feU, 0xf70003fdf8f60300U, 0xfff9fdf7f701fb00U, 0x2fafdfcf9fa0001U,
  0x100f9f9fff8f803U, 0xfafafafb020302faU, 0xfa0301f8fef900f7U, 0x3fdfcfbf7f7fdfbU,
  0xf902040002fb0305U, 0xf902f905fd04f8fcU, 0xf8f8f8f804fafef7U, 0x6f9fd02fa03f8feU,
  0xff04fd05fdf903fdU, 0xff010404fa02fbffU, 0xfaf802ff06fbf7f8U, 0x4fff902fc01fdU,
  0x104fef8fe02fe01U, 0xfdf8fffbf70102fbU, 0xf9fcfffd02000104U, 0xfbfbfbf9fc04f9fdU,
  0xfcf7fe0103fb04f9U, 0xf7fc0403f70300fbU, 0xf9fafb06fe01f8ffU, 0xfb04fef9fff9fffaU,
  0xfa03fbfb0504fe01U, 0xfcfdf9faf7fefafaU, 0xfa02fcfb03fffd02U, 0xfc02f90700060706U,
  0x60704070104f904U, 0xfc0105fbfbfc07fcU, 0x502f900fc03fffdU, 0xfffdfafafffd0000U,
  0x3f9f605fd0400U, 0x605070300fd0305U, 0xfb04fe03f9000707U, 0xfdfbf90201050503U,
  0xfd00040400fffafcU, 0x501fff9fdff05fbU, 0x4fffbfff8fbfeU, 0x101fc00fb020100U,
  0xfd020105010500f9U, 0x2fa02f8f90301ffU, 0x30102f90205ff04U, 0x1fb03fcfafd0002U,
  0x3f8fcf70705fb00U, 0x3fe01fdfdfdf9feU, 0x10504fb02f70606U, 0xfe03fd0107fe0603U,
  0x5f9fdfb00fff904U, 0xfa02fe03fa05fb06U, 0x7040106fffd04fbU, 0xfaff010304fdfb02U,
  0xf9fe020005fefdfbU, 0xfffefd01fc01fc06U, 0x2000001fe0101fbU, 0xf9fb0405fd0000fbU,
  0x4f9f9fe0704fb00U, 0x7fd07fd0106fc01U, 0x705fb030102ffU, 0x7fafffcff04fafaU,
  0xf70206ff03fb02f9U, 0xf904fb06fcfbfb03U, 0x707fd07f9fdfdffU, 0xfdfd0001040602fcU,
  0x3f9000003fbfb00U, 0xfd02fa03f9fdf9fcU, 0x1fdfc02070607f9U, 0x1fe06030405fffeU,
  0xfb01040402f900ffU, 0x70202fdfe05fbffU, 0x5f9050302fcff02U, 0xfe03fc0203f9fffbU,
  0x30106fa04fbfdfaU, 0xfbfa0507fdfdfefeU, 0xfeff030003fafdf9U, 0xfefff7fcfb05fafaU,
  0xf7fc0400fb05f6ffU, 0x2fdf8fcfffd04f7U, 0x2fdfffdfbf9fbfbU, 0x5fbf70201fef702U,
  0xf80205fdf9fdfc00U, 0x40103fffc03fc04U, 0x2fe00f9fbfdf8feU, 0xfefe03f705f9ff02U,
  0xf802ff03fcfafffeU, 0xf9f7fbf7f9fc00fbU, 0xfefdf6fc0304fc03U, 0xfbfdfb04f70001feU,
  0xfbf7fcf9f9f901faU, 0xf90300fc00f903f8U, 0xf904f8fb0100fbfcU, 0xfdf9fdfef803fefaU,
  0xfdfbfa01fb03fafeU, 0x4fafdfdfbfafcf9U, 0x3f8f9f7f7fbf7fbU, 0xfefafe03fb00fcfaU,
  0x2fcfafbf9fdf800U, 0xf9fc00fa05fcfbfbU, 0x3fefcfff7fff702U, 0xf9070202fd0004fcU,
  0x4fffcfdfcfe0203U, 0x704060401fdfbffU, 0xfffffefefb070103U, 0xfaff0605fc0406U,
  0xfffa03fef9fb05fdU, 0x302fe07020002faU, 0x6fafefb06030303U, 0x50100fe000604faU,
  0x10505f9fcfefbfcU, 0x1fa01fcfffe0605U, 0x201fafef7fcfbfcU, 0x406fefef9fbf902U,
  0xf9fffe05fafefa05U, 0xfa04030301fc0306U, 0x600fd0405fb07fbU, 0xfb02fdfefe010603U,
  0xfa03ffff0600fb02U, 0xfbfdff06fa020203U, 0x5fc0600050507fbU, 0xfcfafa01fffafcfbU,
  0xfafafe07fafa0206U, 0xf9040200fe05f907U, 0x7f9ff05050405feU, 0x10404040203fe03U,
  0x3f9050400fb04fbU, 0xfbfbfd04fd02f7f7U, 0xf9f8f7fff9fffbfcU, 0xfa02fc04fafef803U,
  0xf7f9fb03fd03fff7U, 0x1020000fbf6fdf6U, 0xfe04f8030304f7fcU, 0x2fff9f8fdfe0402U,
  0x105fafbfcfff900U, 0xff01faf9fafff701U, 0xfe02f9f7feffff01U, 0x3f8fcfc050201f9U,
  0x1fb0403fef902f9U, 0xfdfd0505f8f905f8U, 0xfbf8fb03040400fdU, 0x2fd0304f8f9f7faU,
  0x1fdfb04fefff8f6U, 0x402fc00fdf7f6fdU, 0x3fe0403fcfe04faU, 0xf9fef9fff703fef8U,
  0x1f9fc0405fb03fcU, 0x402fffefefbfa03U, 0xfafeff05fb03fdfbU, 0x1fafbf80305f702U,
  0xfef900f90303faf7U, 0xfbf9fdf9fcfafaffU, 0x400fbfd050202f9U, 0xfe0300fdf9faf8f9U,
  0x3f9f900fc00ff00U, 0xf70402f9fafaf902U, 0x2f70001fefff805U, 0xfefcf8fdf7fbfa01U,
  0x301fbf904ff0004U, 0xfefafa0403f9fdfbU, 0xf705f8020001fcU, 0xfffbf70404f9feffU,
  0x300040401fdfc00U, 0x2fb00f8fefe00fcU, 0xfe000302f803f9f7U, 0x2faf9fd0002fcf9U,
  0xf7fe0105f9fa03f7U, 0xfdf9fbfdfefffe03U, 0xf704050505f703fbU, 0x102fdfcfffd05fdU,
  0x1fb04fef8fef6U, 0xf704040304f7f7f9U, 0xfe00fbf8fafff903U, 0xf8f701030004fe00U,
  0xfefe010500fafb03U, 0xfdfffd0003f7ff00U, 0xfffefb0204faf9ffU, 0x2f601f80103ffU,
  0x2f9fe020200fbfaU, 0xfb00fafffafd0103U, 0xfa0503fdf70404feU, 0x2faf8fcfefaf9fcU,
  0x3fefd0100f8fdfcU, 0xfbfefdfd00f802U, 0x4fa01f702f802faU, 0xfb0205f8fe03fc04U,
  0xfe010203feff0205U, 0x1f7fbfffef9f9f8U, 0xfcf9fa050501ffffU, 0x3f6f7faf800feU,
  0x400fff7fcfc00fcU, 0xfaf9f6fa05f902feU, 0xfefa04fcf7fef7fdU, 0x1fefff802fffbfbU,
  0x5fc0000f80304fdU, 0xf900fefb0403fdfdU, 0xfcf80101f90202f8U, 0x3fb0504fbf9fdfeU,
  0xf802fc00f7fffefeU, 0x10201fef9f7fa00U, 0x40000fd01fa0003U, 0x401fbf8fff9fbfaU,
  0xfef9fffefe000401U, 0x4ff0106fffa02faU, 0x2fef7fa00fefbfaU, 0x5030000fef8fafaU,
  0xf70302040305faffU, 0xfaf900020101fbffU, 0xfc04ff020001fef9U, 0x101f9f9ff00fefbU,
  0x4fefe01fdf9faU, 0xfffafcfcfffefef8U, 0xfa01fffe01f8fef6U, 0xfc02fa01fafc03fdU,
  0x405fb0303f904feU, 0xfd01fb02ff040004U, 0xf901fff9f800f705U, 0xfffbfbfdf9fa00faU,
  0xf70100010000fb00U, 0x20403fffafaf701U, 0xfff704fdf7fefdfdU, 0xf8f6f904f8f8fb04U,
  0xf8fefd0300fafaU, 0xfa0206fc02020302U, 0xff070607f9f90403U, 0xff02010200fafcfaU,
  0x403fb00fb03fdffU, 0xf9fd020204ff0504U, 0x207fb02fa00f903U, 0x30002fbf80704fbU,
  0x3f905fe02fc0403U, 0xfa02fc06fffc0107U, 0xfe02070004fc04f7U, 0x6fffa0205fafbfdU,
  0xf8fffc0302f9fafcU, 0xfcff070007030503U, 0xfffcff0404fbfbfaU, 0xf802050100fb0003U,
  0xfbfc0404f9fafefcU, 0xf90200fa00fffcU, 0xfffefc02fd04f9ffU, 0x702f9f7fafbfdfaU,
  0x4fafffe02faf7faU, 0x4fb0503fcfd0701U, 0xfcf807fbfffeff05U, 0x504fafcf9fffc00U,
  0xfefcfb03fcf80607U, 0x70203fefbf90303U, 0xf800ff0003fcfdf7U, 0xf7f9f7fefd000001U,
  0xfe05f70000010002U, 0xf905fe010301fcf9U, 0xf7ff01fd0300f8faU, 0x3fbfe0000fbfefaU,
  0xf8fef7f7f703fc05U, 0x3faf8fdfe0004faU, 0xfcfe000000f90100U, 0xfcff030203fd00fcU,
  0xff03f9fffefefefbU, 0xf8fffaf90105f805U, 0x504fafb01fffd04U, 0x1fefef701fffdf8U,
  0xf700f80003ff02fdU, 0xff020204f8fef7ffU, 0x400f7fdfc0001fdU, 0x50500fcfa02fcU,
  0x4fdf70402f7fbfaU, 0xf702fd00f8fcff03U, 0xfef7fcfafc0105fcU, 0xfafa04f8f800f7fbU,
  0xf9fff90100fd00ffU, 0xfefcf800fa03f9fdU, 0xf7fb0201fa00fe04U, 0xfd00fd04fefd01U,
  0xfcfe0101fef7f703U, 0xfaf9f80503ff0200U, 0xf704ff05f7fd03faU, 0xf8f90203fe0201U,
  0xfb03fd00f901feffU, 0xfdfd04f7f70003faU, 0xfefa04f8fc05f702U, 0x30403fcf7fe01f8U,
  0x1fb02fdf800ffU, 0x302f700f7f6f6fdU, 0xfa01faf9f8fc01f7U, 0x301fbf7ff03fc02U,
  0xfdfcfdf8f7fcfef7U, 0x4fef605fef703feU, 0x5f8fdfbfef9fe00U, 0xf90104faff0405feU,
  0x4ff01f802f7fff8U, 0xfef7fd0103fdfc02U, 0xfa050402f7fdfcfbU, 0x1f9f8f7fefc03f8U,
  0x3f904f701040102U, 0xfc02f8f90203fffaU, 0xfcfffaf7fa020001U, 0x7ff02fa06fe07U,
  0xfcfb03fb0100ff02U, 0xfefb02000401fe03U, 0x2fb0602fd06fcffU, 0xff03040403ff0107U,
  0x7fa05fffafdfe03U, 0x200feff06060205U, 0x40001010705fd00U, 0x70104fd03fdU,
  0xfbff06fa02000704U, 0x707fa050106fefbU, 0xfef903fa050200U, 0x3f8fef9fbfdfa02U,
  0xfd00f9f901fd0703U, 0x2f902070002fbfeU, 0x60702fe01fff704U, 0x1f801fa05fbfcf7U,
  0x20000fd04fe0304U, 0xf700feff02f9U, 0xfc0502fc000501ffU, 0xfcfcfcfafcff0705U,
  0xfefd0101fcff04fdU, 0x406fe06f901fa04U, 0x30403fdfc06fafdU, 0x61110060300fdf9U,
  0x7f8f6060c0b100cU, 0x504f80b160802f3U, 0x2f60d1a07050cfeU, 0x16f7fefafcff070bU,
  0x16ff0eebf807150dU, 0xd0a1c3201fcf8f8U, 0x14fdfe0a0dfde613U, 0xfc0f00060b3405fdU,
  0x16f61806f80c12ffU, 0x120cfa0dd4f60c1aU, 0xf62233080f1c0507U, 0x51c2914051b2c14U,
  0xd3f27ee1ff80007U, 0x8f60c1d1e010c0bU, 0x615fd21380f00f7U, 0x271017e30c1512e4U,
  0x16f1f01efd12291aU, 0x1200fa070ae7fe05U, 0xfaf60c11f902fb01U, 0xe4e9fe2009150804U,
  0x704f4f4fe0500f7U, 0xfff060ef80afa05U, 0x70d0a02020a0cU, 0x111d1e0c190e0d04U,
  0x292a0f0b0efefbfeU, 0xfbf51312fc06121cU, 0x172c20151806fbU, 0xe9e104fd220af8f7U,
  0x3eff4fe01000ffaU, 0xfce9f903f71307U, 0xeaf1f1fdd5d1d9f3U, 0x1b0b07ebecf807efU,
  0xfaf9e7f8ffeaea10U, 0x3349241408f4ecf5U, 0xede4f5fae6fcfff3U, 0xeeeb102d48200b00U,
  0x181e05e9f2eff5eaU, 0xf3dadaf2fdff3f38U, 0xffe011113e2e7f1U, 0x3efdacef4e2fbU,
  0xddd9c5c2ea0af6f0U, 0xe101b00ffebe8f2U, 0xf2e9eae3dcf50010U, 0x7f70d1b17f8e7ebU,
  0xfb1c16fa1711050fU, 0x605f4f0040e0205U, 0x150dea29120e16feU, 0x2f909110c0a1117U,
  0xf03e3efdfeaf4feU, 0x2172515261f1303U, 0x1a0a01071bf4030cU, 0x3122504f0e7fb04U,
  0xd7e7fd04f9f108daU, 0xbdddd09301fecd6U, 0xd5c1c2c5d1ebfcf7U, 0xf0a00e5dec42c31U,
  0xe2a0a2de8dcd103U, 0xeb0203eefa00fdd4U, 0x1f02152f5447251dU, 0x515a1bed1308f220U,
  0x192b11070f0b331eU, 0x343e4568590b070aU, 0xf8081e2608151b0eU, 0x26fe102d04ea190dU,
  0xbea5d2fdfaecfc1aU, 0xeff71411fb2e1c04U, 0x5206fd0c0e01e904U, 0xd629f0fad5072963U,
  0x33557b5a1e05e1dfU, 0xe9cdfd0ff80fe2ffU, 0xe6e900041703e5f8U, 0xa0f080cf0efe8f9U,
  0xf21003fa05160606U, 0x16020b0bff101206U, 0x6ff120e02030a04U, 0x1f1d261002fff5ffU,
  0xe8e903091e050510U, 0xf9001511281d0c05U, 0x1b0219f60f051806U, 0x8ed16f6f61628U,
  0x182ef22309f703U, 0xf9050710f0fceb14U, 0x1c0afd1024e7ff1cU, 0xef150018170800f0U,
  0xffc2c3f20073308U, 0x1c200cf3f6151bfbU, 0x15e406fdf812371cU, 0x261a221712d50416U,
  0xfd040cd9ee1ff602U, 0xe8e5f7fc0c1c18ebU, 0xf0205fa1202e109U, 0x406f5e7da0aeb01U,
  0x1000b160aeff607U, 0xf0516000001e6f9U, 0x70e04f9030c0dfaU, 0x7fb143634101420U,
  0x140f0f07070a1319U, 0xfdfa1306140c2618U, 0x4130e07140c1106U, 0x608f3070afb15f0U,
  0x13fa072e2b353af8U, 0x35131306d9ed0bfcU, 0x2fe1d01e5000e1eU, 0xe3f206250ff8f6dbU,
  0xcf006061307eb0cU, 0xe607c700f02016e7U, 0x11e21502f9fefe06U, 0x914eff80c230f25U,
  0x250c2ae4ef05f404U, 0xf60e190f01f32e44U, 0x14394f162e04dfeaU, 0xed7f7fe0dda01f7U,
  0xf617e5244d3b180fU, 0x119ffd3020a09cfU, 0x8dede0fe1f502ffU, 0xd4e8e1150aecfbf9U,
  0x12f6fa06f7eee9ccU, 0xf6e1d31dfffe180bU, 0x111204fdef06faecU, 0x25063123e5fdf5f5U,
  0xfaf7070d17031d3bU, 0xe5324318190e0003U, 0x2426100a09f8f609U, 0x2051d06030e130aU,
  0x8081e311e1b1a04U, 0xf8e0effe2f1710f9U, 0x10edfef40302090dU, 0x702f7f5fefc1e15U,
  0xf4f7f5fef2bcdeeaU, 0x130314f7e50a06efU, 0xfceee5eb0cefd9f4U, 0x19423b1616fbed00U,
  0xe9f7f7f8ed1016f4U, 0xfcf8202d37350014U, 0x2c190efde4f5f6fbU, 0x1eae5f811f72e43U,
  0x151a030917ece1f3U, 0xf003faf3d5ebf8faU, 0xeee2d2cfd2fc18f7U, 0x1f14160900f4e5f4U,
  0xf4e8eccfd704f9U, 0xa0011202404e7ecU, 0xed0e200e021806f4U, 0x905ffe7090f180fU,
  0x1411ea192e171816U, 0xd0111160c050608U, 0x16160701efef0c0aU, 0xfee9fd0e1b1b181cU,
  0x190cf0fd03021d0cU, 0x180a04eefe141320U, 0xdbf705fae4f001f6U, 0xbf5001f08f0e5fdU,
  0xcadae0f3f2fbe2efU, 0xf0ec04eefaec0c0cU, 0x8120d0802ef02U, 0xebf0e3f5f8edebf0U,
  0xec04fa011f1c281dU, 0x321d21f6f8f2f9ecU, 0xf8e6ee05f8f71816U, 0x5013d29281007e5U,
  0xfefbece9e4f6dfefU, 0xe6efe70eff081819U, 0xf0fdf408fceff3eeU, 0xfbe006f8e3f4d4f9U,
  0xf0effb16070c0cfdU, 0x204f4f006fcfbf7U, 0x100300fd1406050fU, 0xf3f30507f0180907U,
  0xc0705031106f4ecU, 0x6091011050efb13U, 0xf003ff0b090f1108U, 0x12140d05f9070b01U,
  0xfa00180b0d080509U, 0x202b351b09040909U, 0xf8f607f91c0d0a14U, 0xc050011141b0f08U,
  0x8fcedeb00fb1c22U, 0xcfd0a0af0f8e8f8U, 0xef08fef507fdf902U, 0xfc06f5f0ed00ece1U,
  0x1c181d1f0aeef908U, 0xebfb09f8e8f9fcffU, 0x1301273a40231a05U, 0x3115f3e6f7edfefeU,
  0x1eaf2f60627492fU, 0x2e2c2f2515e8f4ebU, 0xe8fafcf3dcf8f60dU, 0xeeece7f1f6000eecU,
  0xb12fe0503f0e0eaU, 0xf6e9fbdbd3e0d601U, 0xe0414221200fcf9U, 0xe806f6f301fcedf5U,
  0x1dff02f80f150d09U, 0x130cef1a2e0d1d23U, 0x100e1a0901f9ff08U, 0x50806fef20d1f1dU,
  0x110f1c0cfb040bfdU, 0x19120b200dff050bU, 0xfe0d100004090219U, 0xec151212fc130d00U,
  0xedfaf603090fee03U, 0xea13f0fae2030109U, 0x8f8fcf60fee130fU, 0xf7120d01dd01e902U,
  0x1afaf7f3fb14e4U, 0x3e114123acc232aU, 0x4d26fb0416f1fbecU, 0x1ef0faed1c0a16f4U,
  0x1cfa10063924060bU, 0x11515f2f503f211U, 0xf9fb1fe51e2d27U, 0xe5def31ff3e8f7fcU,
  0xf8fb10faff09fd02U, 0xcf10402fa0b01ebU, 0xfc1605040405192dU, 0x131027070f06f7fdU,
  0x3e8030dfd0afcfeU, 0x80b01092501070aU, 0xcf7f9eaf5140906U, 0x20509050bfa0405U,
  0xf1afb060503f90dU, 0x3040a16070d1118U, 0xf2fcfe201e1a1c16U, 0x202f2fe041e070bU,
  0x17fdeef2ebf7040bU, 0xed00fef2f6040f17U, 0xf1f50ef709e9e0dcU, 0x20f3e914f3fbf70eU,
  0x401e6ed0a071bedU, 0xe243e1d0219f6f0U, 0x5f30df3f6f12822U, 0x507022d42330d0cU,
  0x2d140d1207f9fe07U, 0x412f8f31410074cU, 0x11190e150920eff0U, 0xf3f7ff0dfcec1a09U,
  0x7f5fcf0d9e50307U, 0x6080b0402080cf7U, 0x1071c0ffce209f5U, 0xc03f3fe111805ebU,
  0x100001227243015U, 0xc0010fdf1f90cfeU, 0x30b04f80b040516U, 0x70808070bfd00feU,
  0xc1c170401fb04faU, 0x80701040e101618U, 0xfc050e08f6f3U, 0xfefb15180c0d07fcU,
  0x1e0b0af9f70402ffU, 0x140012f7f8181216U, 0x18212533fffbf4feU, 0xceb08fa110afb0eU,
  0x714eefc01250201U, 0xef12500fbfa0100U, 0x310ea02d0020810U, 0x10828ff05161109U,
  0x1008161512223b1aU, 0x104825ef1afdf4feU, 0x2f0090f0a090602U, 0x81efc19262d0204U,
  0x1b2411dd150600e7U, 0x5e7f322f71d2306U, 0xfffaf41e01f40304U, 0xa010610030ff6e4U,
  0xeee7f10cfb0f0df5U, 0xa0700f801f4f4f5U, 0x120c150ff6fdfcf8U, 0xfc08080e04032017U,
  0xd1c1d0e16160308U, 0x2d2915100b04f405U, 0xeef80a1003fe021bU, 0xea0c19261f171302U,
  0xf1dfebfe1d23ffefU, 0x9e9eef1eaf9ff0eU, 0xff00e7f005fe120dU, 0xe8f0fff1e7cec8eaU,
  0x100cf900f1ff02efU, 0x4f1d5e702f8f4ecU, 0x1d3f3c1d02f9edf2U, 0xf9e6fbe4e4fa0100U,
  0xefef1323322b1307U, 0x2e190a05e5e6eeffU, 0xfffbdbf2060a2a41U, 0x718091404f4dff2U,
  0xf5fdfefcd4e7f6f8U, 0xeadce0cad9ff02f2U, 0xf101002faf0e9efU, 0xf6fef2ebe4e90c12U,
  0xb01161801e2eeU, 0xe5101b0803151d02U, 0x2f6ffe4fc060a03U, 0x1415e80a050d120dU,
  0x6fe090e0b03040cU, 0xc00f401e0eafb01U, 0x50f1c182d241615U, 0x1a1a1b0908061018U,
  0x2d2102f507082421U, 0xd081408fed4fd0aU, 0xff2c1815ea00efU, 0xe7c2dbec0e0defeaU,
  0xe105f1fef30304edU, 0xfaf4e2ea07f812edU, 0x1bfdeaf9f8f3dbfeU, 0xe6060aec06312c13U,
  0x3a1a1307eef0e8f9U, 0xdaf3ff07f9f21841U, 0xf009384d1c17fa06U, 0x19eed000fdf5eef8U,
  0xd7e603e0111b2016U, 0xccfc17f3e4fd09f4U, 0x105f4edeed5e1d8U, 0xd3cffef823180c13U,
  0x1707e9f4fd00f3e8U, 0x423ecf206fd100fU, 0xd1c00f90c1710U, 0x391f182806f1f5e8U,
  0x2fb07031d0cfb20U, 0xf8fe150e08181310U, 0x152e1d152219010cU, 0xf0f90d1d00f3050fU,
  0xed100421121d0509U, 0xf0eaf5f6171c0af6U, 0x13efe6f1dbdff302U, 0xebffecf2fb0b1e14U,
  0xeaf000fdf3b6c7e3U, 0x2703eefef3f1f6f0U, 0x9f1d7f2fefb04f5U, 0x1238411b0b0bf5f6U,
  0xf3ef09ecd8fe0b04U, 0xecec14192940280aU, 0x3e290d0ce5e3f007U, 0xf70ce3e605172243U,
  0xe22f6fd07f8d9f2U, 0xf503fa01e4e3fff6U, 0xfde8d7d2dcf70efeU, 0x151f0b1402fbf9f8U,
  0xee0004f2f7e5f4fdU, 0x809fb0e130de3f4U, 0xfbff0a110e1109f5U, 0x9fdfce3ef040a0fU,
  0x161af3020a040904U, 0xff0d16060e0e050cU, 0xa10090fe8f3fafeU, 0xd050e08100f1308U,
  0xf8faf3fc0c0b0e04U, 0x7080e1512160905U, 0x171c0e06070a0805U, 0x7030305f70a0f12U,
  0x7132b371d1b19fcU, 0x1a0b09fc1515050bU, 0x2f40a0a0b0f1b19U, 0xbfd09130a020d08U,
  0xe0f02f7ddf0ef02U, 0xf1f10c1c11101411U, 0x9110d1d17222425U, 0xfc0916e205031bf5U,
  0xb071b1213060e1bU, 0xfb1211ff0d1d140dU, 0x111c15fd11ff00f6U, 0x1ef8faf7060b1d11U,
  0xf7f3f4fffdfe02feU, 0xa071a0504f700e3U, 0xf0dbf4fefe0a0e07U, 0xa0d06ff0d00ffffU,
  0x1216140a00f90c02U, 0x50f0a0bfaf32015U, 0x131513160c0205f8U, 0x252619081302f909U,
  0x1f61b1305030e0aU, 0xfe10282f15071203U, 0xfef0edfe1c1a09f5U, 0xfee5f1f3fe0f0c0aU,
  0xfcfaece8ff022319U, 0xf7f90bebdcd7e3deU, 0xf5fd0afbeafc06f4U, 0x7f4d5faf5f806e2U,
  0x102342160a06da03U, 0xeff607f1eaf41206U, 0xf2000b423f2f0a0bU, 0x29200ef5e8f1ed0bU,
  0xa03dbf0030d2251U, 0x163828201b03d2f4U, 0xd801fdfad4eb09fdU, 0xf6daedefd70b1602U,
  0x21180d0af9fcf1ddU, 0xf607fbf1e0d2fdf7U, 0x140a0f261815f4f3U, 0xfaf20d02ff0dfaf4U,
  0xef602f6fc14180aU, 0xd13f9172b180a25U, 0x10070c0d0e040013U, 0x102fc01edf00f17U,
  0xf8fcfe04fa00f700U, 0xf90105faf9f9fc03U, 0x3fbfaf7fbfffff9U, 0xf8f803fef8fafef8U,
  0x2fd0302f8040301U, 0xfd01fffd0103U, 0xf9f7fafef904f804U, 0x4f7f7fef801fbU,
  0xfc03fef9fffcfd00U, 0x403f7fffd0405fbU, 0xf900f90202fafef9U, 0xf8fe03fa02fe02ffU,
  0xfaf901f9fdfa0002U, 0xf7fc0400fefd04ffU, 0xfafb000000fdfcfbU, 0x2fef9f7faf8fb03U,
  0x3f9f7ff01ff00f9U, 0xf80100fb03f7ff01U, 0xfffeff0004f9f9ffU, 0xfc04fcfffc00fb03U,
  0xfff901fe020404faU, 0xf8ff03fa02f6ff02U, 0xfdf900fefbfffc01U, 0xf70200fdf902fe03U,
  0xfefd07fffffbfc03U, 0x104ff000405fef9U, 0xfa0204fefbf9fd02U, 0x704fe06fdfaf7f7U,
  0x2fdfbfcfb0105U, 0xfd0501f70005fef9U, 0x202f60106fb01U, 0xfef801fb0402fdfeU,
  0x3fd02fa01fe0403U, 0xf902fe05f9050702U, 0x3fb0207fafd00fbU, 0xfd02fbfd0102fefaU,
  0x2fafcfbf8fdff01U, 0x2f9fe0004fa0006U, 0x50701f9fb00fcfaU, 0x3fefbfa01fcfa06U,
  0x3fefefdfb07f907U, 0xfefbfb03fa000706U, 0x10103fe0205fd01U, 0x5f9fd0007ff03f9U,
  0x1fd0306fc0603faU, 0x5fffd010302fd00U, 0x7000004fa060503U, 0xfb06fdfdfa0504f9U,
  0x2fcfbfef90300U, 0x205fc0502fbfc03U, 0x2fbfd020302fe04U, 0xfcfafaf901fcfa04U,
  0xffff07fdfdfc00f9U, 0xfbf9fcfb05f9fcfaU, 0xfa050705fd07ff01U, 0xfa06010001ffffffU,
  0xfffa0704fd020100U, 0x4ff02fe06010701U, 0x4fafefd0201ff04U, 0x5fef9070304f9faU,
  0xfe0003feff05faf9U, 0x5f9fcfd000700ffU, 0x7fe03fc07feff01U, 0xf90600ff0006fd06U,
  0xfcfcfafd07f9fefcU, 0xfa07f9fbfa030601U, 0xfa03f9fb00fe0201U, 0xf9fef900fc04fbffU,
  0xff0406fefefb0703U, 0x7fcfc00060702faU, 0xffffff0600ff0203U, 0x105010006fa06U,
  0x5070404fb00faffU, 0xfef803fafcf7fbfdU, 0xfdfcf9f602fffdfaU, 0xfff7ff0001faf9f8U,
  0xfbf8fbfaf6fcf9U, 0xf7040201fbfe04f7U, 0xfa00fefa01fa03ffU, 0xff04faf801f90004U,
  0x4fa030400040303U, 0xf800f8fd00f903fcU, 0x3ff0501f7ff0504U, 0xfcfefdfbfafffffdU,
  0xfaf705fefffff8feU, 0x5fefafffef9fdfdU, 0xfffe04fdf8f7ff04U, 0xf8ff04f702fbf9fdU,
  0xfbff01f7fcfe0301U, 0xf7f8000204fcf7faU, 0xfef8fd04ff000302U, 0xf8040403feff0304U,
  0xfb0003f7f705fbf7U, 0xf702f70000f8f900U, 0x3faf9fef6050005U, 0xf701fc0004f80201U,
  0x1f8fbf8fff8fd02U, 0x200ff05fa03fb04U, 0x30103fffb020202U, 0xf8fefcfcfa0000f9U,
  0xf90200fdfd05fbfbU, 0xfffaf8fbf900fb06U, 0x3f9f8fbfcfefe03U, 0xf6ff00fd03fd02ffU,
  0xfa00fc02faff0302U, 0x2fb00fe00f800f8U, 0xff00f804f8fbfcf8U, 0xff03f7fb00fbf702U,
  0xf70607fa00f7fe01U, 0xfd05fefbf80103f7U, 0x2fbf7fcfa00fb01U, 0xfaf7fdf9fffffefbU,
  0x2f9fdfc02ff06U, 0xfeff01f701fcf8ffU, 0xf9f705fd010005fcU, 0x402fafa00f9faf8U,
  0x404fe03fd02fa00U, 0xf7fb040404fffff9U, 0xfafe00f7fafc00fbU, 0x404fdf90505fa02U,
  0xf8fbfffb0400ff02U, 0xfcf7fbfe01f7f8U, 0x10206fd02f906fcU, 0xf90104ff0207fef9U,
  0x7fe0407fefd06f9U, 0xfa01fafbfb01fbf9U, 0x306fdf905020006U, 0x7fc00fa06fd0700U,
  0xfc06fdff010204U, 0x5040501fffdfb06U, 0xf9fffffa04fc0306U, 0x6050607f903f9ffU,
  0x5fafffb0304fa07U, 0x5070503fb00fc03U, 0xfd05fdfc06fdfcfcU, 0xfbfc0503f9020507U,
  0xfffe06fdfd0704fcU, 0x201f9020104fc01U, 0x400fd050202fa04U, 0x703fdfcfe03fffbU,
  0xff0303f907fc03ffU, 0x2f903050002fd00U, 0xff060403fc070301U, 0x4fa02fc05fafdU,
  0xfb07fe070404fa02U, 0x3fafdfffcfffd00U, 0xfa04fd040502fd00U, 0xfefcfe00fefcfdffU,
  0xf705fafe000005fcU, 0xfdfdfbfe05fffa03U, 0xf7f9f9faff02fafcU, 0xf801fbfefafaf7feU,
  0x2f9fff7f8020503U, 0x200f9020501f8U, 0xf6050200f7010305U, 0xf7f8fc040201fdfbU,
  0xf7fc02f9f8fefd01U, 0x4f8fd03fb0203f8U, 0xfefbfd01f6010004U, 0xfffd04f9fefbf905U,
  0xf60403f8fb0505f7U, 0x1f9fafafafafdfeU, 0xfa04f7fbfb02f703U, 0xfaf8fbfafefcf8U,
  0xfefcfd03f901ff04U, 0xfe01fe02050402f8U, 0xfcf8fff9fe0203feU, 0xfef704fbf903ff02U,
  0x2010104000100ffU, 0x1fefffe05f7f802U, 0x2fbfb04f8f9f800U, 0x6fafa03feff00f9U,
  0x2f903fd04ff00faU, 0x307fbfdfefe0003U, 0x4fc050500fd0002U, 0xfffcfb070702fbfbU,
  0xfcfafbf907040002U, 0xff03060403fef900U, 0xf900fc020704fb03U, 0x60306f903fa01f9U,
  0xfa0600fefd000605U, 0xfc07050204fefe02U, 0x2ffff05faf90007U, 0xf90503020603faf9U,
  0x3feff060503faU, 0x1fe00f9fd0305faU, 0x6ff060703fd04feU, 0x7fb050307fc0203U,
  0x5fd0604000200feU, 0x5fc0405fdfc0006U, 0x3fb0402fc050100U, 0x70501fbf9fb0700U,
  0xfcfcfdf90600ffU, 0x203fbfdfefcfffeU, 0xfb0201fa05fffffbU, 0x5fcfafdfa0403U,
  0x3ff01f9f9f7f9U, 0xfcf9fefef90202f9U, 0x4f7f702f7f9fbfeU, 0xfafa0200ff0403ffU,
  0x5f9f7f7f7fd0200U, 0x4f9fd04fc02fff7U, 0xf903fa0501fef800U, 0x1fcf90405faf802U,
  0xfff9ff03f7fcf701U, 0xfff803f904faf9faU, 0xf9fdfb02fe02fb03U, 0xfcfaf901fafefdf7U,
  0xfdf902fdfffe0004U, 0xfb020200f9fdfc02U, 0x5fef9f7fa05fa00U, 0xf900f800fdfbfdf9U,
  0xf7f8ff020103fcf9U, 0xfafb05ff0502fcf7U, 0xfbfaf902f9fbfb04U, 0xfe01f9fa01fbf903U,
  0xfff6fcfc03f7fefdU, 0x20002fefcfcfdfbU, 0xfa00fdfaf9f80001U, 0xfdfd0404faf6fffeU,
  0xf9fb04f9fffa00f8U, 0x3f903fe01fff705U, 0xf9fcfc0202f8fcfaU, 0x2020303fd0504U,
  0x104f9f800fafe02U, 0xf7fd04fafbfef8feU, 0xf9f804020102f6fbU, 0x4f9f900fe00fbf8U,
  0xfcfe0004f8fc00f7U, 0x3fafb0404fe00faU, 0x403f9f7fe04fdfdU, 0xfe00f9fcfbfdfdffU,
  0xf7f70403f603fefeU, 0x3f7f7000204f9fcU, 0xfdfb01f8f7faffU, 0xf8fd0001fdf9ff00U,
  0x3feff01fe00fc03U, 0xfb01fa04fbfeff05U, 0xf9fa0504faf8fe00U, 0x203fa04fb03f700U,
  0x503f8fffcfafdfeU, 0xfcfa03faff02f9U, 0xf8f9fdfa05fb00feU, 0xfb02f9fef9fa0001U,
  0xf901fbfdff00fff7U, 0xf8f8fdfefcf8f8ffU, 0xf8fff8f7ff03fbffU, 0x4f70201fcfbf802U,
  0xf7fafbf80001faffU, 0xf90400f601f9f904U, 0xfffb01fdfafcf801U, 0xfcff02ff0303fbfeU,
  0xf8fc03f902f603f9U, 0xfefb02f8ff0100f7U, 0xf9fdf6fffc00fe03U, 0x5f600f7fcfdfef9U,
  0xfff8f8fbf8f8fb00U, 0x2f900fffefcfef7U, 0xf8f9ff02f90400fdU, 0x100fcff02ff03fbU,
  0x402fef9fa0301faU, 0x3f7f8f8f7ff0302U, 0x5f7fbfcf8fcfefdU, 0xfb050202fd00fe04U,
  0xfdfbfff605fd03f6U, 0x200fff9fbf901U, 0xfcfe02f7f7fbfef7U, 0xf8fa0205faf9f8fdU,
  0xf8fdf8f80402fefdU, 0x3feff05fb07fb07U, 0x3fb0406fbff0300U, 0x20403020300fe07U,
  0xfa04040507000101U, 0x2fcfcff0002fcU, 0x104fefd0703fdf8U, 0xfb00fffc01fbfcf8U,
  0xf8fd02070002fa00U, 0xfdf9000303fbfbfdU, 0xfe0303f900fbfeU, 0xfb070105fb05fdfdU,
  0xfefefcfbfbf7f9feU, 0xfc01fcfd06fcfaffU, 0xfff702fefdff07U, 0xfffe02fafd070202U,
  0x6f9fd05fffcfaf9U, 0xfd0601fffcfa06fbU, 0x3060704fbfffbfcU, 0x102fbff0407fbfbU,
  0xfd00fcfa0104fcU, 0x5fafc04fd01fffaU, 0x303fffc020301fdU, 0xfdff040200fbfefdU,
  0xfa03fafb02fd00fcU, 0xfafafe03fafb07f9U, 0xf804f901f8020104U, 0x1f604fefbf6f8feU,
  0xfd050402fa04fbfaU, 0x5feff03fe010307U, 0x1fdf9fef700fe01U, 0xfe030601f7fff901U,
  0xfef902fa0003fbf8U, 0xfdfa0504f703fcfeU, 0xfdfa05fdf9fefcfbU, 0xfdfb0505000204f8U,
  0xfd00fcfafdf7fc01U, 0xf7040201f9000504U, 0x30400fafffaf903U, 0x2fb05fb02fefa02U,
  0xf8fc0205fd00fc00U, 0xfafc03ffffff0202U, 0xfafffc00f7fa0002U, 0xfffcfa00f7fefdfcU,
  0xf900f9f9fcfcf904U, 0xfcfcf7fcfbf9fffeU, 0x502fcfdfffa0405U, 0x101faf7f904f905U,
  0xfc02fc04fb03fd02U, 0x4fafd00fc07fafdU, 0xfb03fcfe0503faf9U, 0xf7fdf7fefcfa01f8U,
  0xf9f8fbfcff010504U, 0x401f6fe0102fb00U, 0x4fe0101fbf80702U, 0xfe00f7f8f9f900f7U,
  0xfffb0202020502ffU, 0xf90204fefdff0104U, 0x504f704fbfef7feU, 0x104f9fef8f90101U,
  0xfef8f7faf701f7f7U, 0xfb02fd04fd00faf9U, 0x2f9fefcfbfdf9fcU, 0xf902f9ff01fdfe02U,
  0xfe05ff04000100f9U, 0xfff8fc03ff040407U, 0x3fafefe00fcfaf8U, 0xfefefdfdfdf7fdfcU,
  0xfa04f7fd05fbfb02U, 0x4fbfcfd02fafb01U, 0xf7fa01f9fbf8f7f9U, 0xfcfb02fe00fb02fbU,
  0xfbfd00f8fd0100fdU, 0xfffbfe04f9fdfb00U, 0xff0004fefaf7feffU, 0xfbf8fd02fcfef9ffU,
  0x4fffef8fafb03f9U, 0xfbf905000302fdfcU, 0xfef705050200fe01U, 0xff01fb05f90003faU,
  0x40305fefef804feU, 0x1fd040202030202U, 0x1fa03f90001f903U, 0xf8fb0303ff020501U,
  0xfffe00fc04fe04f7U, 0x3fe0201fd05fdfeU, 0x202fefb00030000U, 0x200fbfbfefb03f7U,
  0x400fffefefdf901U, 0x2010102fff7faf8U, 0xfb01010400f7ff03U, 0xfef7f9f705fdf9feU,
  0x303f8fcf9020202U, 0xfb0001faff02fafbU, 0x2fb03fe03fe01f8U, 0xfefefb05fc03f800U,
  0xfe03fefb0004fdf8U, 0x101fafbf801fbfcU, 0xf70204fafdfef8fbU, 0x201050102fbfb02U,
  0xfe06000406fefbffU, 0x5ff060205fa07fdU, 0xff040707fd05fafbU, 0xf907020104ff0506U,
  0xf90104f9fc04fffbU, 0xfbfa0100fefa04fcU, 0xfa05fafd02fc01ffU, 0x501fbfa04fdf9fbU,
  0xfeff0704faff0102U, 0xfefcfcfffd06fbU, 0xfb04fa070303fd06U, 0x5010205f907f9faU,
  0xfdf9fb070202fe02U, 0xfafd0206fffb01fcU, 0xfffefc010603fffcU, 0xfff905f9000100f9U,
  0xfe05fcfe01fc0406U, 0x4fffe0206fdfcfbU, 0xfcfd0307030001U, 0xfafa0707fb00faU,
  0x1fbfafa03fdfd02U, 0xfe04fa030201f901U, 0x4fa07fb0506fafaU, 0xf0f0f0f0106fa04U,
  0x104090e00ff0d05U, 0xffff0201030a0205U, 0xf3fffc061008ffU, 0x50a03fd1d01fb0bU,
  0xfdfa0111f907fa0bU, 0xfb0c15110bee0a1aU, 0x1209090208f71bfeU, 0x1cfefe2429f313feU,
  0x10dbfa131511fff3U, 0x2040ae4001df4feU, 0x40b3d0be9ed0811U, 0x61d0906ede812f8U,
  0xf20e01091a0a18ddU, 0x10ee04150b18fff2U, 0x19080ce3ffe0090eU, 0x12130f13020e0e0bU,
  0xfcf7260eef0721eaU, 0x18f70df2f6040e0dU, 0x20af2e924f1e2faU, 0x1c06f71717fdeb04U,
  0x20a0d0e08e3020bU, 0xfa041100f50814fdU, 0x16130e20120a0d07U, 0x100504071a0908f8U,
  0xf20f0ef910110310U, 0x4041d14f3fef8deU, 0xf6ec0b210ce3ea11U, 0xfbfe08fd03eafc0bU,
  0xfe0deaed17250805U, 0x1713faf5f6ffefe3U, 0xe7f9fcf7e00a1810U, 0xf60c291aebe80102U,
  0xfbfdf41707ebea0cU, 0x120a142129220a03U, 0x2f19f80903230aefU, 0x1a230f07ff050d27U,
  0xeb192219f6040820U, 0xf705142609eef40dU, 0x4f0e10f1102f207U, 0xf204f7f21519eaf6U,
  0xe61004eae7f4e3f5U, 0xdeeafc00f5ea1001U, 0x1fa1c20eaea0b03U, 0xb15def40e0d02e5U,
  0x8fbf9f012feedecU, 0xf0e0f5f6ee0a0f0cU, 0xb080205f5fa02fcU, 0xf6f8f4f8f2fb0512U,
  0x1006fef70d010301U, 0x3ee0fd3d4f51015U, 0xf9fef7161c0d121eU, 0xf3111dfe07fbf0e4U,
  0x2f90014f2f52f36U, 0xec18f4f5fefc0ff6U, 0x14e2caefece9e8e6U, 0xf7ffc0ebe6fcdce7U,
  0xe8180fd6d406f7d6U, 0xd3f4331ec7e0f904U, 0xf7edf8091be9e3fbU, 0xf911ebe1073016f8U,
  0x3c0bece50e19160fU, 0x7210a2908ede208U, 0xdd08ed06f1f0f30dU, 0xf5e800f5f113f7U,
  0xf0bffad9d806ef02U, 0xeef4f2de1022ffeeU, 0x70ff904f8f1d3efU, 0xf2f9fa04d4eb0703U,
  0xc0cd0bd7c30d31e2U, 0xf0efe8f0efeef7e2U, 0xf2f7f0e0ebf1e4dfU, 0x906090af4e6efeeU,
  0x10103f8f0f0f009U, 0x1104fdfefe0e0508U, 0x1090c050b0d030dU, 0xedf9020b06e60903U,
  0xf713fa04f9f30417U, 0x1411ed102a180ff0U, 0x2203e9ff0707e8f3U, 0xf4eb23f4f51e2a0eU,
  0xfaf52ff5eb00020cU, 0x10bfd080ae5f31eU, 0xf91afbf3300deb01U, 0x22dbfa090817ffd8U,
  0x8ebfd0b0a0b2407U, 0xa132bf2f9190f1fU, 0xf9082afff3d30fe0U, 0x16daef1829080700U,
  0xdfafcf52b1ef0f1U, 0xe9061adcfbfb06faU, 0xe8f712fefdd72509U, 0x80b1009ec0609faU,
  0x2309ebef080811d5U, 0x1dfff8f42518e200U, 0x4040e19090e1209U, 0x13081e0d15f21c12U,
  0xf0d030302070e15U, 0x130ffe0e10070708U, 0x110b050a09020302U, 0xfb011209ff01170eU,
  0x15f9e90bddf1fe0bU, 0x281dfcd1060afc02U, 0x1fef903161fec05U, 0xeb23391f16e1e71cU,
  0xe7ff0000f6f620fbU, 0x10de0429130626eeU, 0x3cf9f0faf508f809U, 0x61309d50d1fec0eU,
  0xfd1d3b4901effd12U, 0xfd1c2f22f4fc072eU, 0xf30b090c0a3238f3U, 0x1d13f4181c2d2610U,
  0x3c2ceaf804daf323U, 0xeefcfc160f17f5fcU, 0xefdd3a07d90103c5U, 0xdedf9e5dafc0c0aU,
  0x130de5d31efe0208U, 0x4005df082804dafaU, 0xf0101f0d10e2f208U, 0xe8e7270fdcf72812U,
  0xf50b0817060b2802U, 0xa0708f50ff5f3f0U, 0xe0fd0600ff1508ffU, 0x9061815f7fd09e0U,
  0x1cd6ef1621ebe80dU, 0xf4f2060210feef16U, 0xf918fbe70e2b1607U, 0xa1afbedff07f0e4U,
  0xf7f0fd08e6f52a1bU, 0x9fa2030effbfa04U, 0xfc04e2fc16fbd1fcU, 0xf708140e322a1f0bU,
  0x3e1ef801f12119f5U, 0x281d1cf61d0a2415U, 0xfdf9361afcf8f52bU, 0xf005112511f2fcfeU,
  0x13f8d700140605f9U, 0xeafbece100270eecU, 0xf5fa19f0d1fef9dfU, 0xe9e8ed03fdd6f529U,
  0xf4040c2afae30106U, 0x130febedfe100ed8U, 0x9f700f0031ff0eaU, 0xede3f7f3f6f71209U,
  0x170b050707ef0111U, 0x201f1fbf1f40511U, 0x414000704fe0702U, 0xf1020bedf90e0c0dU,
  0xfdf5f0010d021810U, 0x70f001413f1e90cU, 0xfa060c0ff6e803f3U, 0xfd0401f1fbf904f0U,
  0xf2fffe100e0cf6ebU, 0x4e9ed06fef8fbf5U, 0xfdfefafcf01716fcU, 0xf132302f0f8011bU,
  0xfb101b2001f0fb1bU, 0xfc1ff616102bfdf3U, 0xfffcfa171427ff12U, 0x301ee27f50d0120U,
  0xed0efe08f2ff0a28U, 0x117fd07e901effaU, 0xf7e7f5f3f402f0fcU, 0xf0e80008161bece9U,
  0x2faf906e7fde9fbU, 0xf906fe00f1fb1d08U, 0x12070cf2ee0ee8fbU, 0xef12f40aeffefdeeU,
  0xf6f8f2f504e3daf4U, 0x707050df700f401U, 0x3080406fbfcfdf6U, 0x606feffff08050bU,
  0x70c0f0910fe110fU, 0xfce2e2f808f4fc09U, 0xe20309fe16160005U, 0xf30c0df9011405f5U,
  0x1c03ecf8f402faf4U, 0xfcebf50ffcf81719U, 0xc091002fefaf0faU, 0xf7f6e5faf904ef02U,
  0xef0d010f1a16f7fdU, 0x2f05fffcf4081100U, 0x170200172217322aU, 0xa242223fffffd1eU,
  0x1221b1d0b1dff0bU, 0x6effe120b1b05ffU, 0xfbfeeff613231a02U, 0xeffdf8e8e4030809U,
  0xf3ededf4e7e60018U, 0xfa030d0202fdedfaU, 0x20ef0eceb05f6dfU, 0x3e8f2f3090d00f2U,
  0xd9ef16fe020015U, 0xf1807fe03e6f504U, 0xfbfef1eaf4ff041eU, 0xa0a011204f9f9feU,
  0x8fa04000c000907U, 0xfb1d050007f9fe0aU, 0xfa3901fa0f190102U, 0xffec1725eff71afbU,
  0xf50f0ffe0ef92623U, 0x1f0ae1ff260404fbU, 0x1bfdeafe051af009U, 0xf10209d9eb25f1e9U,
  0xdf093c0402ef0708U, 0xfe04052f15db0826U, 0xee40ec12ff281efcU, 0x2509fffb1239e7f3U,
  0xec08fe25ede7d227U, 0xea080317f5f1f511U, 0xf2f11525e50a12f5U, 0xfdcbf4edef0c040aU,
  0x4fee7fb3900e90eU, 0x1c24eff1f117d0f6U, 0xf2f70c0ae3ee14edU, 0xf10a34fdf3020e05U,
  0xfff8e308fa0b0cffU, 0xd14f2fd21fbeff8U, 0x20af4f9fe02faf7U, 0x5080b03f9090af8U,
  0xf6fe07070b071004U, 0xdf90e25feec0cf7U, 0x19f6e6fa170af4ffU, 0xf5fd12f92714f5f4U,
  0xecfb25e9f20f2807U, 0x31112f4f3031df3U, 0xbf4f20d02e40219U, 0x1bfeee1927f2f5ffU,
  0xf6fbf9fc1212f4e7U, 0xeff812f4f82a2400U, 0x223106f8e90a2824U, 0x291611051a081202U,
  0xcd5113014fde9f9U, 0xebed0611240a0b04U, 0xe80303e30e0a1409U, 0xfc01efffec1a2a00U,
  0x17ec0007dadf03e9U, 0xffddf3f60806ce16U, 0xcd01f31c2b03e50dU, 0xeb181aedfa0b0016U,
  0x104fffeed1d29f8U, 0x705f3ff04ef1310U, 0xe0d07fb0307ea05U, 0x4f8fe0704070afcU,
  0x6fefa0b0a02fd06U, 0x1070506fd0e0205U, 0xa10030a0907030bU, 0x1f0bf9f302fcfefbU,
  0xf06faed17fef704U, 0xfff5fc000107f1fdU, 0x11202311f11621U, 0xc0a0604f7ee0e09U,
  0x6f6f91e270d0a12U, 0x16ecf21a1911e703U, 0xfd0af1d2effee60eU, 0x42d282fd5fe1919U,
  0x5171a0fe4e70d19U, 0xf21aee1e12260fe9U, 0x901f325281b09fdU, 0x131107edf5f10a11U,
  0x100e0c11fa120e00U, 0xf2f82407fb0f0cecU, 0x1bf105fdf40c040bU, 0x707edf31af1f20fU,
  0x30f5ef160dfae314U, 0xf814160400ea0309U, 0xfffc1605fb101509U, 0xe1d0f1805fa1604U,
  0x1304070322070309U, 0xe504081006140a05U, 0xc03171cfc0317f3U, 0x24e4ea1417f6e8feU,
  0xf6fd08fc1afdeb07U, 0xfc1003e6001d0b01U, 0x50f05e4fe04f3e7U, 0xf8f5f40de4e91512U,
  0x13f91d29f9ebf3fcU, 0xf2f3ec040d02def8U, 0xef0b0a1e1d221508U, 0x2133f9f8ec1b1e0eU,
  0x231e1a13060e0d13U, 0xfb162ef7f3f611U, 0xeffc13201609ee0fU, 0xe614e905070bfbf9U,
  0xe801ededfb1f1aecU, 0x3fa0fffd5f8f2e5U, 0xeedff3f7eee5f30aU, 0xedf5032811e1fc10U,
  0xa14e9f3fd08fee3U, 0xfdfcfce7fb1506dfU, 0xece6eaf8f401090cU, 0x141104fcfbf6f1feU,
  0xf5fcf500fafcfb0bU, 0x4121203fb050604U, 0xff000af5f8080c06U, 0x1cefef0dfffe1f06U,
  0x11fafb1b21da071cU, 0x102014f5ec05fc04U, 0xf801fce3f92802d1U, 0xddf925171b1300e1U,
  0xe5e6f20df8ebff15U, 0x1af5cafa15011a26U, 0x35350c00e803f7faU, 0x1251ceee10b1304U,
  0x11ff1b1a36270004U, 0x301fa3132131102U, 0x13e01ee30aea352cU, 0x200e0205f3f6222dU,
  0xa3004e004eee2f1U, 0xc4fd03defafffdddU, 0x3cd0232ebe517e2U, 0xbd6f213f2cff0feU,
  0x2120ec7f012fb20U, 0xfa31f0d91c28f3e4U, 0xfeed12051bfcf2ecU, 0x14eff42dffeffe0dU,
  0xf5e4fdff1f01080cU, 0x3fffdf70102faedU, 0xdd041a1d02130b07U, 0x1af71b2aeff720efU,
  0x2be5dc0a1c03dffcU, 0x2f1fafc20f7f103U, 0xf10d16dffe1b1300U, 0x60a12f3edfa05f6U,
  0xfcfbe60ef6e60b19U, 0x130d17240ce5eaf5U, 0xf3f5f2fe1b24d6e6U, 0xf911071818271f1aU,
  0x1a3d08ffea112b25U, 0x202d1518050ffd10U, 0x12f81d3cfe01ee08U, 0xed05021d2d03f31eU,
  0xe60de9ec0c1401ffU, 0xe402e7f8f11d24f8U, 0xef711fdcffef9f3U, 0x6dfeafff5eed60cU,
  0xdf0dfe1417eff525U, 0xf10effe5ef0ef7eeU, 0x504f2f8ef1e10eeU, 0xfbdfe7f3fdf40f10U,
  0x180b0304f5f2f203U, 0xfdfcff0000fe04U, 0xfe060d0afefe00fcU, 0x50e0b0d08080402U,
  0xf9f705000a090007U, 0xb0c0806fe0b030aU, 0x11f8fd00090903fdU, 0x13060afffffc0114U,
  0x90f110d12040c12U, 0xf812130807fb0a04U, 0xf2f50a1d0d07fafdU, 0xf0f0eefb1217fb10U,
  0x7f9f1f803fbfa01U, 0x8210a1ce2ef091eU, 0xfb1a1207e6fd0a06U, 0xf1000318062903f8U,
  0x6f6fe0b2514f4f5U, 0x11f8f20b03080e1dU, 0x16030808090e2917U, 0x110e100109f9060aU,
  0x10207f0eb0d090cU, 0xfffe040d12fff5eaU, 0x14f7f50b0b05ec01U, 0x8100d091300f105U,
  0x20817151214120aU, 0x408030d07011414U, 0xf0d0c070e120303U, 0xf8fe0902070d07fbU,
  0x7f8180feafd0edeU, 0x15e3de1019f2ec11U, 0xdef609001e09ee10U, 0xf4170bddfa282b01U,
  0x1607f2eafa0dfdf1U, 0xf8e7f212e2e21c2cU, 0x25020a2805def404U, 0xf3fcf7f00f06d2e6U,
  0xe1ff06fc283912f1U, 0x2e1dfcfeed222a08U, 0x2d180e070c0d2421U, 0x8f9203cfafeef2bU,
  0xee091d241efafbfeU, 0xf100f0e71a1a0500U, 0xfa0be2f302251beaU, 0xcee0a09c7f0fcebU,
  0xf3dfe102efebeb28U, 0xe711ff121cf2e513U, 0x1521fbdf021302eaU, 0xfc06f3f0013204d3U,
  0x5d9f50a02fa0d15U, 0xf13fb090bf1e020U, 0x204eef503f90609U, 0xf9f8fef7f70203f9U,
  0xfafeff03fafb04faU, 0xfa0405f9f8fb0200U, 0x404fbfbf9fefb00U, 0xf9fbff00fdfe01f9U,
  0xfcfd04ff0300fcffU, 0xfbf7ff02fd04f701U, 0xfd05fdfffaf7fbfbU, 0x1f8fff8f901fef8U,
  0x1030102040105f9U, 0x1faff02fafe02ffU, 0xfd010000ff04ff05U, 0xfbfaf704fbfef904U,
  0xfc01f8ff03f7fafbU, 0xf8fd03fefbf7f7f7U, 0x100ff04f9fefcf8U, 0xfafd0400f7fcfd03U,
  0x105fafe0400fef8U, 0xfefc0403f7f9ff03U, 0xf903fdfd01fbfefaU, 0xf7f8fc00fbfbf9f7U,
  0xfc02f800fb02f9f9U, 0xf9fafaf7f704f9f8U, 0x3fcfa0503f702U, 0x3fd0404fcfcf8f7U,
  0x3fdf901030202U, 0x304fcf902fdfe03U, 0x2050601020404fdU, 0x1fe03020302fcf9U,
  0x5fff90002fcf800U, 0xfbf9fcfef7f70504U, 0x207fd06fbfefffaU, 0xf9f9fe000203faf9U,
  0x3040204fcfe0700U, 0x203fcf8fd0004fdU, 0xf6fe00f8faf7fcfeU, 0x2fbf7fcfcfcfc00U,
  0x401fffafe02fa04U, 0xfafff8fe05fafb03U, 0xfa02fbf705f9fafdU, 0xfbfcfafefe0303ffU,
  0xfaf802020300faffU, 0xfc02020502fefa00U, 0xfcfbf9fefaff0601U, 0x4faf9ff03fcfc04U,
  0xfd0203fcfd04fdfbU, 0xfcf90104fcfffcffU, 0x500060203060001U, 0xf9f9fc01fc01fcfaU,
  0xfcfc00fe00fbfcf8U, 0xfdfffdfcfeff04U, 0x6010603fb0003faU, 0xfa03020705070200U,
  0xfe06f9040506fe07U, 0xfe0405fffd07fffaU, 0xfc03fe01ff05fbfaU, 0x20105fc06fcfcfdU,
  0xfefc01f9050405fcU, 0x702faff0201fcU, 0xfe06fb04fcfd0700U, 0x70600030302f9fdU,
  0xfe00fa0603fd0403U, 0xfffa0102fcfc07fbU, 0xfa06f905fcf9fe03U, 0x5f9030305fafffbU,
  0x7fffb0603f90401U, 0x404fa0404fafafbU, 0x706fc00faf9fc06U, 0xfcfcff01010504fdU,
  0xfcf9fffff9f90102U, 0xfa040203070204faU, 0x4f9fb0301f9fffbU, 0x40402ff070505ffU,
  0x500fc0102f9fd04U, 0xfafd00fe04f9fafeU, 0xf8fdf90404f7f905U, 0x4faff03f7fafffbU,
  0xfdfff702f90001fdU, 0x2f805fdf9fff9ffU, 0xfefcf8f9fbfdfe04U, 0xf7fa03fbfcfcfafeU,
  0xfb05f8f9030405feU, 0xf9fe05fafafefefcU, 0xf8fdfff703fbf7fbU, 0xfe0404fe0402fc00U,
  0xfb0301fafefaff00U, 0xfefa05f8f7fe01f9U, 0xfc05f8f8f7fdf9feU, 0xfef704fdf904fdf8U,
  0xf70001f905fbfc01U, 0xfa00f9fbfbfffdU, 0x4f9000404fff8ffU, 0x3fefaff02fe0401U,
  0xfbfdfbfffe020304U, 0x5f7fffbfffa04fdU, 0xf804fafe05faf7fdU, 0xfef8faf9ff00ff00U,
  0xfef70201f7fffff7U, 0xfd00f90003f8ff04U, 0xfcf704fc02010001U, 0x1fef9fefb01fc01U,
  0x3ff05fcfefe0505U, 0x4f8040102f8faffU, 0xfd0302fafe00f9f9U, 0xfafe03000102f702U,
  0xf80500fcfc04fcfcU, 0xfd01fcfefaf90204U, 0xfd05fbfe02fe0501U, 0xfe04fffd0202fc03U,
  0xfc05ff0101000201U, 0x5ff050103fefefaU, 0xf8fe05000103fb00U, 0xf7f80100fc010204U,
  0x1f7fafb03f8fc03U, 0xfcfafcfafc05fb01U, 0xfefcfb03fff9fd03U, 0x5020103f80503fdU,
  0xfd030004f903fafcU, 0xfffd02ff0101f702U, 0xf904f7f8fdf90403U, 0xfd04fefbf9f80200U,
  0xfcfffcfaf804fa04U, 0xffff0104fefbf8fbU, 0x104fa0201fc0507U, 0x2fc0302fc030105U,
  0x30001fcfeff01fdU, 0x7fbfefc03ff0107U, 0xfefbf90301fbfb03U, 0xff0205ff00000203U,
